{
  "version": "1.0",
  "truncation": null,
  "padding": null,
  "added_tokens": [
    {
      "id": 0,
      "content": "[UNK]",
      "single_word": false,
      "lstrip": false,
      "rstrip": false,
      "normalized": false,
      "special": true
    },
    {
      "id": 1,
      "content": "[SEP]",
      "single_word": false,
      "lstrip": false,
      "rstrip": false,
      "normalized": false,
      "special": true
    },
    {
      "id": 2,
      "content": "[PAD]",
      "single_word": false,
      "lstrip": false,
      "rstrip": false,
      "normalized": false,
      "special": true
    },
    {
      "id": 3,
      "content": "[MASK]",
      "single_word": false,
      "lstrip": false,
      "rstrip": false,
      "normalized": false,
      "special": true
    },
    {
      "id": 4,
      "content": "[CLS]",
      "single_word": false,
      "lstrip": false,
      "rstrip": false,
      "normalized": false,
      "special": true
    }
  ],
  "normalizer": null,
  "pre_tokenizer": {
    "type": "Whitespace"
  },
  "post_processor": {
    "type": "TemplateProcessing",
    "single": [
      {
        "SpecialToken": {
          "id": "[CLS]",
          "type_id": 0
        }
      },
      {
        "Sequence": {
          "id": "A",
          "type_id": 0
        }
      },
      {
        "SpecialToken": {
          "id": "[SEP]",
          "type_id": 0
        }
      }
    ],
    "pair": [
      {
        "SpecialToken": {
          "id": "[CLS]",
          "type_id": 0
        }
      },
      {
        "Sequence": {
          "id": "A",
          "type_id": 0
        }
      },
      {
        "SpecialToken": {
          "id": "[SEP]",
          "type_id": 0
        }
      },
      {
        "Sequence": {
          "id": "B",
          "type_id": 1
        }
      },
      {
        "SpecialToken": {
          "id": "[SEP]",
          "type_id": 1
        }
      }
    ],
    "special_tokens": {
      "[CLS]": {
        "id": "[CLS]",
        "ids": [
          4
        ],
        "tokens": [
          "[CLS]"
        ]
      },
      "[SEP]": {
        "id": "[SEP]",
        "ids": [
          1
        ],
        "tokens": [
          "[SEP]"
        ]
      }
    }
  },
  "decoder": null,
  "model": {
    "type": "WordPiece",
    "unk_token": "[UNK]",
    "continuing_subword_prefix": "##",
    "max_input_chars_per_word": 100,
    "vocab": {
      "[UNK]": 0,
      "[SEP]": 1,
      "[PAD]": 2,
      "[MASK]": 3,
      "[CLS]": 4,
      "!": 5,
      "\"": 6,
      "$": 7,
      "%": 8,
      "'": 9,
      "(": 10,
      ")": 11,
      "*": 12,
      "+": 13,
      ",": 14,
      "-": 15,
      ".": 16,
      "/": 17,
      "0": 18,
      "1": 19,
      "2": 20,
      "3": 21,
      "4": 22,
      "5": 23,
      "6": 24,
      "7": 25,
      "8": 26,
      "9": 27,
      ":": 28,
      ";": 29,
      "<": 30,
      "=": 31,
      ">": 32,
      "?": 33,
      "@": 34,
      "A": 35,
      "B": 36,
      "C": 37,
      "D": 38,
      "E": 39,
      "F": 40,
      "G": 41,
      "H": 42,
      "I": 43,
      "J": 44,
      "K": 45,
      "L": 46,
      "M": 47,
      "N": 48,
      "O": 49,
      "P": 50,
      "Q": 51,
      "R": 52,
      "S": 53,
      "T": 54,
      "U": 55,
      "V": 56,
      "W": 57,
      "X": 58,
      "Y": 59,
      "Z": 60,
      "[": 61,
      "\\": 62,
      "]": 63,
      "_": 64,
      "a": 65,
      "b": 66,
      "c": 67,
      "d": 68,
      "e": 69,
      "f": 70,
      "g": 71,
      "h": 72,
      "i": 73,
      "j": 74,
      "k": 75,
      "l": 76,
      "m": 77,
      "n": 78,
      "o": 79,
      "p": 80,
      "q": 81,
      "r": 82,
      "s": 83,
      "t": 84,
      "u": 85,
      "v": 86,
      "w": 87,
      "x": 88,
      "y": 89,
      "z": 90,
      "{": 91,
      "|": 92,
      "}": 93,
      "~": 94,
      "©": 95,
      "«": 96,
      "­": 97,
      "®": 98,
      "°": 99,
      "»": 100,
      "Ё": 101,
      "А": 102,
      "Б": 103,
      "В": 104,
      "Г": 105,
      "Д": 106,
      "Е": 107,
      "Ж": 108,
      "З": 109,
      "И": 110,
      "Й": 111,
      "К": 112,
      "Л": 113,
      "М": 114,
      "Н": 115,
      "О": 116,
      "П": 117,
      "Р": 118,
      "С": 119,
      "Т": 120,
      "У": 121,
      "Ф": 122,
      "Х": 123,
      "Ц": 124,
      "Ч": 125,
      "Ш": 126,
      "Щ": 127,
      "Ъ": 128,
      "Ы": 129,
      "Ь": 130,
      "Э": 131,
      "Ю": 132,
      "Я": 133,
      "а": 134,
      "б": 135,
      "в": 136,
      "г": 137,
      "д": 138,
      "е": 139,
      "ж": 140,
      "з": 141,
      "и": 142,
      "й": 143,
      "к": 144,
      "л": 145,
      "м": 146,
      "н": 147,
      "о": 148,
      "п": 149,
      "р": 150,
      "с": 151,
      "т": 152,
      "у": 153,
      "ф": 154,
      "х": 155,
      "ц": 156,
      "ч": 157,
      "ш": 158,
      "щ": 159,
      "ъ": 160,
      "ы": 161,
      "ь": 162,
      "э": 163,
      "ю": 164,
      "я": 165,
      "ѐ": 166,
      "ё": 167,
      "–": 168,
      "—": 169,
      "‘": 170,
      "’": 171,
      "“": 172,
      "”": 173,
      "•": 174,
      "№": 175,
      "™": 176,
      "": 177,
      "##р": 178,
      "##е": 179,
      "##д": 180,
      "##в": 181,
      "##а": 182,
      "##и": 183,
      "##т": 184,
      "##л": 185,
      "##ь": 186,
      "##н": 187,
      "##о": 188,
      "##у": 189,
      "##П": 190,
      "##З": 191,
      "##з": 192,
      "##м": 193,
      "##ж": 194,
      "##г": 195,
      "##Т": 196,
      "##А": 197,
      "##_": 198,
      "##В": 199,
      "##ф": 200,
      "##б": 201,
      "##к": 202,
      "##I": 203,
      "##M": 204,
      "##D": 205,
      "##3": 206,
      "##ы": 207,
      "##ч": 208,
      "##с": 209,
      "##х": 210,
      "##ц": 211,
      "##п": 212,
      "##я": 213,
      "##й": 214,
      "##o": 215,
      "##n": 216,
      "##e": 217,
      "##c": 218,
      "##t": 219,
      "##i": 220,
      "##v": 221,
      "##y": 222,
      "##r": 223,
      "##щ": 224,
      "##Е": 225,
      "##Р": 226,
      "##О": 227,
      "##С": 228,
      "##ю": 229,
      "##A": 230,
      "##V": 231,
      "##N": 232,
      "##ш": 233,
      "##P": 234,
      "##T": 235,
      "##H": 236,
      "##F": 237,
      "##R": 238,
      "##C": 239,
      "##U": 240,
      "##G": 241,
      "##E": 242,
      "##Б": 243,
      "##Ц": 244,
      "##m": 245,
      "##u": 246,
      "##a": 247,
      "##э": 248,
      "##Д": 249,
      "##Х": 250,
      "##Н": 251,
      "##И": 252,
      "##Ч": 253,
      "##К": 254,
      "##М": 255,
      "##У": 256,
      "##0": 257,
      "##1": 258,
      "##5": 259,
      "##2": 260,
      "##J": 261,
      "##S": 262,
      "##p": 263,
      "##l": 264,
      "##x": 265,
      "##4": 266,
      "##s": 267,
      "##)": 268,
      "##,": 269,
      "##9": 270,
      "##Г": 271,
      "##7": 272,
      "##‘": 273,
      "##L": 274,
      "##B": 275,
      "##O": 276,
      "##ъ": 277,
      "##Э": 278,
      "##[": 279,
      "##»": 280,
      "##8": 281,
      "##Q": 282,
      "##$": 283,
      "##Й": 284,
      "##Ф": 285,
      "##6": 286,
      "##b": 287,
      "##Л": 288,
      "##Ь": 289,
      "##Ы": 290,
      "##.": 291,
      "##K": 292,
      "##d": 293,
      "##f": 294,
      "##k": 295,
      "##g": 296,
      "##(": 297,
      "##;": 298,
      "##\"": 299,
      "##«": 300,
      "##Я": 301,
      "##:": 302,
      "##Щ": 303,
      "##Ю": 304,
      "##z": 305,
      "##h": 306,
      "##w": 307,
      "##Y": 308,
      "##*": 309,
      "##Ж": 310,
      "##-": 311,
      "##]": 312,
      "##q": 313,
      "##j": 314,
      "##X": 315,
      "##?": 316,
      "##W": 317,
      "##/": 318,
      "##>": 319,
      "##ѐ": 320,
      "##{": 321,
      "##Ъ": 322,
      "##®": 323,
      "##+": 324,
      "##№": 325,
      "##Ш": 326,
      "##Ё": 327,
      "##ё": 328,
      "##—": 329,
      "##}": 330,
      "##|": 331,
      "##°": 332,
      "##ст": 333,
      "##ен": 334,
      "##ов": 335,
      "##но": 336,
      "##ан": 337,
      "##ци": 338,
      "##ени": 339,
      "##ра": 340,
      "##ре": 341,
      "##ны": 342,
      "##ль": 343,
      "##ор": 344,
      "##ет": 345,
      "по": 346,
      "##ат": 347,
      "##..": 348,
      "##ри": 349,
      "##он": 350,
      "##ств": 351,
      "##ани": 352,
      "##ем": 353,
      "##аци": 354,
      "##ля": 355,
      "##ли": 356,
      "##сти": 357,
      "##ред": 358,
      "##ом": 359,
      "##от": 360,
      "##ер": 361,
      "##ит": 362,
      "##го": 363,
      "##ей": 364,
      "ин": 365,
      "##ров": 366,
      "##од": 367,
      "##ас": 368,
      "##ных": 369,
      "##им": 370,
      "##ения": 371,
      "об": 372,
      "##орм": 373,
      "##ент": 374,
      "##кт": 375,
      "на": 376,
      "##ед": 377,
      "##ро": 378,
      "##ся": 379,
      "инф": 380,
      "##ес": 381,
      "##....": 382,
      "##ности": 383,
      "##на": 384,
      "##ол": 385,
      "за": 386,
      "##ик": 387,
      "информ": 388,
      "##ение": 389,
      "##аз": 390,
      "##ации": 391,
      "##оп": 392,
      "##ост": 393,
      "##ез": 394,
      "##ми": 395,
      "при": 396,
      "##ис": 397,
      "##пе": 398,
      "##то": 399,
      "##льз": 400,
      "##ель": 401,
      "##ав": 402,
      "##ел": 403,
      "##ру": 404,
      "##ания": 405,
      "пред": 406,
      "##ки": 407,
      "без": 408,
      "##ож": 409,
      "от": 410,
      "##опас": 411,
      "##ной": 412,
      "##ко": 413,
      "безопас": 414,
      "##льзов": 415,
      "##рав": 416,
      "##ать": 417,
      "не": 418,
      "##ект": 419,
      "безопасности": 420,
      "##ут": 421,
      "##ейств": 422,
      "##ного": 423,
      "со": 424,
      "##аль": 425,
      "для": 426,
      "##ные": 427,
      "про": 428,
      "оп": 429,
      "##ист": 430,
      "##сп": 431,
      "##ющ": 432,
      "##ти": 433,
      "##ос": 434,
      "##ание": 435,
      "##омп": 436,
      "##ть": 437,
      "##ак": 438,
      "сл": 439,
      "##реб": 440,
      "##цен": 441,
      "##ун": 442,
      "информаци": 443,
      "или": 444,
      "##отор": 445,
      "##........": 446,
      "##емы": 447,
      "вы": 448,
      "##БО": 449,
      "##еля": 450,
      "##ют": 451,
      "дан": 452,
      "##ност": 453,
      "##кци": 454,
      "##раци": 455,
      "ОО": 456,
      "##чес": 457,
      "##ъект": 458,
      "##омпон": 459,
      "##льзоват": 460,
      "##омпонент": 461,
      "##ий": 462,
      "котор": 463,
      "##ерж": 464,
      "##ется": 465,
      "##нач": 466,
      "пользоват": 467,
      "##прав": 468,
      "##иров": 469,
      "ФБО": 470,
      "информации": 471,
      "##олж": 472,
      "раз": 473,
      "##фик": 474,
      "##фи": 475,
      "под": 476,
      "##ва": 477,
      "треб": 478,
      "долж": 479,
      "##оз": 480,
      "##ка": 481,
      "ли": 482,
      "##да": 483,
      "##ункци": 484,
      "исп": 485,
      "информацион": 486,
      "##еду": 487,
      "##ог": 488,
      "сист": 489,
      "компонент": 490,
      "##ии": 491,
      "##ность": 492,
      "##ок": 493,
      "ст": 494,
      "##ие": 495,
      "##бот": 496,
      "которы": 497,
      "##ия": 498,
      "что": 499,
      "функци": 500,
      "##об": 501,
      "ре": 502,
      "##правл": 503,
      "##ла": 504,
      "из": 505,
      "##имо": 506,
      "бы": 507,
      "св": 508,
      "защ": 509,
      "##лю": 510,
      "требов": 511,
      "те": 512,
      "##лиз": 513,
      "##мен": 514,
      "##ери": 515,
      "##пол": 516,
      "##их": 517,
      "##уп": 518,
      "ос": 519,
      "##яз": 520,
      "##ном": 521,
      "##печ": 522,
      "испо": 523,
      "##еспеч": 524,
      "##работ": 525,
      "##кой": 526,
      "следу": 527,
      "##вет": 528,
      "кон": 529,
      "##ча": 530,
      "опред": 531,
      "##еств": 532,
      "##ить": 533,
      "##остав": 534,
      "##рации": 535,
      "обеспеч": 536,
      "данных": 537,
      "воз": 538,
      "##енти": 539,
      "##уд": 540,
      "##ветств": 541,
      "сред": 542,
      "ЗБ": 543,
      "##ам": 544,
      "20": 545,
      "##ичес": 546,
      "##став": 547,
      "##ив": 548,
      "защит": 549,
      "##ным": 550,
      "##ой": 551,
      "##еде": 552,
      "##ущ": 553,
      "соот": 554,
      "##лу": 555,
      "ПЗ": 556,
      "объект": 557,
      "пользователя": 558,
      "##асс": 559,
      "##мож": 560,
      "действ": 561,
      "##ению": 562,
      "##ное": 563,
      "##ры": 564,
      "##ный": 565,
      "##каз": 566,
      "##ого": 567,
      "соответств": 568,
      "##ход": 569,
      "##емейств": 570,
      "быть": 571,
      "##клю": 572,
      "15": 573,
      "##тор": 574,
      "ат": 575,
      "##оч": 576,
      "##оступ": 577,
      "##ении": 578,
      "функцион": 579,
      "##ными": 580,
      "##одерж": 581,
      "##ня": 582,
      "представ": 583,
      "##лен": 584,
      "содерж": 585,
      "##из": 586,
      "##................": 587,
      "##бы": 588,
      "##пеци": 589,
      "Феде": 590,
      "##нов": 591,
      "управл": 592,
      "##ются": 593,
      "информационной": 594,
      "##ид": 595,
      "##ценз": 596,
      "мож": 597,
      "##ация": 598,
      "ме": 599,
      "специ": 600,
      "##жд": 601,
      "так": 602,
      "возмож": 603,
      "##08": 604,
      "доступ": 605,
      "лиценз": 606,
      "##ализ": 607,
      "##фици": 608,
      "##ле": 609,
      "##гра": 610,
      "МЭ": 611,
      "201": 612,
      "пров": 613,
      "##се": 614,
      "##ная": 615,
      "##ства": 616,
      "##анов": 617,
      "оцен": 618,
      "##ентифик": 619,
      "##СО": 620,
      "##ин": 621,
      "##уб": 622,
      "систем": 623,
      "##уществ": 624,
      "знач": 625,
      "выпол": 626,
      "использов": 627,
      "пе": 628,
      "семейств": 629,
      "опис": 630,
      "дов": 631,
      "разработ": 632,
      "##408": 633,
      "##удит": 634,
      "15408": 635,
      "защиты": 636,
      "##ме": 637,
      "##же": 638,
      "##DP": 639,
      "##кту": 640,
      "##мер": 641,
      "##при": 642,
      "Рос": 643,
      "##ами": 644,
      "##мент": 645,
      "##__": 646,
      "Росс": 647,
      "может": 648,
      "##фициров": 649,
      "суб": 650,
      "##итель": 651,
      "##имости": 652,
      "ИСО": 653,
      "которые": 654,
      "системы": 655,
      "##ласс": 656,
      "МЭК": 657,
      "##чик": 658,
      "уст": 659,
      "ид": 660,
      "##лем": 661,
      "##рг": 662,
      "требования": 663,
      "##атель": 664,
      "субъект": 665,
      "##дар": 666,
      "мог": 667,
      "предостав": 668,
      "ка": 669,
      "##ую": 670,
      "##пис": 671,
      "##енных": 672,
      "следует": 673,
      "##DP_": 674,
      "##оя": 675,
      "##ран": 676,
      "11": 677,
      "##СТ": 678,
      "осуществ": 679,
      "##ах": 680,
      "мод": 681,
      "10": 682,
      "##ких": 683,
      "определ": 684,
      "ав": 685,
      "##ели": 686,
      "##ления": 687,
      "орг": 688,
      "кри": 689,
      "то": 690,
      "слу": 691,
      "пр": 692,
      "##знач": 693,
      "как": 694,
      "##рукту": 695,
      "могут": 696,
      "##ключ": 697,
      "##ара": 698,
      "яв": 699,
      "аудит": 700,
      "ча": 701,
      "примен": 702,
      "прав": 703,
      "FDP_": 704,
      "##елей": 705,
      "##тель": 706,
      "##ющих": 707,
      "##риб": 708,
      "должны": 709,
      "реализ": 710,
      "довери": 711,
      "13": 712,
      "##лемент": 713,
      "##рибут": 714,
      "##те": 715,
      "##ус": 716,
      "тех": 717,
      "управления": 718,
      "##ений": 719,
      "##ской": 720,
      "класс": 721,
      "##DV": 722,
      "##аний": 723,
      "все": 724,
      "##тв": 725,
      "##сли": 726,
      "##грам": 727,
      "атрибут": 728,
      "док": 729,
      "##том": 730,
      "##T_": 731,
      "##ирован": 732,
      "##ее": 733,
      "##тро": 734,
      "##умент": 735,
      "также": 736,
      "##рани": 737,
      "При": 738,
      "компонентов": 739,
      "##ийской": 740,
      "опе": 741,
      "Федерации": 742,
      "Российской": 743,
      "связ": 744,
      "##грамм": 745,
      "явля": 746,
      "рас": 747,
      "##ива": 748,
      "##ыва": 749,
      "##ых": 750,
      "выполн": 751,
      "##альных": 752,
      "дру": 753,
      "доверия": 754,
      "средств": 755,
      "##ке": 756,
      "де": 757,
      "аудита": 758,
      "##ирования": 759,
      "должен": 760,
      "14": 761,
      "случа": 762,
      "##раз": 763,
      "##бо": 764,
      "##сы": 765,
      "документ": 766,
      "вн": 767,
      "программ": 768,
      "##ющие": 769,
      "##вис": 770,
      "уров": 771,
      "##раль": 772,
      "FP": 773,
      "чтобы": 774,
      "##его": 775,
      "##ением": 776,
      "##пример": 777,
      "действий": 778,
      "##ление": 779,
      "##ник": 780,
      "контро": 781,
      "необ": 782,
      "##лож": 783,
      "##аниз": 784,
      "##ены": 785,
      "##AU": 786,
      "их": 787,
      "##тер": 788,
      "##ОСТ": 789,
      "проц": 790,
      "эк": 791,
      "ADV": 792,
      "назнач": 793,
      "##азов": 794,
      "##емых": 795,
      "##уль": 796,
      "##ствен": 797,
      "осуществля": 798,
      "од": 799,
      "##сл": 800,
      "соответствии": 801,
      "##E_": 802,
      "##стиров": 803,
      "необход": 804,
      "автор": 805,
      "##ев": 806,
      "##ацион": 807,
      "##ятель": 808,
      "##ТБ": 809,
      "##ков": 810,
      "разработчик": 811,
      ").": 812,
      "##тверж": 813,
      "основ": 814,
      "##фикации": 815,
      "ФТБ": 816,
      "##дел": 817,
      "##A_": 818,
      "2013": 819,
      "прави": 820,
      "друг": 821,
      "се": 822,
      "указ": 823,
      "##етель": 824,
      "##аться": 825,
      "##язв": 826,
      "##идетель": 827,
      "действия": 828,
      "##мот": 829,
      "##ранич": 830,
      "##лич": 831,
      "уязв": 832,
      "##льзу": 833,
      "##жду": 834,
      "),": 835,
      "##руктуры": 836,
      "это": 837,
      "полу": 838,
      "та": 839,
      "##щик": 840,
      "деятель": 841,
      "между": 842,
      "##гранич": 843,
      "##анных": 844,
      "отно": 845,
      "##имост": 846,
      "использу": 847,
      "ис": 848,
      "завис": 849,
      "проект": 850,
      "свидетель": 851,
      "##ый": 852,
      "##ащ": 853,
      "обеспечения": 854,
      "класса": 855,
      "пол": 856,
      "##ании": 857,
      "##фицировать": 858,
      "##аны": 859,
      "интер": 860,
      "##иру": 861,
      "##LC": 862,
      "##раст": 863,
      "##................................": 864,
      "определя": 865,
      "автору": 866,
      "##яв": 867,
      "пере": 868,
      "##вод": 869,
      "##ур": 870,
      "##сов": 871,
      "инфраст": 872,
      "перед": 873,
      "##гро": 874,
      "##гроз": 875,
      "##ную": 876,
      "##нализ": 877,
      "част": 878,
      "##ни": 879,
      "12": 880,
      "##лько": 881,
      "##авис": 882,
      "функциональ": 883,
      "мет": 884,
      "состав": 885,
      "##ими": 886,
      "идентифик": 887,
      "сер": 888,
      "##анию": 889,
      "крити": 890,
      "эксп": 891,
      "##оря": 892,
      "которых": 893,
      "##удар": 894,
      "например": 895,
      "возможность": 896,
      "доп": 897,
      "угроз": 898,
      "##ничес": 899,
      "##твержд": 900,
      "инфраструктуры": 901,
      "##лементы": 902,
      "##ые": 903,
      "компонента": 904,
      "Федераль": 905,
      "##тат": 906,
      "##осудар": 907,
      "##CO": 908,
      "##рх": 909,
      "доступа": 910,
      "ADV_": 911,
      "его": 912,
      "##вед": 913,
      "установ": 914,
      "назначение": 915,
      "если": 916,
      "##за": 917,
      "##ческой": 918,
      "объекта": 919,
      "##утентифик": 920,
      "том": 921,
      "##ши": 922,
      "пот": 923,
      "##гу": 924,
      "»,": 925,
      "##фей": 926,
      "##форм": 927,
      "##емые": 928,
      "конфи": 929,
      "государ": 930,
      "##та": 931,
      "##ования": 932,
      "##га": 933,
      "семейства": 934,
      "##кон": 935,
      "##стоя": 936,
      "##ключа": 937,
      "##ая": 938,
      "##бор": 939,
      "##____": 940,
      "##еч": 941,
      "##ип": 942,
      "##ним": 943,
      "##AU_": 944,
      "форм": 945,
      "тестиров": 946,
      "прод": 947,
      "техничес": 948,
      "случае": 949,
      "##пп": 950,
      "мер": 951,
      "получ": 952,
      "##LC_": 953,
      "ра": 954,
      "##рен": 955,
      "##ку": 956,
      "требований": 957,
      "ГОСТ": 958,
      "##ана": 959,
      "##рет": 960,
      "##ерс": 961,
      "##имого": 962,
      "функционирования": 963,
      "##тест": 964,
      "интерфей": 965,
      "предус": 966,
      "##кие": 967,
      "реализации": 968,
      "##мени": 969,
      "##ультат": 970,
      "##про": 971,
      "объектов": 972,
      "свидетельств": 973,
      "16": 974,
      "##са": 975,
      "провер": 976,
      "деятельности": 977,
      "ад": 978,
      "включ": 979,
      "##руш": 980,
      "рез": 981,
      "##олн": 982,
      "FAU_": 983,
      "нес": 984,
      "оценки": 985,
      "буд": 986,
      "##пос": 987,
      "критической": 988,
      "спис": 989,
      "FPT_": 990,
      "##ици": 991,
      "##енного": 992,
      "##IT": 993,
      "##андар": 994,
      "описание": 995,
      "».": 996,
      "##анные": 997,
      "##енци": 998,
      "##рация": 999,
      "##стоящ": 1000,
      "##держ": 1001,
      "анализ": 1002,
      "но": 1003,
      "тип": 1004,
      "##ера": 1005,
      "вре": 1006,
      "пос": 1007,
      "аутентифик": 1008,
      "пото": 1009,
      "наруш": 1010,
      "требу": 1011,
      "иденти": 1012,
      "##ирование": 1013,
      "Элементы": 1014,
      "до": 1015,
      "##ло": 1016,
      "##анием": 1017,
      "пользователей": 1018,
      "содержит": 1019,
      "кажд": 1020,
      "Об": 1021,
      "##ком": 1022,
      "##атри": 1023,
      "##тия": 1024,
      "расс": 1025,
      "только": 1026,
      "##пред": 1027,
      "##ному": 1028,
      "##матри": 1029,
      "провед": 1030,
      "##ач": 1031,
      "аттест": 1032,
      "средства": 1033,
      "образ": 1034,
      "стандар": 1035,
      "включа": 1036,
      "эти": 1037,
      "является": 1038,
      "##номоч": 1039,
      "специфицировать": 1040,
      "результат": 1041,
      "##ено": 1042,
      "цел": 1043,
      "##ег": 1044,
      "измен": 1045,
      "##мин": 1046,
      "ALC_": 1047,
      "##олее": 1048,
      "##амеч": 1049,
      "вид": 1050,
      "чис": 1051,
      "##кого": 1052,
      "##амечания": 1053,
      "закон": 1054,
      "лиц": 1055,
      "##ерсон": 1056,
      "##крет": 1057,
      "базов": 1058,
      "предоставля": 1059,
      "государствен": 1060,
      "##ищ": 1061,
      "Замечания": 1062,
      "настоящ": 1063,
      "##заим": 1064,
      "##дель": 1065,
      "лицензии": 1066,
      "должно": 1067,
      "##ень": 1068,
      "##есур": 1069,
      "выполня": 1070,
      "##ависимости": 1071,
      "ресур": 1072,
      "##ункт": 1073,
      "##вер": 1074,
      "процес": 1075,
      "обеспечива": 1076,
      "име": 1077,
      "##атиз": 1078,
      "##ыт": 1079,
      "##SP": 1080,
      "##ращ": 1081,
      "зако": 1082,
      "персон": 1083,
      "предусмот": 1084,
      "##ое": 1085,
      "##ацию": 1086,
      "конфигу": 1087,
      "##лог": 1088,
      "##мет": 1089,
      "собы": 1090,
      "##правление": 1091,
      "того": 1092,
      "обла": 1093,
      "защищ": 1094,
      "##огда": 1095,
      "FI": 1096,
      "На": 1097,
      "сост": 1098,
      "##ней": 1099,
      "либо": 1100,
      "уд": 1101,
      "##лит": 1102,
      "представлен": 1103,
      "передач": 1104,
      "##пособ": 1105,
      "этом": 1106,
      "##аракт": 1107,
      "Управление": 1108,
      "##котор": 1109,
      "##кры": 1110,
      "##кий": 1111,
      "##енные": 1112,
      "более": 1113,
      "##сист": 1114,
      "значимого": 1115,
      "огранич": 1116,
      "##во": 1117,
      "##лении": 1118,
      "##азработ": 1119,
      "##луат": 1120,
      "атрибутов": 1121,
      "поддерж": 1122,
      "способ": 1123,
      "информационных": 1124,
      "метод": 1125,
      "##предел": 1126,
      "доступом": 1127,
      "моду": 1128,
      "##минист": 1129,
      "организ": 1130,
      "эксплуат": 1131,
      "акт": 1132,
      "нед": 1133,
      "пре": 1134,
      "##мя": 1135,
      "##on": 1136,
      "##TD": 1137,
      "##CO_": 1138,
      "установлен": 1139,
      "##литик": 1140,
      "##риров": 1141,
      "##ковод": 1142,
      "FM": 1143,
      "взаим": 1144,
      "ус": 1145,
      "функций": 1146,
      "Для": 1147,
      "##уковод": 1148,
      "информация": 1149,
      "список": 1150,
      "Треб": 1151,
      "Если": 1152,
      "##лет": 1153,
      "##графи": 1154,
      "##пто": 1155,
      "##SA": 1156,
      "отдель": 1157,
      "##ками": 1158,
      "##олнитель": 1159,
      "FIA_": 1160,
      "сов": 1161,
      "##рат": 1162,
      "##леж": 1163,
      "##со": 1164,
      "серти": 1165,
      "ма": 1166,
      "тер": 1167,
      "##станов": 1168,
      "##овлет": 1169,
      "некотор": 1170,
      "##фикация": 1171,
      "соответству": 1172,
      "##ве": 1173,
      "##SE_": 1174,
      "подсист": 1175,
      "части": 1176,
      "##енциаль": 1177,
      "##птографи": 1178,
      "ИТ": 1179,
      "##ано": 1180,
      "субъектов": 1181,
      "##ерарх": 1182,
      "##сут": 1183,
      "##след": 1184,
      "##овлетв": 1185,
      "элемент": 1186,
      "уязвимост": 1187,
      "работ": 1188,
      "##сутств": 1189,
      "##ым": 1190,
      "##ностью": 1191,
      "##остат": 1192,
      "системе": 1193,
      "Зависимости": 1194,
      "утвержд": 1195,
      "##руж": 1196,
      "оценщик": 1197,
      "образом": 1198,
      "данные": 1199,
      "##ях": 1200,
      "раздел": 1201,
      "##чет": 1202,
      "соз": 1203,
      "##ностей": 1204,
      "##лас": 1205,
      "использования": 1206,
      "проду": 1207,
      "##ене": 1208,
      "применя": 1209,
      "применению": 1210,
      "комп": 1211,
      "##тий": 1212,
      "##ФБ": 1213,
      "представления": 1214,
      "лицензи": 1215,
      "удовлетв": 1216,
      "##ора": 1217,
      "##ti": 1218,
      "который": 1219,
      "##министра": 1220,
      "##нод": 1221,
      "##полномоч": 1222,
      "управление": 1223,
      "операци": 1224,
      "идентификат": 1225,
      "рассматри": 1226,
      "УК": 1227,
      "##ющий": 1228,
      "##арат": 1229,
      "##ппарат": 1230,
      "кат": 1231,
      "когда": 1232,
      "##ена": 1233,
      "целост": 1234,
      "##арактери": 1235,
      "аппарат": 1236,
      "##IF": 1237,
      "##ющего": 1238,
      "различ": 1239,
      "информационными": 1240,
      "реш": 1241,
      "семейство": 1242,
      "Федерального": 1243,
      "уполномоч": 1244,
      "##ство": 1245,
      "FMT_": 1246,
      "##одейств": 1247,
      "##основ": 1248,
      "прот": 1249,
      "##емон": 1250,
      "##сыл": 1251,
      "##анизм": 1252,
      "##птографичес": 1253,
      "спецификации": 1254,
      "отнош": 1255,
      "##оряд": 1256,
      "этих": 1257,
      "ПФБ": 1258,
      "лю": 1259,
      "##енности": 1260,
      "общ": 1261,
      "процеду": 1262,
      "##егор": 1263,
      "##азработчик": 1264,
      "сет": 1265,
      "##енным": 1266,
      "##ита": 1267,
      "##начение": 1268,
      "##нодатель": 1269,
      "Опе": 1270,
      "ФЗ": 1271,
      "##ФБО": 1272,
      "моди": 1273,
      "всех": 1274,
      "закона": 1275,
      "законодатель": 1276,
      "##ханизм": 1277,
      "##ec": 1278,
      "##ляет": 1279,
      "субъекта": 1280,
      "##слов": 1281,
      "потоками": 1282,
      "Базов": 1283,
      "Прав": 1284,
      "зад": 1285,
      "конкрет": 1286,
      ");": 1287,
      "политик": 1288,
      "этого": 1289,
      "администра": 1290,
      "персональных": 1291,
      "##наруж": 1292,
      "##елем": 1293,
      "отсутств": 1294,
      "##ценщик": 1295,
      "пов": 1296,
      "##уют": 1297,
      "##реть": 1298,
      "уязвимости": 1299,
      "проверки": 1300,
      "категор": 1301,
      "услов": 1302,
      "##ималь": 1303,
      "возможности": 1304,
      "##R_": 1305,
      "##RE": 1306,
      "созд": 1307,
      "):": 1308,
      "Это": 1309,
      "ее": 1310,
      "##лению": 1311,
      "##не": 1312,
      "##реш": 1313,
      "предпри": 1314,
      "механизм": 1315,
      "лицензиру": 1316,
      "##мещ": 1317,
      "необходимо": 1318,
      "правила": 1319,
      "России": 1320,
      "##жим": 1321,
      "##отов": 1322,
      "стать": 1323,
      "##емонст": 1324,
      "состоя": 1325,
      "пункт": 1326,
      "поз": 1327,
      "##ться": 1328,
      "##енной": 1329,
      "##ата": 1330,
      "##кое": 1331,
      "произ": 1332,
      "выполнения": 1333,
      "внут": 1334,
      "уровня": 1335,
      "да": 1336,
      "##УД": 1337,
      "##енный": 1338,
      "режим": 1339,
      "выполнение": 1340,
      "##TDS": 1341,
      "##ках": 1342,
      "требование": 1343,
      "##ический": 1344,
      "провод": 1345,
      "вне": 1346,
      "стандарт": 1347,
      "##тся": 1348,
      "значим": 1349,
      "использовать": 1350,
      "FDP_IF": 1351,
      "сеан": 1352,
      "продукт": 1353,
      "##арактеристи": 1354,
      "ас": 1355,
      "клю": 1356,
      "##честв": 1357,
      "##CВ": 1358,
      "##емой": 1359,
      "##емейство": 1360,
      "необходим": 1361,
      "##шиб": 1362,
      "ASE_": 1363,
      "##SE": 1364,
      "##ода": 1365,
      "##ющим": 1366,
      "аутентификации": 1367,
      "базового": 1368,
      "ро": 1369,
      "##нолог": 1370,
      "контроля": 1371,
      "Наз": 1372,
      "##емого": 1373,
      "##кцион": 1374,
      "FPR_": 1375,
      "соб": 1376,
      "требованиям": 1377,
      "позво": 1378,
      "##готов": 1379,
      "##ством": 1380,
      "##альные": 1381,
      "операции": 1382,
      "являются": 1383,
      "##енерация": 1384,
      "##ован": 1385,
      "##ому": 1386,
      "взаимодейств": 1387,
      "уязвимостей": 1388,
      "ошиб": 1389,
      "##ал": 1390,
      "##ким": 1391,
      "##tion": 1392,
      "FT": 1393,
      "вос": 1394,
      "ссыл": 1395,
      "обнаруж": 1396,
      "разработки": 1397,
      "Назначение": 1398,
      "##ателя": 1399,
      "предел": 1400,
      "информацию": 1401,
      "##озици": 1402,
      "испыт": 1403,
      "разработчика": 1404,
      "По": 1405,
      "##ыв": 1406,
      "##раж": 1407,
      "обработ": 1408,
      "200": 1409,
      "области": 1410,
      "целостности": 1411,
      "##FSP": 1412,
      "##CM": 1413,
      "##озмож": 1414,
      "часть": 1415,
      "будут": 1416,
      "Защ": 1417,
      "##ПД": 1418,
      "тест": 1419,
      "автом": 1420,
      "атрибуты": 1421,
      "числе": 1422,
      "Требования": 1423,
      "вс": 1424,
      "##ями": 1425,
      "##рез": 1426,
      "##акет": 1427,
      "компоненты": 1428,
      "свед": 1429,
      "следующих": 1430,
      "криптографичес": 1431,
      "конфигурации": 1432,
      "FIA_U": 1433,
      "внутрен": 1434,
      "руковод": 1435,
      "запро": 1436,
      "выбор": 1437,
      "программного": 1438,
      "требуется": 1439,
      "удовлетворя": 1440,
      "17": 1441,
      "ИФБО": 1442,
      "пара": 1443,
      "##ится": 1444,
      "приня": 1445,
      "ОУД": 1446,
      "ви": 1447,
      "##енное": 1448,
      "##анкцион": 1449,
      "##кая": 1450,
      "##окуп": 1451,
      "##пределение": 1452,
      "идентификатор": 1453,
      "гру": 1454,
      "следующие": 1455,
      "довер": 1456,
      "тестирования": 1457,
      "эт": 1458,
      "##ri": 1459,
      "##овать": 1460,
      "##етализ": 1461,
      "##атив": 1462,
      "выб": 1463,
      "##ложение": 1464,
      "ACO_": 1465,
      "Иерарх": 1466,
      "же": 1467,
      "ист": 1468,
      "##Разработчик": 1469,
      "показ": 1470,
      "Компонент": 1471,
      "##ЗИ": 1472,
      "должна": 1473,
      "технолог": 1474,
      "будет": 1475,
      "Цели": 1476,
      "обяз": 1477,
      "относя": 1478,
      "исключ": 1479,
      "событий": 1480,
      "##анкционирован": 1481,
      "Защита": 1482,
      "##DРазработчик": 1483,
      "структу": 1484,
      "##общ": 1485,
      "эксплуатации": 1486,
      "физ": 1487,
      "дополнитель": 1488,
      "идентифициров": 1489,
      "##коль": 1490,
      "обеспечению": 1491,
      "среды": 1492,
      "функциональных": 1493,
      "содержания": 1494,
      "устран": 1495,
      "ADV_FSP": 1496,
      "AT": 1497,
      "фа": 1498,
      "##ителя": 1499,
      "зап": 1500,
      "содержащ": 1501,
      "контроль": 1502,
      "##________": 1503,
      "восстанов": 1504,
      "Нет": 1505,
      "##Оценщик": 1506,
      "##GE": 1507,
      "##анж": 1508,
      "заяв": 1509,
      "Иерархический": 1510,
      "##GEN": 1511,
      "##рон": 1512,
      "##рой": 1513,
      "##киров": 1514,
      "системах": 1515,
      "других": 1516,
      "ADV_TDS": 1517,
      "Генерация": 1518,
      "пакет": 1519,
      "сущ": 1520,
      "##ему": 1521,
      "орган": 1522,
      "##атизации": 1523,
      "защищенности": 1524,
      "Операции": 1525,
      "##ает": 1526,
      "проб": 1527,
      "FAU_GEN": 1528,
      "Вы": 1529,
      "кана": 1530,
      "##лект": 1531,
      "##раб": 1532,
      "рег": 1533,
      "##ических": 1534,
      "ALC_CM": 1535,
      "##FL": 1536,
      "##атыва": 1537,
      "##ерд": 1538,
      "соответствия": 1539,
      "функциональной": 1540,
      "всем": 1541,
      "Семейство": 1542,
      "##де": 1543,
      "информатизации": 1544,
      "##ющей": 1545,
      "защите": 1546,
      "можно": 1547,
      "определения": 1548,
      "##тверд": 1549,
      "расши": 1550,
      "время": 1551,
      "аттестации": 1552,
      "недостат": 1553,
      "СК": 1554,
      "##бли": 1555,
      "##чин": 1556,
      "##ЭК": 1557,
      "потреб": 1558,
      "учет": 1559,
      "##пеш": 1560,
      "##елю": 1561,
      "##ходя": 1562,
      "спецификация": 1563,
      "##ительства": 1564,
      "##ря": 1565,
      "##глас": 1566,
      "определяет": 1567,
      "после": 1568,
      "##твердить": 1569,
      "СКЗИ": 1570,
      "Ин": 1571,
      "##ние": 1572,
      "объ": 1573,
      "##................................................................": 1574,
      "получения": 1575,
      "оценщика": 1576,
      "##стру": 1577,
      "предоставить": 1578,
      "себ": 1579,
      "мар": 1580,
      "соответствие": 1581,
      "потенциаль": 1582,
      "совокуп": 1583,
      "Пред": 1584,
      "ФСТ": 1585,
      "##чение": 1586,
      "##UN": 1587,
      "мест": 1588,
      "таких": 1589,
      "каждого": 1590,
      "ФСТЭК": 1591,
      "Аудит": 1592,
      "Мин": 1593,
      "сам": 1594,
      "##RC": 1595,
      "##альной": 1596,
      "ком": 1597,
      "они": 1598,
      "элект": 1599,
      "##орт": 1600,
      "##тора": 1601,
      "##тив": 1602,
      "возник": 1603,
      "связан": 1604,
      "правил": 1605,
      "Базовый": 1606,
      "предприним": 1607,
      "внеш": 1608,
      "Пол": 1609,
      "##МТ": 1610,
      "##анав": 1611,
      "##ацией": 1612,
      "##итект": 1613,
      "обоснов": 1614,
      "опас": 1615,
      "##правля": 1616,
      "ключ": 1617,
      "им": 1618,
      "см": 1619,
      "##естиров": 1620,
      "##лиру": 1621,
      "данного": 1622,
      "подтвердить": 1623,
      "качеств": 1624,
      "времени": 1625,
      "предусмотреть": 1626,
      "сертификации": 1627,
      "производ": 1628,
      "##анавли": 1629,
      "послед": 1630,
      "соглас": 1631,
      "##рхитект": 1632,
      "тестирование": 1633,
      "##рабатыва": 1634,
      "18": 1635,
      "Определение": 1636,
      "Под": 1637,
      "Функци": 1638,
      "кот": 1639,
      "##слу": 1640,
      "##по": 1641,
      "##ратор": 1642,
      "налич": 1643,
      "##едераль": 1644,
      "##елить": 1645,
      "связи": 1646,
      "операций": 1647,
      "удовлетворяет": 1648,
      "OO": 1649,
      "федераль": 1650,
      "##чис": 1651,
      "##CS": 1652,
      "##сть": 1653,
      "##стран": 1654,
      "##ожд": 1655,
      "разреш": 1656,
      "##иться": 1657,
      "2012": 1658,
      "использованием": 1659,
      "указан": 1660,
      "Например": 1661,
      "AP": 1662,
      "].": 1663,
      "Огранич": 1664,
      "соп": 1665,
      "##лением": 1666,
      "зависимост": 1667,
      "несанкционирован": 1668,
      "передачи": 1669,
      "##блиц": 1670,
      "во": 1671,
      "##EОценщик": 1672,
      "поп": 1673,
      "ГОСТР": 1674,
      "ресурсов": 1675,
      "##атизирован": 1676,
      "повтор": 1677,
      "статьи": 1678,
      "поряд": 1679,
      "##ич": 1680,
      "##жения": 1681,
      "выяв": 1682,
      "##очник": 1683,
      "проведения": 1684,
      "##соци": 1685,
      "FDP_IFF": 1686,
      "себя": 1687,
      "##ек": 1688,
      "##ад": 1689,
      "##ыми": 1690,
      "##ИС": 1691,
      "привод": 1692,
      "выз": 1693,
      "обеспечить": 1694,
      "органа": 1695,
      "уровень": 1696,
      "анализа": 1697,
      "элементов": 1698,
      "групп": 1699,
      "ЗИС": 1700,
      "норм": 1701,
      "##щие": 1702,
      "##JN": 1703,
      "##ействия": 1704,
      "прос": 1705,
      "подчин": 1706,
      "функции": 1707,
      "документации": 1708,
      "осуществляется": 1709,
      "посред": 1710,
      "Опис": 1711,
      "Про": 1712,
      "нез": 1713,
      "ред": 1714,
      "##рт": 1715,
      "##ует": 1716,
      "##ям": 1717,
      "##яс": 1718,
      "пользователь": 1719,
      "##лага": 1720,
      "##ивать": 1721,
      "представить": 1722,
      "FDP_IT": 1723,
      "Правительства": 1724,
      "регист": 1725,
      "Со": 1726,
      "ко": 1727,
      "пл": 1728,
      "##ОР": 1729,
      "##ation": 1730,
      "##лия": 1731,
      "Пример": 1732,
      "технических": 1733,
      "интерфейсов": 1734,
      "терми": 1735,
      "ассоци": 1736,
      "роли": 1737,
      "тре": 1738,
      "##лов": 1739,
      "##RU": 1740,
      "##ГОСТ": 1741,
      "##ственных": 1742,
      "##точ": 1743,
      "##альное": 1744,
      "были": 1745,
      "дости": 1746,
      "модуля": 1747,
      "Кон": 1748,
      "вла": 1749,
      "ни": 1750,
      "##вяз": 1751,
      "##ваться": 1752,
      "##лемы": 1753,
      "##ента": 1754,
      "предна": 1755,
      "одно": 1756,
      "разработчиком": 1757,
      "FTA_": 1758,
      "автоматизирован": 1759,
      "источник": 1760,
      "##анжирование": 1761,
      "##рхитекту": 1762,
      "подчиненных": 1763,
      "##ерв": 1764,
      "сообщ": 1765,
      "сво": 1766,
      "представлению": 1767,
      "документов": 1768,
      "##ложения": 1769,
      "составного": 1770,
      "обеспечивает": 1771,
      "ATE_": 1772,
      "электрон": 1773,
      "##ГОСТР": 1774,
      "Ранжирование": 1775,
      "Та": 1776,
      "##тери": 1777,
      "##орит": 1778,
      "##ального": 1779,
      "включено": 1780,
      "изменений": 1781,
      "##емонстриров": 1782,
      "19": 1783,
      "вери": 1784,
      "существ": 1785,
      "##енными": 1786,
      "обслу": 1787,
      "направл": 1788,
      "##езопас": 1789,
      "нев": 1790,
      "##тие": 1791,
      "служ": 1792,
      "##уска": 1793,
      "распро": 1794,
      "угрозы": 1795,
      "##крытия": 1796,
      "Класс": 1797,
      "пут": 1798,
      "си": 1799,
      "##OB": 1800,
      "##ителей": 1801,
      "над": 1802,
      "предпол": 1803,
      "стро": 1804,
      "определить": 1805,
      "содержанию": 1806,
      "описыва": 1807,
      "программно": 1808,
      "против": 1809,
      "обслуж": 1810,
      "сро": 1811,
      "##ренных": 1812,
      "##еп": 1813,
      "##или": 1814,
      "##останов": 1815,
      "свой": 1816,
      "##ационных": 1817,
      "правиль": 1818,
      "##локиров": 1819,
      "настоящего": 1820,
      "актив": 1821,
      "подсистем": 1822,
      "рассматрива": 1823,
      "физичес": 1824,
      "FRU": 1825,
      "ет": 1826,
      "жиз": 1827,
      "нос": 1828,
      "##ага": 1829,
      "##НИ": 1830,
      "привед": 1831,
      "##иск": 1832,
      "которым": 1833,
      "семействе": 1834,
      "Приме": 1835,
      "идентификации": 1836,
      "услу": 1837,
      "FMT_M": 1838,
      "сведения": 1839,
      "Компоненты": 1840,
      "обязатель": 1841,
      "##анавлива": 1842,
      ";-": 1843,
      "##ователь": 1844,
      "##нок": 1845,
      "запис": 1846,
      "приказ": 1847,
      "##омпозици": 1848,
      "##ировать": 1849,
      "видов": 1850,
      "##орая": 1851,
      "»)": 1852,
      "Оцен": 1853,
      "##аж": 1854,
      "которой": 1855,
      "обеспечение": 1856,
      "##ключение": 1857,
      "подсистемы": 1858,
      "политики": 1859,
      "условия": 1860,
      "парамет": 1861,
      "##ват": 1862,
      "##ыш": 1863,
      "##ЕР": 1864,
      "возможностей": 1865,
      "значения": 1866,
      "описания": 1867,
      "внес": 1868,
      "меры": 1869,
      "адре": 1870,
      "отсутствуют": 1871,
      "##rit": 1872,
      "путем": 1873,
      "цик": 1874,
      "целя": 1875,
      "##GD": 1876,
      "##опро": 1877,
      "##ава": 1878,
      "##емым": 1879,
      "данными": 1880,
      "сервис": 1881,
      "сеанса": 1882,
      "тестов": 1883,
      "жизн": 1884,
      "ост": 1885,
      "хран": 1886,
      "##ром": 1887,
      "##рание": 1888,
      "применения": 1889,
      "уровне": 1890,
      "FPT_IT": 1891,
      "передаче": 1892,
      "криптографических": 1893,
      "проблемы": 1894,
      "Выбор": 1895,
      "которая": 1896,
      "APE_": 1897,
      "ЕМТ": 1898,
      "архитекту": 1899,
      "##ест": 1900,
      "##вращ": 1901,
      "##кла": 1902,
      "##овер": 1903,
      "##рид": 1904,
      "прием": 1905,
      "зависимости": 1906,
      "отношению": 1907,
      "предназнач": 1908,
      "Соб": 1909,
      "акту": 1910,
      "цель": 1911,
      "##оль": 1912,
      "##кращ": 1913,
      "##or": 1914,
      "##AC": 1915,
      "##ST": 1916,
      "##лиров": 1917,
      "##еле": 1918,
      "содержать": 1919,
      "проекта": 1920,
      "FAU_SA": 1921,
      "типа": 1922,
      "нарушения": 1923,
      "представленная": 1924,
      "отдельных": 1925,
      "##ывать": 1926,
      "Минималь": 1927,
      "иных": 1928,
      "точ": 1929,
      "##ью": 1930,
      "##SS": 1931,
      "##BO": 1932,
      "##ально": 1933,
      "другие": 1934,
      "проекте": 1935,
      "полностью": 1936,
      "составля": 1937,
      "включать": 1938,
      "рассматриваться": 1939,
      "законодательства": 1940,
      "услуг": 1941,
      "вопро": 1942,
      "рис": 1943,
      "цели": 1944,
      "целей": 1945,
      "че": 1946,
      "чем": 1947,
      "##денциаль": 1948,
      "##лей": 1949,
      "##унок": 1950,
      "##AN": 1951,
      "##енная": 1952,
      "##ований": 1953,
      "##емый": 1954,
      "подвер": 1955,
      "таким": 1956,
      "модуль": 1957,
      "изменения": 1958,
      "распростран": 1959,
      "обслужив": 1960,
      "примени": 1961,
      "система": 1962,
      "##тому": 1963,
      "##бора": 1964,
      "значимых": 1965,
      "FIA_UAU": 1966,
      "независ": 1967,
      "FRU_": 1968,
      "00": 1969,
      "детализ": 1970,
      "уда": 1971,
      "ответств": 1972,
      "##альная": 1973,
      "значимости": 1974,
      "использование": 1975,
      "интерфейсы": 1976,
      "включает": 1977,
      "позволяет": 1978,
      "Эти": 1979,
      "лог": 1980,
      "он": 1981,
      "рам": 1982,
      "управля": 1983,
      "характеристи": 1984,
      "##ается": 1985,
      "##усти": 1986,
      "##рами": 1987,
      "отказ": 1988,
      "профи": 1989,
      "среде": 1990,
      "##мотр": 1991,
      "деятельность": 1992,
      "любы": 1993,
      "##естирование": 1994,
      "##шин": 1995,
      "##ателей": 1996,
      "##лее": 1997,
      "##сев": 1998,
      "FDP_AC": 1999,
      "испытаний": 2000,
      "норматив": 2001,
      "Минимальный": 2002,
      "имен": 2003,
      "юрид": 2004,
      "##зы": 2005,
      "поня": 2006,
      "нап": 2007,
      "##ющее": 2008,
      "основе": 2009,
      "функциональные": 2010,
      "невозмож": 2011,
      "Собрание": 2012,
      "через": 2013,
      "Эт": 2014,
      "сдел": 2015,
      "##кст": 2016,
      "##иту": 2017,
      "##ость": 2018,
      "##исунок": 2019,
      "##окол": 2020,
      "процедуры": 2021,
      "Функцион": 2022,
      "##CS_": 2023,
      "21": 2024,
      "Ст": 2025,
      "ци": 2026,
      "инстру": 2027,
      "предот": 2028,
      "##хода": 2029,
      "поддержива": 2030,
      "различных": 2031,
      "##REQ": 2032,
      "пределах": 2033,
      "сопров": 2034,
      "Описание": 2035,
      "##севд": 2036,
      "боль": 2037,
      "уточ": 2038,
      "##иль": 2039,
      "##них": 2040,
      "##оит": 2041,
      "##ше": 2042,
      "##оним": 2043,
      "осуществления": 2044,
      "критери": 2045,
      "атрибутами": 2046,
      "друго": 2047,
      "виде": 2048,
      "государственного": 2049,
      "события": 2050,
      "##остаточ": 2051,
      "опасности": 2052,
      "1DРазработчик": 2053,
      "От": 2054,
      "баз": 2055,
      "влия": 2056,
      "ния": 2057,
      "них": 2058,
      "##en": 2059,
      "##орти": 2060,
      "пом": 2061,
      "##правления": 2062,
      "##мест": 2063,
      "##ведом": 2064,
      "состоян": 2065,
      "качестве": 2066,
      "цикла": 2067,
      "AV": 2068,
      "года": 2069,
      "сбо": 2070,
      "##ну": 2071,
      "##уч": 2072,
      "##жеств": 2073,
      "##_С": 2074,
      "##шру": 2075,
      "##Компонент": 2076,
      "##ножеств": 2077,
      "##ритор": 2078,
      "инте": 2079,
      "иници": 2080,
      "слож": 2081,
      "возд": 2082,
      "пользователям": 2083,
      "определение": 2084,
      "каким": 2085,
      "FDP_R": 2086,
      "случаях": 2087,
      "одного": 2088,
      "территор": 2089,
      "жизненного": 2090,
      "рамках": 2091,
      "##севдоним": 2092,
      "Характеристи": 2093,
      "##род": 2094,
      "##EC": 2095,
      "##ожения": 2096,
      "пользователем": 2097,
      "представля": 2098,
      "устанавлива": 2099,
      "типов": 2100,
      "конфигураци": 2101,
      "люб": 2102,
      "далее": 2103,
      "Информ": 2104,
      "СоПД": 2105,
      "Характеристика": 2106,
      "##аном": 2107,
      "##SM": 2108,
      "##ование": 2109,
      "##нот": 2110,
      "##анного": 2111,
      "##ющими": 2112,
      "##дается": 2113,
      "защиту": 2114,
      "пользователяКомпонент": 2115,
      "органом": 2116,
      "контролиру": 2117,
      "продемонстриров": 2118,
      "свидетельство": 2119,
      "предоставляет": 2120,
      "решения": 2121,
      "##ecu": 2122,
      "обработки": 2123,
      "маршру": 2124,
      "##rity": 2125,
      "архитектуры": 2126,
      "мен": 2127,
      "мат": 2128,
      "##ADV": 2129,
      "##NR": 2130,
      "##ступ": 2131,
      "помещ": 2132,
      "оценке": 2133,
      "систему": 2134,
      "предоставлен": 2135,
      "##троль": 2136,
      "один": 2137,
      "указыва": 2138,
      "свидетельства": 2139,
      "частей": 2140,
      "включая": 2141,
      "##CO_NR": 2142,
      "процедур": 2143,
      "модификации": 2144,
      "факт": 2145,
      "ключей": 2146,
      "##устим": 2147,
      "Ид": 2148,
      "фев": 2149,
      "чет": 2150,
      "##нение": 2151,
      "##er": 2152,
      "##раля": 2153,
      "##альным": 2154,
      "ств": 2155,
      "предоставлении": 2156,
      "реализов": 2157,
      "используется": 2158,
      "полномоч": 2159,
      "интерфейс": 2160,
      "государственной": 2161,
      "##GD_": 2162,
      "февраля": 2163,
      "Исп": 2164,
      "Не": 2165,
      "Так": 2166,
      "язы": 2167,
      "##ира": 2168,
      "##боч": 2169,
      "обрабатыва": 2170,
      "подлеж": 2171,
      "изготов": 2172,
      "##ического": 2173,
      "##ники": 2174,
      "конфиденциаль": 2175,
      "результатов": 2176,
      "машин": 2177,
      "Этот": 2178,
      "##ecurity": 2179,
      "Сл": 2180,
      "нов": 2181,
      "##DE": 2182,
      "##чит": 2183,
      "##es": 2184,
      "##акс": 2185,
      "степ": 2186,
      "##новения": 2187,
      "##фициру": 2188,
      "зависим": 2189,
      "переч": 2190,
      "##ведение": 2191,
      "##матрива": 2192,
      "успеш": 2193,
      "ALC_CMC": 2194,
      "##JNT": 2195,
      "власти": 2196,
      "Таблиц": 2197,
      "Оценка": 2198,
      "FCS_": 2199,
      "Руковод": 2200,
      "##PSE": 2201,
      "##енно": 2202,
      "##колько": 2203,
      "подтвержд": 2204,
      "особ": 2205,
      "какие": 2206,
      "исслед": 2207,
      "##урна": 2208,
      "рабоч": 2209,
      "FPR_UN": 2210,
      "запрос": 2211,
      "вида": 2212,
      "совокупность": 2213,
      "Идентифик": 2214,
      "FCO_NR": 2215,
      "ЕР": 2216,
      "мин": 2217,
      "##див": 2218,
      "##ова": 2219,
      "##ейся": 2220,
      "вычис": 2221,
      "которого": 2222,
      "излож": 2223,
      "этой": 2224,
      "несколь": 2225,
      "ности": 2226,
      "состоит": 2227,
      "ограничения": 2228,
      "##лежив": 2229,
      "Тестирование": 2230,
      "ан": 2231,
      "##оны": 2232,
      "##ДБ": 2233,
      "##ировании": 2234,
      "объектам": 2235,
      "FDP_U": 2236,
      "осуществлять": 2237,
      "аутентификация": 2238,
      "лица": 2239,
      "протокол": 2240,
      "исключением": 2241,
      "недостатков": 2242,
      "дел": 2243,
      "достаточ": 2244,
      "ситу": 2245,
      "ход": 2246,
      "##тра": 2247,
      "##оре": 2248,
      "##AT": 2249,
      "которое": 2250,
      "устрой": 2251,
      "определяется": 2252,
      "лицензиат": 2253,
      "аппаратных": 2254,
      "учетом": 2255,
      "Контроль": 2256,
      "##клад": 2257,
      "##дивид": 2258,
      "Ав": 2259,
      "Рисунок": 2260,
      "ТДБ": 2261,
      "теле": 2262,
      "##анное": 2263,
      "##отя": 2264,
      "пользователю": 2265,
      "течение": 2266,
      "защита": 2267,
      "представление": 2268,
      "управлению": 2269,
      "модель": 2270,
      "связанные": 2271,
      "секрет": 2272,
      "##нич": 2273,
      "форме": 2274,
      "предусмотрен": 2275,
      "применяются": 2276,
      "категории": 2277,
      "попыт": 2278,
      "посредством": 2279,
      "термина": 2280,
      "##роме": 2281,
      "рисун": 2282,
      "Идентификация": 2283,
      "##дивиду": 2284,
      "27": 2285,
      "30": 2286,
      "журна": 2287,
      "иерарх": 2288,
      "коп": 2289,
      "ней": 2290,
      "низ": 2291,
      "тран": 2292,
      "уник": 2293,
      "##уется": 2294,
      "##АЦ": 2295,
      "##безопас": 2296,
      "##хран": 2297,
      "##анный": 2298,
      "индивиду": 2299,
      "высо": 2300,
      "должност": 2301,
      "требованиями": 2302,
      "доверие": 2303,
      "необходимости": 2304,
      "процесса": 2305,
      "поддержки": 2306,
      "администратор": 2307,
      "расширенных": 2308,
      "применим": 2309,
      "предотвращ": 2310,
      "вер": 2311,
      "кор": 2312,
      "##али": 2313,
      "##_Т": 2314,
      "##бря": 2315,
      "##кими": 2316,
      "##чание": 2317,
      "##ЕН": 2318,
      "##--": 2319,
      "##рект": 2320,
      "##аций": 2321,
      "##итор": 2322,
      "##остоя": 2323,
      "пользователи": 2324,
      "стор": 2325,
      "значений": 2326,
      "разработке": 2327,
      "Приложение": 2328,
      "опера": 2329,
      "такие": 2330,
      "тому": 2331,
      "каждой": 2332,
      "законом": 2333,
      "##омпозиция": 2334,
      "ние": 2335,
      "##ro": 2336,
      "##FDP_": 2337,
      "##онитор": 2338,
      "##литель": 2339,
      "прив": 2340,
      "##ток": 2341,
      "компоненте": 2342,
      "став": 2343,
      "атак": 2344,
      "результаты": 2345,
      "процессе": 2346,
      "##крыт": 2347,
      "##вести": 2348,
      "##кольку": 2349,
      "несанкционированного": 2350,
      "вопрос": 2351,
      "Испо": 2352,
      "ЕРТ": 2353,
      "рисунке": 2354,
      "26": 2355,
      "Од": 2356,
      "мом": 2357,
      "##нут": 2358,
      "##мун": 2359,
      "##щих": 2360,
      "##RP": 2361,
      "##SO": 2362,
      "##азатель": 2363,
      "отк": 2364,
      "##акци": 2365,
      "##фикацию": 2366,
      "##едует": 2367,
      "##ительно": 2368,
      "##ированы": 2369,
      "связанных": 2370,
      "другим": 2371,
      "FMT_SM": 2372,
      "FPR_PSE": 2373,
      "взаимодействия": 2374,
      "внутренней": 2375,
      "выбран": 2376,
      "##RCV": 2377,
      "силу": 2378,
      "распространя": 2379,
      "##ониторин": 2380,
      "##муник": 2381,
      "1C": 2382,
      "Постанов": 2383,
      "дом": 2384,
      "ед": 2385,
      "ем": 2386,
      "эта": 2387,
      "##ил": 2388,
      "##ят": 2389,
      "##al": 2390,
      "##этому": 2391,
      "##ове": 2392,
      "постав": 2393,
      "##аточ": 2394,
      "обращ": 2395,
      "завер": 2396,
      "прилож": 2397,
      "подраз": 2398,
      "использоваться": 2399,
      "Федеральным": 2400,
      "Требований": 2401,
      "сетев": 2402,
      "создание": 2403,
      "восстановление": 2404,
      "##рту": 2405,
      "FDP_ITT": 2406,
      "вычислитель": 2407,
      "##ничто": 2408,
      "OBO": 2409,
      "сб": 2410,
      "##ают": 2411,
      "##аются": 2412,
      "##чно": 2413,
      "##CK": 2414,
      "прис": 2415,
      "соиск": 2416,
      "подпис": 2417,
      "компонентами": 2418,
      "##люд": 2419,
      "лицензирования": 2420,
      "субъектом": 2421,
      "допуска": 2422,
      "несколько": 2423,
      "идентифицировать": 2424,
      "имеет": 2425,
      "законодательством": 2426,
      "вирту": 2427,
      "содержащейся": 2428,
      "приказом": 2429,
      "напад": 2430,
      "сопровожд": 2431,
      "территории": 2432,
      "##CKM": 2433,
      "блокиров": 2434,
      "демонст": 2435,
      "имени": 2436,
      "крат": 2437,
      "сти": 2438,
      "уведом": 2439,
      "##пункт": 2440,
      "##VAN": 2441,
      "##ъяв": 2442,
      "##атичес": 2443,
      "##ема": 2444,
      "приклад": 2445,
      "размещ": 2446,
      "подпункт": 2447,
      "объекте": 2448,
      "определены": 2449,
      "##A_VAN": 2450,
      "другими": 2451,
      "исход": 2452,
      "определяются": 2453,
      "потенци": 2454,
      "государственных": 2455,
      "##кому": 2456,
      "способны": 2457,
      "лицензион": 2458,
      "фай": 2459,
      "ALC_CMS": 2460,
      "подверга": 2461,
      "инструмент": 2462,
      "1EОценщик": 2463,
      "Из": 2464,
      "Рег": 2465,
      "го": 2466,
      "пери": 2467,
      "псевдоним": 2468,
      "##аг": 2469,
      "##ари": 2470,
      "##оформ": 2471,
      "##уем": 2472,
      "##зор": 2473,
      "##енность": 2474,
      "приним": 2475,
      "##льзование": 2476,
      "данном": 2477,
      "##кции": 2478,
      "правов": 2479,
      "расп": 2480,
      "относ": 2481,
      "зависимого": 2482,
      "проведение": 2483,
      "проведении": 2484,
      "административ": 2485,
      "обработке": 2486,
      "руководств": 2487,
      "обслуживания": 2488,
      "##АЦИ": 2489,
      "Детализ": 2490,
      "Кроме": 2491,
      "ПБО": 2492,
      "вед": 2493,
      "втор": 2494,
      "где": 2495,
      "ото": 2496,
      "##рот": 2497,
      "##жение": 2498,
      "##фф": 2499,
      "поч": 2500,
      "##риру": 2501,
      "##руд": 2502,
      "##альный": 2503,
      "##ющихся": 2504,
      "метри": 2505,
      "предусматрива": 2506,
      "FPT_RCV": 2507,
      "организации": 2508,
      "организацион": 2509,
      "разделе": 2510,
      "лицензиата": 2511,
      "технология": 2512,
      "обоснование": 2513,
      "##оритет": 2514,
      "остаточ": 2515,
      "##ортиру": 2516,
      "AVA_VAN": 2517,
      "конфигурацией": 2518,
      "полномочий": 2519,
      "Использование": 2520,
      "31": 2521,
      "Раз": 2522,
      "Утвержд": 2523,
      "аб": 2524,
      "дня": 2525,
      "цент": 2526,
      "элементы": 2527,
      "##ина": 2528,
      "##ЕД": 2529,
      "предъяв": 2530,
      "структуры": 2531,
      "переоформ": 2532,
      "некоторых": 2533,
      "работы": 2534,
      "композици": 2535,
      "администратора": 2536,
      "собствен": 2537,
      "##________________": 2538,
      "Ограниченное": 2539,
      "ниже": 2540,
      "строго": 2541,
      "целью": 2542,
      "матери": 2543,
      "##ADV_": 2544,
      "##аксималь": 2545,
      "АСО": 2546,
      "УПД": 2547,
      "##пл": 2548,
      "##00": 2549,
      "пользов": 2550,
      "поним": 2551,
      "##имен": 2552,
      "обы": 2553,
      "заказ": 2554,
      "##ющая": 2555,
      "2008": 2556,
      "##ационная": 2557,
      "FDP_IFC": 2558,
      "порядке": 2559,
      "Примечание": 2560,
      "FPR_UNO": 2561,
      "ходе": 2562,
      "коррект": 2563,
      "заверш": 2564,
      "AGD_": 2565,
      "Анализ": 2566,
      "Действия": 2567,
      "Кри": 2568,
      "храни": 2569,
      "##ере": 2570,
      "##нения": 2571,
      "##ОВ": 2572,
      "##СК": 2573,
      "##st": 2574,
      "##енному": 2575,
      "##емое": 2576,
      "##пект": 2577,
      "отправления": 2578,
      "##кам": 2579,
      "исправ": 2580,
      "исполнитель": 2581,
      "изве": 2582,
      "текст": 2583,
      "##ленного": 2584,
      "##фицированных": 2585,
      "модели": 2586,
      "аудиту": 2587,
      "распол": 2588,
      "одной": 2589,
      "указанных": 2590,
      "допустим": 2591,
      "##посред": 2592,
      "некоторые": 2593,
      "продукта": 2594,
      "##ОР_": 2595,
      "адрес": 2596,
      "менее": 2597,
      "FCS_CKM": 2598,
      "##безопасности": 2599,
      "25": 2600,
      ":-": 2601,
      "Введение": 2602,
      "ал": 2603,
      "оказ": 2604,
      "су": 2605,
      "##сет": 2606,
      "##ракт": 2607,
      "##един": 2608,
      "неус": 2609,
      "##освяз": 2610,
      "вывод": 2611,
      "было": 2612,
      "##мена": 2613,
      "содержание": 2614,
      "лицензий": 2615,
      "значение": 2616,
      "техники": 2617,
      "распредел": 2618,
      "##разреш": 2619,
      "документа": 2620,
      "используются": 2621,
      "Обоснов": 2622,
      "включают": 2623,
      "ресурсы": 2624,
      "прекращ": 2625,
      "отношении": 2626,
      "позволя": 2627,
      "этим": 2628,
      "потенциально": 2629,
      "прослежив": 2630,
      "##STG": 2631,
      "FAU_SAA": 2632,
      "реализованы": 2633,
      "Следует": 2634,
      "неуспеш": 2635,
      "28": 2636,
      "Мет": 2637,
      "ввод": 2638,
      "гра": 2639,
      "дв": 2640,
      "зат": 2641,
      "перв": 2642,
      "уча": 2643,
      "ши": 2644,
      "##фров": 2645,
      "##цени": 2646,
      "##ASE_": 2647,
      "##ители": 2648,
      "##ителем": 2649,
      "набор": 2650,
      "##исс": 2651,
      "отраж": 2652,
      "##ектив": 2653,
      "##ющую": 2654,
      "##дач": 2655,
      "##ламент": 2656,
      "обеспечивать": 2657,
      "меж": 2658,
      "предоставления": 2659,
      "##руктура": 2660,
      "##ационной": 2661,
      "используемые": 2662,
      "частями": 2663,
      "##коммуник": 2664,
      "модулей": 2665,
      "проводится": 2666,
      "частью": 2667,
      "сведений": 2668,
      "внесении": 2669,
      "Таблица": 2670,
      "телекоммуник": 2671,
      "ям": 2672,
      "##ех": 2673,
      "##ьют": 2674,
      "##жи": 2675,
      "##чив": 2676,
      "##СС": 2677,
      "##ших": 2678,
      "заключение": 2679,
      "непосред": 2680,
      "котором": 2681,
      "подготов": 2682,
      "##окумент": 2683,
      "##образ": 2684,
      "требовани": 2685,
      "реализу": 2686,
      "##ированный": 2687,
      "документация": 2688,
      "##личеств": 2689,
      "тай": 2690,
      "такой": 2691,
      "##имость": 2692,
      "удовлетвор": 2693,
      "уполномоченным": 2694,
      "пункта": 2695,
      "аспект": 2696,
      "ошибок": 2697,
      "канал": 2698,
      "##OBJ": 2699,
      "предполага": 2700,
      "целях": 2701,
      "сделать": 2702,
      "##DEV": 2703,
      "Ка": 2704,
      "бования": 2705,
      "дет": 2706,
      "ию": 2707,
      "имет": 2708,
      "кода": 2709,
      "максималь": 2710,
      "па": 2711,
      "##ала": 2712,
      "##него": 2713,
      "##уж": 2714,
      "##множеств": 2715,
      "##гмент": 2716,
      "##ALC_": 2717,
      "##строй": 2718,
      "##роб": 2719,
      "##имое": 2720,
      "##ленных": 2721,
      "какой": 2722,
      "техническим": 2723,
      "сети": 2724,
      "собой": 2725,
      "этот": 2726,
      "сущностей": 2727,
      "внешних": 2728,
      "имп": 2729,
      "##ECD": 2730,
      "маршрут": 2731,
      "трансп": 2732,
      "FMT_SMR": 2733,
      "отоб": 2734,
      "исполнительной": 2735,
      "иметь": 2736,
      "29": 2737,
      "Ат": 2738,
      "Цель": 2739,
      "##аемые": 2740,
      "##ID": 2741,
      "##ятся": 2742,
      "##народ": 2743,
      "прин": 2744,
      "прилага": 2745,
      "приоритет": 2746,
      "##альней": 2747,
      "2018": 2748,
      "##DPT": 2749,
      "определенной": 2750,
      "выполнить": 2751,
      "документы": 2752,
      "указать": 2753,
      "передава": 2754,
      "проверку": 2755,
      "FAU_STG": 2756,
      "типы": 2757,
      "потоков": 2758,
      "рассмотр": 2759,
      "различные": 2760,
      "уполномоченного": 2761,
      "стандартов": 2762,
      "дополнительные": 2763,
      "логичес": 2764,
      "##ent": 2765,
      "композиции": 2766,
      "дву": 2767,
      "##ьютер": 2768,
      "Дек": 2769,
      "Крат": 2770,
      "СФ": 2771,
      "дней": 2772,
      "иные": 2773,
      "имя": 2774,
      "мо": 2775,
      "##зна": 2776,
      "##MP": 2777,
      "##сь": 2778,
      "##цип": 2779,
      "##оник": 2780,
      "##нако": 2781,
      "##оглас": 2782,
      "реест": 2783,
      "конт": 2784,
      "субъекты": 2785,
      "определенные": 2786,
      "проник": 2787,
      "оператор": 2788,
      "основании": 2789,
      "нарушение": 2790,
      "стандарта": 2791,
      "идентификатора": 2792,
      "ошибки": 2793,
      "технологий": 2794,
      "восстановления": 2795,
      "##FLR": 2796,
      "##пользоват": 2797,
      "группы": 2798,
      "##щиеся": 2799,
      "FDP_ACC": 2800,
      "FDP_UIT": 2801,
      "материал": 2802,
      "##сетев": 2803,
      "07": 2804,
      "През": 2805,
      "ном": 2806,
      "рав": 2807,
      "##вать": 2808,
      "##nf": 2809,
      "##P_": 2810,
      "##FP": 2811,
      "##ответств": 2812,
      "##налог": 2813,
      "отве": 2814,
      "данной": 2815,
      "подроб": 2816,
      "##рыв": 2817,
      "функциониру": 2818,
      "2014": 2819,
      "оценка": 2820,
      "системой": 2821,
      "##фицирован": 2822,
      "органов": 2823,
      "средствам": 2824,
      "программных": 2825,
      "FPT_T": 2826,
      "поскольку": 2827,
      "результате": 2828,
      "числа": 2829,
      "утвержденных": 2830,
      "конкретного": 2831,
      "условий": 2832,
      "FIA_UID": 2833,
      "наличие": 2834,
      "приводиться": 2835,
      "регистрации": 2836,
      "электронной": 2837,
      "FMT_MSA": 2838,
      "##orm": 2839,
      "помещения": 2840,
      "нескольких": 2841,
      "привле": 2842,
      "##альнейш": 2843,
      "Декомпозиция": 2844,
      "Презид": 2845,
      "##налогич": 2846,
      "24": 2847,
      "co": 2848,
      "Доп": 2849,
      "Данные": 2850,
      "Разработ": 2851,
      "Ча": 2852,
      "оцени": 2853,
      "уничто": 2854,
      "##вели": 2855,
      "##выш": 2856,
      "##ты": 2857,
      "##II": 2858,
      "##ыток": 2859,
      "##em": 2860,
      "##EE": 2861,
      "##рах": 2862,
      "обор": 2863,
      "##ентов": 2864,
      "объекты": 2865,
      "представляет": 2866,
      "возможно": 2867,
      "##ированных": 2868,
      "средствами": 2869,
      "число": 2870,
      "акты": 2871,
      "компьютер": 2872,
      "решение": 2873,
      "категория": 2874,
      "##деж": 2875,
      "совокупности": 2876,
      "FDP_ITC": 2877,
      "Примером": 2878,
      "сбоев": 2879,
      "продемонстрировано": 2880,
      "##ффектив": 2881,
      "принцип": 2882,
      "отвеча": 2883,
      "ASE": 2884,
      "OT": 2885,
      "Security": 2886,
      "Возмож": 2887,
      "введ": 2888,
      "ля": 2889,
      "ные": 2890,
      "оч": 2891,
      "##ию": 2892,
      "##ню": 2893,
      "##нес": 2894,
      "##IP": 2895,
      "##ателем": 2896,
      "##...": 2897,
      "наимен": 2898,
      "привести": 2899,
      "неразреш": 2900,
      "выше": 2901,
      "разгранич": 2902,
      "подмножеств": 2903,
      "пользователями": 2904,
      "лицензировании": 2905,
      "оценку": 2906,
      "##убли": 2907,
      "##ительные": 2908,
      "международ": 2909,
      "используемых": 2910,
      "дополн": 2911,
      "Федеральной": 2912,
      "##SPD": 2913,
      "Политик": 2914,
      "принятия": 2915,
      "выбира": 2916,
      "ACO_DEV": 2917,
      "идентифицированы": 2918,
      "попыток": 2919,
      "однознач": 2920,
      "срок": 2921,
      "хранения": 2922,
      "##SSL": 2923,
      "устройств": 2924,
      "попытки": 2925,
      "вычислительной": 2926,
      "остаточной": 2927,
      "отображ": 2928,
      "23": 2929,
      "34": 2930,
      "Разработчик": 2931,
      "важ": 2932,
      "ум": 2933,
      "хотя": 2934,
      "##Зависимости": 2935,
      "##горит": 2936,
      "##FUN": 2937,
      "##JMP": 2938,
      "пример": 2939,
      "##тиз": 2940,
      "информационная": 2941,
      "был": 2942,
      "контролю": 2943,
      "назначения": 2944,
      "функциональная": 2945,
      "ALC_FLR": 2946,
      "модули": 2947,
      "превыш": 2948,
      "Базовая": 2949,
      "пунктом": 2950,
      "ключа": 2951,
      "зависимостей": 2952,
      "сообщения": 2953,
      "носителей": 2954,
      "параметров": 2955,
      "актуаль": 2956,
      "Структура": 2957,
      "подраздел": 2958,
      "Регламент": 2959,
      "непосредствен": 2960,
      ")................................................................": 2961,
      "35": 2962,
      "Бан": 2963,
      "Оценщик": 2964,
      "Указ": 2965,
      "верс": 2966,
      "увели": 2967,
      "филь": 2968,
      "чел": 2969,
      "##еж": 2970,
      "##лений": 2971,
      "##CC": 2972,
      "##an": 2973,
      "##енд": 2974,
      "##емую": 2975,
      "##лин": 2976,
      "обхода": 2977,
      "##над": 2978,
      "##опред": 2979,
      "##емыми": 2980,
      "выход": 2981,
      "компонентах": 2982,
      "доказатель": 2983,
      "экран": 2984,
      "FIA_A": 2985,
      "состояние": 2986,
      "ASE_REQ": 2987,
      "ссылки": 2988,
      "относятся": 2989,
      "устранения": 2990,
      "Представ": 2991,
      "конфиденциальности": 2992,
      "машинных": 2993,
      "рабочих": 2994,
      "оператора": 2995,
      "момента": 2996,
      "нападения": 2997,
      "извест": 2998,
      "алгорит": 2999,
      "межсетев": 3000,
      "Кажд": 3001,
      "бованиям": 3002,
      "##nform": 3003,
      "Разработка": 3004,
      "Политика": 3005,
      "фильт": 3006,
      "22": 3007,
      "Довер": 3008,
      "ОЦ": 3009,
      "пам": 3010,
      "сто": 3011,
      "справ": 3012,
      "уп": 3013,
      "увер": 3014,
      "ции": 3015,
      "##лон": 3016,
      "##ощ": 3017,
      "##ТС": 3018,
      "##ыс": 3019,
      "##ять": 3020,
      "##ol": 3021,
      "##ARC": 3022,
      "##PE": 3023,
      "##1_С": 3024,
      "##OPE": 3025,
      "##ЛЬ": 3026,
      "##hn": 3027,
      "##ителю": 3028,
      "##год": 3029,
      "обоз": 3030,
      "настрой": 3031,
      "##едоступ": 3032,
      "##елатель": 3033,
      "след": 3034,
      "##вари": 3035,
      "##еспечение": 3036,
      "классов": 3037,
      "такого": 3038,
      "Обеспечение": 3039,
      "государственную": 3040,
      "настоящих": 3041,
      "отдельные": 3042,
      "соответствующих": 3043,
      "аппаратные": 3044,
      "##echn": 3045,
      "роль": 3046,
      "Поэтому": 3047,
      "относящиеся": 3048,
      "зависимостях": 3049,
      "количеств": 3050,
      "служб": 3051,
      "свойств": 3052,
      "детализации": 3053,
      "помощ": 3054,
      "FDP_RIP": 3055,
      "степени": 3056,
      "Однако": 3057,
      "организационно": 3058,
      "##ЕДЕР": 3059,
      "умол": 3060,
      "##CCL": 3061,
      "2DРазработчик": 3062,
      "Все": 3063,
      "Рас": 3064,
      "Состав": 3065,
      "ми": 3066,
      "нет": 3067,
      "сх": 3068,
      "тем": 3069,
      "эффектив": 3070,
      "##еред": 3071,
      "##ача": 3072,
      "##нем": 3073,
      "полож": 3074,
      "преды": 3075,
      "предпис": 3076,
      "сохран": 3077,
      "информацией": 3078,
      "компонентом": 3079,
      "действие": 3080,
      "##очных": 3081,
      "##нять": 3082,
      "##терн": 3083,
      "##ационные": 3084,
      "сегмент": 3085,
      "интерфейса": 3086,
      "##коменд": 3087,
      "ресурс": 3088,
      "ресурса": 3089,
      "##REL": 3090,
      "механизмы": 3091,
      "механизмов": 3092,
      "объем": 3093,
      "последств": 3094,
      "ATE_DPT": 3095,
      "срока": 3096,
      "свойства": 3097,
      "Примерами": 3098,
      "независим": 3099,
      "критериев": 3100,
      "Метод": 3101,
      "июля": 3102,
      "паро": 3103,
      "##nformation": 3104,
      "techn": 3105,
      "РОР_": 3106,
      "аналогич": 3107,
      "дальнейш": 3108,
      "ним": 3109,
      "ох": 3110,
      "утверж": 3111,
      "##рены": 3112,
      "##шие": 3113,
      "##режд": 3114,
      "##ляци": 3115,
      "приложения": 3116,
      "доступности": 3117,
      "2015": 3118,
      "субъектам": 3119,
      "применение": 3120,
      "##раниц": 3121,
      "программное": 3122,
      "##ационными": 3123,
      "полуформ": 3124,
      "экспортиру": 3125,
      "процессы": 3126,
      "обеспечивают": 3127,
      "имеют": 3128,
      "имеется": 3129,
      "представлены": 3130,
      "установленном": 3131,
      "сертифик": 3132,
      "расширен": 3133,
      "FTA_SSL": 3134,
      "другой": 3135,
      "воздейств": 3136,
      "устанавливает": 3137,
      "##щихся": 3138,
      "присво": 3139,
      "ПБОр": 3140,
      "Аутентифик": 3141,
      "ОС": 3142,
      "Тер": 3143,
      "ФЕДЕР": 3144,
      "##данных": 3145,
      "##чанию": 3146,
      "##НО": 3147,
      "##OL": 3148,
      "##цид": 3149,
      "инцид": 3150,
      "информационные": 3151,
      "##луб": 3152,
      "содержат": 3153,
      "##........................": 3154,
      "возможных": 3155,
      "использовании": 3156,
      "субъектами": 3157,
      "экспорт": 3158,
      "##COV": 3159,
      "техническому": 3160,
      "времен": 3161,
      "результатам": 3162,
      "организация": 3163,
      "FTP_": 3164,
      "обнаружения": 3165,
      "доверенного": 3166,
      "структура": 3167,
      "устранению": 3168,
      "заявления": 3169,
      "сущности": 3170,
      "наличии": 3171,
      "записи": 3172,
      "любых": 3173,
      "состояния": 3174,
      "Руководство": 3175,
      "распространяется": 3176,
      "проникновения": 3177,
      "непосредственно": 3178,
      "А1_С": 3179,
      "Как": 3180,
      "вход": 3181,
      "входя": 3182,
      "вмест": 3183,
      "гл": 3184,
      "дат": 3185,
      "код": 3186,
      "мониторин": 3187,
      "рол": 3188,
      "характ": 3189,
      "##для": 3190,
      "##гда": 3191,
      "##РЕ": 3192,
      "##UL": 3193,
      "##енери": 3194,
      "##оров": 3195,
      "находя": 3196,
      "набора": 3197,
      "отправ": 3198,
      "##ющем": 3199,
      "выбора": 3200,
      "подтверж": 3201,
      "исполн": 3202,
      "информационно": 3203,
      "рекоменд": 3204,
      "##изации": 3205,
      "специфик": 3206,
      "2010": 3207,
      "описании": 3208,
      "##ительных": 3209,
      "осуществлении": 3210,
      "определен": 3211,
      "##DVS": 3212,
      "операция": 3213,
      "##ывается": 3214,
      "идентификация": 3215,
      "Федеральный": 3216,
      "настоящей": 3217,
      "операцион": 3218,
      "лицензирующий": 3219,
      "режиме": 3220,
      "необходимые": 3221,
      "##алом": 3222,
      "2006": 3223,
      "показателей": 3224,
      "пакетов": 3225,
      "проблем": 3226,
      "канала": 3227,
      "Поддерж": 3228,
      "условиях": 3229,
      "сервисов": 3230,
      "FAU_SAR": 3231,
      "любые": 3232,
      "перечень": 3233,
      "FCO_NRR": 3234,
      "Автор": 3235,
      "поставки": 3236,
      "приложении": 3237,
      "переоформлении": 3238,
      "равно": 3239,
      "OTB": 3240,
      "неразрешенных": 3241,
      "Доверенный": 3242,
      "умолчанию": 3243,
      "РФ": 3244,
      "Рез": 3245,
      "бу": 3246,
      "ите": 3247,
      "нем": 3248,
      "нему": 3249,
      "оформ": 3250,
      "скрыт": 3251,
      "##ести": 3252,
      "##тов": 3253,
      "##лл": 3254,
      "##ости": 3255,
      "##ма": 3256,
      "##ТЕ": 3257,
      "##VUL": 3258,
      "##RSA": 3259,
      "##EJN": 3260,
      "##ar": 3261,
      "##анд": 3262,
      "##орта": 3263,
      "##отруд": 3264,
      "##льзо": 3265,
      "слов": 3266,
      "##ированию": 3267,
      "##ические": 3268,
      "пользователяС": 3269,
      "действу": 3270,
      "описаны": 3271,
      "определенных": 3272,
      "реализацию": 3273,
      "##уск": 3274,
      "атрибутах": 3275,
      "##ющиеся": 3276,
      "ADVJMP": 3277,
      "таблиц": 3278,
      "ADV_ARC": 3279,
      "процесс": 3280,
      "##лежащ": 3281,
      "операцию": 3282,
      "общедоступ": 3283,
      "модификация": 3284,
      "задания": 3285,
      "испытания": 3286,
      "запросы": 3287,
      "ACO_REL": 3288,
      "предпринимаемые": 3289,
      "федерального": 3290,
      "вызов": 3291,
      "противостоя": 3292,
      "FDP_ACF": 3293,
      "больш": 3294,
      "другого": 3295,
      "FDP_ROL": 3296,
      "домен": 3297,
      "##АЦИИ": 3298,
      "обычно": 3299,
      "##EJND": 3300,
      "2C": 3301,
      "2EОценщик": 3302,
      "],": 3303,
      "Безопас": 3304,
      "ПО": 3305,
      "Ре": 3306,
      "вступ": 3307,
      "границ": 3308,
      "ных": 3309,
      "сф": 3310,
      "ся": 3311,
      "треть": 3312,
      "##дущ": 3313,
      "##яти": 3314,
      "##el": 3315,
      "##in": 3316,
      "##CT": 3317,
      "##енс": 3318,
      "##раш": 3319,
      "##ремен": 3320,
      "направ": 3321,
      "##олог": 3322,
      "заключ": 3323,
      "приостанов": 3324,
      "проис": 3325,
      "##ческих": 3326,
      "подлин": 3327,
      "##огов": 3328,
      "была": 3329,
      "функционирование": 3330,
      "2017": 3331,
      "##информ": 3332,
      "системами": 3333,
      "технической": 3334,
      "каждый": 3335,
      "выполнять": 3336,
      "предусмотрены": 3337,
      "режима": 3338,
      "стандарты": 3339,
      "продуктом": 3340,
      "паралл": 3341,
      "выбра": 3342,
      "места": 3343,
      "невозможности": 3344,
      "журнала": 3345,
      "ему": 3346,
      "Детализированный": 3347,
      "##СКО": 3348,
      "прослеживание": 3349,
      "тайну": 3350,
      "Аттест": 3351,
      "Президента": 3352,
      "обознач": 3353,
      "предыдущ": 3354,
      "параллель": 3355,
      "49": 3356,
      "Ли": 3357,
      "Ос": 3358,
      "доб": 3359,
      "ла": 3360,
      "ник": 3361,
      "срав": 3362,
      "син": 3363,
      "учит": 3364,
      "##ила": 3365,
      "##оу": 3366,
      "##ПА": 3367,
      "##ксп": 3368,
      "##сок": 3369,
      "##рещ": 3370,
      "##емая": 3371,
      "наз": 3372,
      "отмет": 3373,
      "данным": 3374,
      "##рацию": 3375,
      "разрабатыва": 3376,
      "объектах": 3377,
      "##очное": 3378,
      "##лены": 3379,
      "органы": 3380,
      "прям": 3381,
      "явно": 3382,
      "случай": 3383,
      "уровней": 3384,
      "определяют": 3385,
      "##ITC": 3386,
      "виды": 3387,
      "процессов": 3388,
      "методов": 3389,
      "установлены": 3390,
      "FMT": 3391,
      "уязвимостях": 3392,
      "Оператор": 3393,
      "статью": 3394,
      "##ованность": 3395,
      "обнаружение": 3396,
      "##ываться": 3397,
      "ACO_VUL": 3398,
      "запрещ": 3399,
      "Примеры": 3400,
      "FPT_ITT": 3401,
      "характеристик": 3402,
      "характеристики": 3403,
      "цион": 3404,
      "ствия": 3405,
      "исследов": 3406,
      "секретов": 3407,
      "Представление": 3408,
      "Аутентификация": 3409,
      ".................................................................": 3410,
      "2CВ": 3411,
      "51": 3412,
      "ОД": 3413,
      "Орг": 3414,
      "два": 3415,
      "ожи": 3416,
      "тор": 3417,
      "тель": 3418,
      "##гов": 3419,
      "##гру": 3420,
      "##па": 3421,
      "##ятий": 3422,
      "##ic": 3423,
      "##шение": 3424,
      "##TC": 3425,
      "##SD": 3426,
      "##овери": 3427,
      "##ноним": 3428,
      "##анным": 3429,
      "##отказ": 3430,
      "##рования": 3431,
      "##опри": 3432,
      "отмен": 3433,
      "сочет": 3434,
      "програм": 3435,
      "##дая": 3436,
      "реаг": 3437,
      "##ически": 3438,
      "##ленные": 3439,
      "##ализации": 3440,
      "##лек": 3441,
      "2011": 3442,
      "раскрытия": 3443,
      "дек": 3444,
      "##менить": 3445,
      "изменение": 3446,
      "##дельц": 3447,
      "имеющих": 3448,
      "применяться": 3449,
      "различными": 3450,
      "лицензируемого": 3451,
      "пункте": 3452,
      "ошибках": 3453,
      "2004": 3454,
      "руководства": 3455,
      "предпринимателя": 3456,
      "последователь": 3457,
      "Функции": 3458,
      "предположения": 3459,
      "рассматривается": 3460,
      "FRU_RSA": 3461,
      "нормативных": 3462,
      "юридического": 3463,
      "понятия": 3464,
      "любого": 3465,
      "Информация": 3466,
      "Информационная": 3467,
      "##_ТА": 3468,
      "стороны": 3469,
      "##SOS": 3470,
      "блокирование": 3471,
      "распоряд": 3472,
      "предъявля": 3473,
      "##планов": 3474,
      "AGD_OPE": 3475,
      "храним": 3476,
      "оценива": 3477,
      "ролей": 3478,
      ".)": 3479,
      "04": 3480,
      "Мод": 3481,
      "Пок": 3482,
      "Связ": 3483,
      "гене": 3484,
      "ди": 3485,
      "зд": 3486,
      "национ": 3487,
      "уч": 3488,
      "##чения": 3489,
      "##цеду": 3490,
      "##ОН": 3491,
      "##PRE": 3492,
      "##TAT": 3493,
      "##НЫ": 3494,
      "##ованных": 3495,
      "##еры": 3496,
      "##ровать": 3497,
      "соедин": 3498,
      "прош": 3499,
      "прост": 3500,
      "слова": 3501,
      "##ностями": 3502,
      "регу": 3503,
      "реакци": 3504,
      "изд": 3505,
      "объектами": 3506,
      "осуществление": 3507,
      "определении": 3508,
      "##тельно": 3509,
      "связаны": 3510,
      "программные": 3511,
      "уровни": 3512,
      "ADVJNT": 3513,
      "зависит": 3514,
      "полным": 3515,
      "перемен": 3516,
      "техническое": 3517,
      "получить": 3518,
      "нарушений": 3519,
      "аттестационных": 3520,
      "способов": 3521,
      "отсутствии": 3522,
      "создания": 3523,
      "соблюд": 3524,
      "доверенным": 3525,
      "доверенный": 3526,
      "обязан": 3527,
      "каналов": 3528,
      "место": 3529,
      "возникнов": 3530,
      "Ограничение": 3531,
      "ассоциирован": 3532,
      "ATE_FUN": 3533,
      "199": 3534,
      "описывает": 3535,
      "хранение": 3536,
      "APE_REQ": 3537,
      "модульный": 3538,
      "профиля": 3539,
      "FCO_NRO": 3540,
      "един": 3541,
      "виртуальной": 3542,
      "заказчик": 3543,
      "Криптографичес": 3544,
      "пользователяСемейство": 3545,
      "доменов": 3546,
      "выбрать": 3547,
      "##SDI": 3548,
      "декомпозици": 3549,
      "3C": 3550,
      "Ан": 3551,
      "Ро": 3552,
      "Специ": 3553,
      "Соглас": 3554,
      "ранж": 3555,
      "##рмер": 3556,
      "##ающих": 3557,
      "##зн": 3558,
      "##мм": 3559,
      "##гнут": 3560,
      "##кую": 3561,
      "##DAU": 3562,
      "##TSS": 3563,
      "##енном": 3564,
      "##цион": 3565,
      "пояс": 3566,
      "##ляется": 3567,
      "обрат": 3568,
      "##остность": 3569,
      "безопасного": 3570,
      "##дает": 3571,
      "##ленной": 3572,
      "FDP_SDI": 3573,
      "всегда": 3574,
      "вним": 3575,
      "разработчику": 3576,
      "разработчиков": 3577,
      "перемещ": 3578,
      "перечис": 3579,
      "##ничеств": 3580,
      "сервер": 3581,
      "установить": 3582,
      "##зац": 3583,
      "идентифициру": 3584,
      "ALC_DVS": 3585,
      "лицом": 3586,
      "базовый": 3587,
      "предоставлять": 3588,
      "защища": 3589,
      "соответствующие": 3590,
      "отсутствия": 3591,
      "необходимых": 3592,
      "дополнительных": 3593,
      "ОперацииF": 3594,
      "качества": 3595,
      "модулями": 3596,
      "записей": 3597,
      "Функциональные": 3598,
      "языке": 3599,
      "миним": 3600,
      "терминах": 3601,
      "низкого": 3602,
      "сетевых": 3603,
      "сбоя": 3604,
      "##ротив": 3605,
      "##освязь": 3606,
      "экспортируемых": 3607,
      "##цедуры": 3608,
      "декомпозиции": 3609,
      ".-": 3610,
      "Ад": 3611,
      "АС": 3612,
      "Взаим": 3613,
      "Доступ": 3614,
      "ЗНИ": 3615,
      "Определ": 3616,
      "Сов": 3617,
      "ве": 3618,
      "иными": 3619,
      "она": 3620,
      "ран": 3621,
      "сотруд": 3622,
      "##ви": 3623,
      "##ар": 3624,
      "##аб": 3625,
      "##нее": 3626,
      "##мп": 3627,
      "##ба": 3628,
      "##ce": 3629,
      "##СБ": 3630,
      "##шим": 3631,
      "##PR": 3632,
      "##FM": 3633,
      "##ETC": 3634,
      "##ИЙ": 3635,
      "полага": 3636,
      "##ству": 3637,
      "##лись": 3638,
      "обнов": 3639,
      "неформ": 3640,
      "выд": 3641,
      "подоб": 3642,
      "##ункцион": 3643,
      "функциями": 3644,
      "осуществляющих": 3645,
      "меропри": 3646,
      "ALC_TAT": 3647,
      "обеспечивается": 3648,
      "область": 3649,
      "Настоящ": 3650,
      "##министриров": 3651,
      "организационных": 3652,
      "установленных": 3653,
      "заданием": 3654,
      "конкретных": 3655,
      "лицензирующим": 3656,
      "значимый": 3657,
      "пределы": 3658,
      "структур": 3659,
      "идентифицированных": 3660,
      "объяс": 3661,
      "Предпол": 3662,
      "возникновения": 3663,
      "порядок": 3664,
      "планов": 3665,
      "ассоциации": 3666,
      "автоматизированных": 3667,
      "рассматриваются": 3668,
      "обязательное": 3669,
      "сервисы": 3670,
      "уточнение": 3671,
      "критерии": 3672,
      "воздействия": 3673,
      "подлежащ": 3674,
      "изготовителя": 3675,
      "зависимых": 3676,
      "##трализ": 3677,
      "нейтрализ": 3678,
      "демонстриру": 3679,
      "потенциалом": 3680,
      "период": 3681,
      "абзац": 3682,
      "контрмер": 3683,
      "##пользователя": 3684,
      "##FPT_": 3685,
      "Часть": 3686,
      "разграничения": 3687,
      "челове": 3688,
      "##определ": 3689,
      "помощью": 3690,
      "Поддержка": 3691,
      "##отказуем": 3692,
      "(«": 3693,
      "..": 3694,
      "3CВ": 3695,
      "60": 3696,
      "Имп": 3697,
      "Пос": 3698,
      "Цел": 3699,
      "вно": 3700,
      "генери": 3701,
      "дост": 3702,
      "ноя": 3703,
      "ними": 3704,
      "означ": 3705,
      "три": 3706,
      "ущ": 3707,
      "##иб": 3708,
      "##ТА": 3709,
      "##ТР": 3710,
      "##_СТ": 3711,
      "##кре": 3712,
      "##хват": 3713,
      "##пре": 3714,
      "##og": 3715,
      "##МС": 3716,
      "##МУ": 3717,
      "##оваться": 3718,
      "##анной": 3719,
      "##орте": 3720,
      "постанов": 3721,
      "положения": 3722,
      "направля": 3723,
      "ответ": 3724,
      "выраж": 3725,
      "##няя": 3726,
      "##ализация": 3727,
      "провести": 3728,
      "семействах": 3729,
      "каж": 3730,
      "уровню": 3731,
      "##следу": 3732,
      "основанное": 3733,
      "##LCD": 3734,
      "##татных": 3735,
      "##ультаты": 3736,
      "проверок": 3737,
      "включены": 3738,
      "рассмот": 3739,
      "выполняться": 3740,
      "представлено": 3741,
      "ограничений": 3742,
      "способом": 3743,
      "прерыв": 3744,
      "FIA_SOS": 3745,
      "утверждение": 3746,
      "оценщиком": 3747,
      "разделения": 3748,
      "##арактериз": 3749,
      "##ection": 3750,
      "Правил": 3751,
      "предпринять": 3752,
      "лицензирующего": 3753,
      "проводятся": 3754,
      "##FLT": 3755,
      "комисс": 3756,
      "ключев": 3757,
      "вызыва": 3758,
      "FTA_T": 3759,
      "существу": 3760,
      "»),": 3761,
      "параметры": 3762,
      "адреса": 3763,
      "FPT_ITI": 3764,
      "Таким": 3765,
      "ситуация": 3766,
      "Автом": 3767,
      "##----": 3768,
      "еди": 3769,
      "##ариан": 3770,
      "##ADV_TDS": 3771,
      "Краткая": 3772,
      "оператором": 3773,
      "версии": 3774,
      "экспортному": 3775,
      "##рашива": 3776,
      "Лиценз": 3777,
      "отметить": 3778,
      "##PRS": 3779,
      "мероприятий": 3780,
      "Импорт": 3781,
      "Целостность": 3782,
      "ноября": 3783,
      "ущер": 3784,
      "##_СТТ": 3785,
      "36": 3786,
      "45": 3787,
      "Де": 3788,
      "ИН": 3789,
      "ОП": 3790,
      "Эксп": 3791,
      "глуб": 3792,
      "догов": 3793,
      "кв": 3794,
      "##eri": 3795,
      "##cc": 3796,
      "##СВ": 3797,
      "##ut": 3798,
      "покрытия": 3799,
      "##одей": 3800,
      "надеж": 3801,
      "##едици": 3802,
      "заключа": 3803,
      "задач": 3804,
      "##ики": 3805,
      "приме": 3806,
      "приват": 3807,
      "##того": 3808,
      "предмет": 3809,
      "безопасностью": 3810,
      "##дап": 3811,
      "констру": 3812,
      "##ойчив": 3813,
      "объекту": 3814,
      "##лено": 3815,
      "разработка": 3816,
      "право": 3817,
      "FDP_ETC": 3818,
      "реализация": 3819,
      "##текст": 3820,
      "всего": 3821,
      "являющихся": 3822,
      "случая": 3823,
      "##боратор": 3824,
      "##ников": 3825,
      "##ятельность": 3826,
      "действиями": 3827,
      "получа": 3828,
      "проектирования": 3829,
      "критич": 3830,
      "форму": 3831,
      "идентич": 3832,
      "целом": 3833,
      "лицо": 3834,
      "государственный": 3835,
      "выполняемых": 3836,
      "предусмотренных": 3837,
      "эксплуатационной": 3838,
      "недоступ": 3839,
      "совмест": 3840,
      "даже": 3841,
      "сеансов": 3842,
      "FPR_AN": 3843,
      "ссылка": 3844,
      "2007": 3845,
      "устранение": 3846,
      "ATEJND": 3847,
      "сопостав": 3848,
      "##ясь": 3849,
      "владельц": 3850,
      "свои": 3851,
      "ATE_COV": 3852,
      "обязательно": 3853,
      "FRU_FLT": 3854,
      "управлять": 3855,
      "состоянии": 3856,
      "минималь": 3857,
      "индивидуального": 3858,
      "неуспешных": 3859,
      "##ехничес": 3860,
      "Дополнитель": 3861,
      "доказательство": 3862,
      "ОЦЛ": 3863,
      "лаборатор": 3864,
      "ОДТ": 3865,
      "Роли": 3866,
      "##FMT_": 3867,
      "Деятельность": 3868,
      "##едицин": 3869,
      "IEC": 3870,
      "ISO": 3871,
      "ИА": 3872,
      "Пере": 3873,
      "Сред": 3874,
      "ект": 3875,
      "множеств": 3876,
      "##ины": 3877,
      "##лы": 3878,
      "##си": 3879,
      "##ящ": 3880,
      "##tection": 3881,
      "##ЕНИ": 3882,
      "##шего": 3883,
      "##le": 3884,
      "##ног": 3885,
      "##ортом": 3886,
      "##лять": 3887,
      "наб": 3888,
      "##мичес": 3889,
      "открытия": 3890,
      "##упрежд": 3891,
      "опреде": 3892,
      "специфициру": 3893,
      "##СТВ": 3894,
      "FDP_DAU": 3895,
      "атрибутам": 3896,
      "документацию": 3897,
      "##никами": 3898,
      "указанием": 3899,
      "используют": 3900,
      "предоставляемых": 3901,
      "##крытие": 3902,
      "ограничение": 3903,
      "установленного": 3904,
      "соответствует": 3905,
      "элемента": 3906,
      "механизма": 3907,
      "продуктов": 3908,
      "истеч": 3909,
      "маркиров": 3910,
      "производство": 3911,
      "согласно": 3912,
      "выявленных": 3913,
      "посредничеств": 3914,
      "источников": 3915,
      "сообщений": 3916,
      "активов": 3917,
      "ЕМТ_": 3918,
      "приемки": 3919,
      "именно": 3920,
      "Функциональное": 3921,
      "уточн": 3922,
      "продемонстрировать": 3923,
      "##ess": 3924,
      "степень": 3925,
      "##ATE_": 3926,
      "копии": 3927,
      "сторон": 3928,
      "##rotection": 3929,
      "##FDP_IF": 3930,
      "соискателя": 3931,
      "прикладного": 3932,
      "административного": 3933,
      "АСО_СТТ": 3934,
      "Обосновании": 3935,
      "двух": 3936,
      "FIA_AFL": 3937,
      "справочное": 3938,
      "Терми": 3939,
      "программи": 3940,
      "Аннот": 3941,
      "квот": 3942,
      "FPR_ANO": 3943,
      "ИАФ": 3944,
      "06": 3945,
      "43": 3946,
      "ALC": 3947,
      "security": 3948,
      "»;": 3949,
      "РО": 3950,
      "Св": 3951,
      "вет": 3952,
      "вру": 3953,
      "генерация": 3954,
      "ори": 3955,
      "##рения": 3956,
      "##акт": 3957,
      "##гна": 3958,
      "##АЛЬ": 3959,
      "##кв": 3960,
      "##ских": 3961,
      "##против": 3962,
      "##at": 3963,
      "##OF": 3964,
      "##qu": 3965,
      "##рес": 3966,
      "поступ": 3967,
      "обмена": 3968,
      "отс": 3969,
      "отлич": 3970,
      "неправ": 3971,
      "##унк": 3972,
      "##дают": 3973,
      "##лег": 3974,
      "определенного": 3975,
      "определенным": 3976,
      "криптографи": 3977,
      "пром": 3978,
      "классу": 3979,
      "##ированное": 3980,
      "связано": 3981,
      "дека": 3982,
      "осуществляться": 3983,
      "##деление": 3984,
      "##стоян": 3985,
      "продолж": 3986,
      "резерв": 3987,
      "стандартиз": 3988,
      "лицами": 3989,
      "выполняет": 3990,
      "персонала": 3991,
      "методы": 3992,
      "утверждения": 3993,
      "компо": 3994,
      "отношения": 3995,
      "общей": 3996,
      "сетей": 3997,
      "законодательные": 3998,
      "задание": 3999,
      "пакеты": 4000,
      "недостатках": 4001,
      "автоматизированной": 4002,
      "направлены": 4003,
      "##агается": 4004,
      "FMT_MTD": 4005,
      "##овательно": 4006,
      "FRU_PRS": 4007,
      "юридических": 4008,
      "представляют": 4009,
      "ЕРТ_": 4010,
      "Обоснование": 4011,
      "позволяют": 4012,
      "шифров": 4013,
      "номер": 4014,
      "компьютерных": 4015,
      "наименование": 4016,
      "утверждается": 4017,
      "Результаты": 4018,
      "противостояние": 4019,
      "сравн": 4020,
      "генерации": 4021,
      "прошед": 4022,
      "##ccess": 4023,
      "посредничестве": 4024,
      ".,": 4025,
      "NOB": 4026,
      "con": 4027,
      "Данный": 4028,
      "Имя": 4029,
      "Мониторин": 4030,
      "Меры": 4031,
      "Пункт": 4032,
      "Сист": 4033,
      "вред": 4034,
      "вариан": 4035,
      "две": 4036,
      "демонстриров": 4037,
      "зн": 4038,
      "зоны": 4039,
      "медицин": 4040,
      "нуж": 4041,
      "пасс": 4042,
      "фик": 4043,
      "##аки": 4044,
      "##ту": 4045,
      "##гно": 4046,
      "##чита": 4047,
      "##хрон": 4048,
      "##хожд": 4049,
      "##ще": 4050,
      "##PH": 4051,
      "##FT": 4052,
      "##du": 4053,
      "пон": 4054,
      "постоян": 4055,
      "##ожение": 4056,
      "##атья": 4057,
      "сокращ": 4058,
      "##альном": 4059,
      "##тин": 4060,
      "##ностям": 4061,
      "информационную": 4062,
      "компоненту": 4063,
      "стат": 4064,
      "следующего": 4065,
      "контекст": 4066,
      "обеспечением": 4067,
      "соответствовать": 4068,
      "##очный": 4069,
      "содержанием": 4070,
      "мере": 4071,
      "возможные": 4072,
      "описано": 4073,
      "##фицированные": 4074,
      "##оят": 4075,
      "основыва": 4076,
      "##нию": 4077,
      "допол": 4078,
      "##ведения": 4079,
      "формальной": 4080,
      "нарушителей": 4081,
      "стандарте": 4082,
      "предоставляют": 4083,
      "##SPM": 4084,
      "удост": 4085,
      "этому": 4086,
      "ограничива": 4087,
      "взаимодей": 4088,
      "конкретной": 4089,
      "необходимы": 4090,
      "ASE_OBJ": 4091,
      "ASE_ECD": 4092,
      "показыва": 4093,
      "относящихся": 4094,
      "структуру": 4095,
      "запрашива": 4096,
      "##FLS": 4097,
      "указанной": 4098,
      "зависимость": 4099,
      "группой": 4100,
      "плани": 4101,
      "источника": 4102,
      "FMT_MOF": 4103,
      "актуально": 4104,
      "составляющих": 4105,
      "удаление": 4106,
      "Статья": 4107,
      "сложности": 4108,
      "контролируемой": 4109,
      "подтверждения": 4110,
      "аннот": 4111,
      "допускается": 4112,
      "почты": 4113,
      "com": 4114,
      "актуальны": 4115,
      "алгоритм": 4116,
      "эффективности": 4117,
      "организациями": 4118,
      "характер": 4119,
      "словами": 4120,
      "##ременно": 4121,
      "происход": 4122,
      "Спецификация": 4123,
      "ранжированы": 4124,
      "ранее": 4125,
      "означает": 4126,
      "Термины": 4127,
      "Мониторинг": 4128,
      "##PHP": 4129,
      "61": 4130,
      "MOB": 4131,
      "АРЕ": 4132,
      "Ссыл": 4133,
      "Эта": 4134,
      "аут": 4135,
      "бес": 4136,
      "зов": 4137,
      "офици": 4138,
      "пор": 4139,
      "ру": 4140,
      "санкционирован": 4141,
      "ти": 4142,
      "уз": 4143,
      "утра": 4144,
      "характериз": 4145,
      "##воз": 4146,
      "##ай": 4147,
      "##аемых": 4148,
      "##ием": 4149,
      "##ния": 4150,
      "##АСС": 4151,
      "##бира": 4152,
      "##чении": 4153,
      "##ОО": 4154,
      "##штатных": 4155,
      "##23": 4156,
      "##SSP": 4157,
      "##ss": 4158,
      "##ста": 4159,
      "##стор": 4160,
      "поль": 4161,
      "##ерти": 4162,
      "##енты": 4163,
      "наход": 4164,
      "принад": 4165,
      "безопасное": 4166,
      "нештатных": 4167,
      "вынес": 4168,
      "информационного": 4169,
      "##огут": 4170,
      "которыми": 4171,
      "требовать": 4172,
      "атаки": 4173,
      "описан": 4174,
      "##жеб": 4175,
      "##ительным": 4176,
      "определению": 4177,
      "применении": 4178,
      "права": 4179,
      "связность": 4180,
      "выполнении": 4181,
      "указанные": 4182,
      "проекту": 4183,
      "определять": 4184,
      "перевоз": 4185,
      "угрозам": 4186,
      "##гается": 4187,
      "списка": 4188,
      "FPT_FLS": 4189,
      "потоки": 4190,
      "выполняемого": 4191,
      "облад": 4192,
      "преобраз": 4193,
      "уси": 4194,
      "решений": 4195,
      "лицензируемый": 4196,
      "ASE_CCL": 4197,
      "##готовительные": 4198,
      "пределов": 4199,
      "испытатель": 4200,
      "тесты": 4201,
      "этими": 4202,
      "устранении": 4203,
      "##ителям": 4204,
      "содержащие": 4205,
      "органами": 4206,
      "внешние": 4207,
      "Положения": 4208,
      "Подготовительные": 4209,
      "достижения": 4210,
      "электронного": 4211,
      "надзор": 4212,
      "противоре": 4213,
      "услуги": 4214,
      "независимое": 4215,
      "любой": 4216,
      "подлежат": 4217,
      "подтверждение": 4218,
      "особен": 4219,
      "администратором": 4220,
      "вопросам": 4221,
      "лицензионных": 4222,
      "Утверждения": 4223,
      "участ": 4224,
      "реестр": 4225,
      "##ответствие": 4226,
      "функционирует": 4227,
      "Каждый": 4228,
      "##olog": 4229,
      "настройки": 4230,
      "предписания": 4231,
      "независимым": 4232,
      "Методы": 4233,
      "сфере": 4234,
      "направляет": 4235,
      "добав": 4236,
      "синхрон": 4237,
      "##груз": 4238,
      "Экспорт": 4239,
      "промыш": 4240,
      "декабря": 4241,
      "демонстрировать": 4242,
      "##ology": 4243,
      "38": 4244,
      "4CВ": 4245,
      "50": 4246,
      "III": 4247,
      "ЗТС": 4248,
      "ЗСВ": 4249,
      "Ис": 4250,
      "Перед": 4251,
      "Хотя": 4252,
      "аль": 4253,
      "дей": 4254,
      "нас": 4255,
      "остав": 4256,
      "функ": 4257,
      "##ап": 4258,
      "##нев": 4259,
      "##ПЗ": 4260,
      "##MCS": 4261,
      "##TRP": 4262,
      "##ФОР": 4263,
      "##есь": 4264,
      "##есо": 4265,
      "зави": 4266,
      "пригод": 4267,
      "##альными": 4268,
      "опре": 4269,
      "высок": 4270,
      "пользовате": 4271,
      "##иях": 4272,
      "обеспечении": 4273,
      "средой": 4274,
      "##может": 4275,
      "использованы": 4276,
      "##меч": 4277,
      "субъ": 4278,
      "служеб": 4279,
      "классе": 4280,
      "осуществляют": 4281,
      "осуществляются": 4282,
      "##идетельство": 4283,
      "##явление": 4284,
      "Обнаруж": 4285,
      "настоящим": 4286,
      "выполняемые": 4287,
      "поддерживать": 4288,
      "актов": 4289,
      "термин": 4290,
      "соответствующей": 4291,
      "продукции": 4292,
      "уполномоченный": 4293,
      "Правила": 4294,
      "категорий": 4295,
      "значимом": 4296,
      "обнаружении": 4297,
      "принятие": 4298,
      "относящ": 4299,
      "физических": 4300,
      "согласов": 4301,
      "наличия": 4302,
      "разрешения": 4303,
      "повторного": 4304,
      "достигается": 4305,
      "источниках": 4306,
      "Такие": 4307,
      "верифицировать": 4308,
      "описывают": 4309,
      "приведена": 4310,
      "невозможно": 4311,
      "отката": 4312,
      "сбой": 4313,
      "подпунктом": 4314,
      "файлов": 4315,
      "инструментальные": 4316,
      "предусматривающий": 4317,
      "затем": 4318,
      "однозначно": 4319,
      "службе": 4320,
      "последствий": 4321,
      "инцидентов": 4322,
      "глоб": 4323,
      "мониторинга": 4324,
      "Безопасность": 4325,
      "Основ": 4326,
      "ожида": 4327,
      "Совокуп": 4328,
      "ущерба": 4329,
      "совместно": 4330,
      "наблюд": 4331,
      "аутенти": 4332,
      "Обнаружение": 4333,
      "1CВ": 4334,
      "FDP": 4335,
      "UCO": 4336,
      "Охват": 4337,
      "ТЕ": 4338,
      "Установ": 4339,
      "адап": 4340,
      "мун": 4341,
      "ного": 4342,
      "сцен": 4343,
      "тот": 4344,
      "тогда": 4345,
      "чт": 4346,
      "##ний": 4347,
      "##При": 4348,
      "##желатель": 4349,
      "##чива": 4350,
      "##йной": 4351,
      "##СП": 4352,
      "##НОСТ": 4353,
      "##04": 4354,
      "##fi": 4355,
      "##рам": 4356,
      "##атели": 4357,
      "##ствие": 4358,
      "##ляются": 4359,
      "##отреб": 4360,
      "##рование": 4361,
      "инфор": 4362,
      "присутств": 4363,
      "##ожет": 4364,
      "него": 4365,
      "опубли": 4366,
      "##тии": 4367,
      "выдел": 4368,
      "##обход": 4369,
      "##обожд": 4370,
      "##мень": 4371,
      "##иваться": 4372,
      "специали": 4373,
      "таком": 4374,
      "субъекту": 4375,
      "связь": 4376,
      "программной": 4377,
      "осуществляющие": 4378,
      "осуществляющего": 4379,
      "одному": 4380,
      "правило": 4381,
      "полной": 4382,
      "интерва": 4383,
      "функционального": 4384,
      "составной": 4385,
      "##COP": 4386,
      "ADV_SPM": 4387,
      "##конч": 4388,
      "тестированию": 4389,
      "списке": 4390,
      "FPT_PHP": 4391,
      "##ицип": 4392,
      "анализу": 4393,
      "требуют": 4394,
      "изменя": 4395,
      "предоставляется": 4396,
      "совпа": 4397,
      "соответствующий": 4398,
      "##орядоч": 4399,
      "##REV": 4400,
      "состоянию": 4401,
      "уровнях": 4402,
      "внепланов": 4403,
      "ASE_TSS": 4404,
      "взаимодействий": 4405,
      "идентифицированные": 4406,
      "Полная": 4407,
      "кото": 4408,
      "порядка": 4409,
      "просмот": 4410,
      "план": 4411,
      "свою": 4412,
      "##терии": 4413,
      "служить": 4414,
      "сигна": 4415,
      "описывается": 4416,
      "физического": 4417,
      "»).": 4418,
      "целями": 4419,
      "##лировании": 4420,
      "ответственность": 4421,
      "больше": 4422,
      "устройства": 4423,
      "Постановления": 4424,
      "Постановлением": 4425,
      "##овещ": 4426,
      "уведомление": 4427,
      "##атическое": 4428,
      "относительно": 4429,
      "центра": 4430,
      "##ССИЙ": 4431,
      "оборуд": 4432,
      "дополнение": 4433,
      "Регламентация": 4434,
      "##варитель": 4435,
      "количество": 4436,
      "вместо": 4437,
      "общедоступных": 4438,
      "вступления": 4439,
      "##министрирование": 4440,
      "глубины": 4441,
      "заключается": 4442,
      "##ФОРМ": 4443,
      "Совокупность": 4444,
      "муницип": 4445,
      "##НОСТИ": 4446,
      "32": 4447,
      "5C": 4448,
      "IV": 4449,
      "Форм": 4450,
      "бан": 4451,
      "вз": 4452,
      "зна": 4453,
      "лок": 4454,
      "много": 4455,
      "мая": 4456,
      "ной": 4457,
      "неде": 4458,
      "практ": 4459,
      "счет": 4460,
      "счита": 4461,
      "упро": 4462,
      "##аран": 4463,
      "##ош": 4464,
      "##ум": 4465,
      "##укт": 4466,
      "##управления": 4467,
      "##ЗО": 4468,
      "##гист": 4469,
      "##компонент": 4470,
      "##ed": 4471,
      "##it": 4472,
      "##iqu": 4473,
      "##FI": 4474,
      "##стро": 4475,
      "##ованные": 4476,
      "##ции": 4477,
      "##рафи": 4478,
      "##регист": 4479,
      "последу": 4480,
      "##ерш": 4481,
      "обобщ": 4482,
      "нач": 4483,
      "зарегист": 4484,
      "##остех": 4485,
      "прич": 4486,
      "приложение": 4487,
      "призн": 4488,
      "отри": 4489,
      "непри": 4490,
      "соор": 4491,
      "##ребования": 4492,
      "##ческие": 4493,
      "лиш": 4494,
      "##дача": 4495,
      "##ографи": 4496,
      "изложения": 4497,
      "##язатель": 4498,
      "среда": 4499,
      "##емейства": 4500,
      "##лена": 4501,
      "##новременно": 4502,
      "специфи": 4503,
      "##ждан": 4504,
      "такая": 4505,
      "описанию": 4506,
      "описывать": 4507,
      "предоставление": 4508,
      "осуществляет": 4509,
      "##ирус": 4510,
      "##ирует": 4511,
      "составных": 4512,
      "составном": 4513,
      "включения": 4514,
      "базовым": 4515,
      "выполняется": 4516,
      "способств": 4517,
      "методичес": 4518,
      "##рированных": 4519,
      "отдельно": 4520,
      "некоторой": 4521,
      "##лась": 4522,
      "аппаратного": 4523,
      "категорирования": 4524,
      "условии": 4525,
      "дает": 4526,
      "сеанс": 4527,
      "сеансы": 4528,
      "взаимодействие": 4529,
      "ссылаться": 4530,
      "Требованиям": 4531,
      "криптографические": 4532,
      "ОперацииС": 4533,
      "команд": 4534,
      "##тивирус": 4535,
      "связанность": 4536,
      "федеральным": 4537,
      "федеральными": 4538,
      "указанного": 4539,
      "редакци": 4540,
      "регистрация": 4541,
      "существует": 4542,
      "службы": 4543,
      "надлежащ": 4544,
      "правильно": 4545,
      "правильности": 4546,
      "##локирование": 4547,
      "приказа": 4548,
      "предназначено": 4549,
      "напря": 4550,
      "##_СМС": 4551,
      "интерес": 4552,
      "##DEL": 4553,
      "Руководства": 4554,
      "FDP_UCT": 4555,
      "ситуаций": 4556,
      "иерархич": 4557,
      "вероят": 4558,
      "исходных": 4559,
      "понимания": 4560,
      "AGD_PRE": 4561,
      "Критерии": 4562,
      "граждан": 4563,
      "широ": 4564,
      "уничтожения": 4565,
      "Банке": 4566,
      "памяти": 4567,
      "уверенности": 4568,
      "##тернатив": 4569,
      "techniqu": 4570,
      "даты": 4571,
      "подтвержда": 4572,
      "##СКОЙ": 4573,
      "ника": 4574,
      "Организ": 4575,
      "##нонимность": 4576,
      "хранимых": 4577,
      "Взаимосвязь": 4578,
      "человека": 4579,
      "перевозкам": 4580,
      "Передача": 4581,
      "завися": 4582,
      "ТЕХ": 4583,
      "сценари": 4584,
      "опубликов": 4585,
      "специалист": 4586,
      "##ССИЙСКОЙ": 4587,
      "techniques": 4588,
      "\".": 4589,
      "\";": 4590,
      "108": 4591,
      "33": 4592,
      "48": 4593,
      "54": 4594,
      "II": 4595,
      "MS": 4596,
      "Protection": 4597,
      "St": 4598,
      "of": 4599,
      "ru": 4600,
      "Гостех": 4601,
      "Зак": 4602,
      "СВ": 4603,
      "Тип": 4604,
      "ак": 4605,
      "вод": 4606,
      "дуб": 4607,
      "дата": 4608,
      "мног": 4609,
      "охран": 4610,
      "оконч": 4611,
      "рей": 4612,
      "сп": 4613,
      "##действия": 4614,
      "##врат": 4615,
      "##вобожд": 4616,
      "##ающие": 4617,
      "##ией": 4618,
      "##лед": 4619,
      "##нер": 4620,
      "##уров": 4621,
      "##жении": 4622,
      "##пят": 4623,
      "##et": 4624,
      "##ществ": 4625,
      "##AGD_": 4626,
      "##ur": 4627,
      "##анная": 4628,
      "поэтому": 4629,
      "пользо": 4630,
      "##риф": 4631,
      "##омог": 4632,
      "инт": 4633,
      "намер": 4634,
      "зам": 4635,
      "заменить": 4636,
      "информа": 4637,
      "непротив": 4638,
      "нежелатель": 4639,
      "##альную": 4640,
      "##спомог": 4641,
      "##ющему": 4642,
      "##ось": 4643,
      "##особ": 4644,
      "подход": 4645,
      "ства": 4646,
      "изложение": 4647,
      "следующей": 4648,
      "##очным": 4649,
      "##инан": 4650,
      "использованию": 4651,
      "##меш": 4652,
      "##ительной": 4653,
      "каких": 4654,
      "авгу": 4655,
      "реализовать": 4656,
      "##уске": 4657,
      "класси": 4658,
      "документацией": 4659,
      "внед": 4660,
      "одним": 4661,
      "необходимость": 4662,
      "основан": 4663,
      "другому": 4664,
      "иска": 4665,
      "полно": 4666,
      "полнот": 4667,
      "проверка": 4668,
      "FPT_SSP": 4669,
      "требует": 4670,
      "##комисс": 4671,
      "аттестуем": 4672,
      "образователь": 4673,
      "включаются": 4674,
      "настоящем": 4675,
      "метода": 4676,
      "##рирован": 4677,
      "взаимосвяз": 4678,
      "соответствующего": 4679,
      "применяемые": 4680,
      "комплек": 4681,
      "целостность": 4682,
      "Правитель": 4683,
      "повыш": 4684,
      "внутри": 4685,
      "режимом": 4686,
      "обнаружить": 4687,
      "производства": 4688,
      "приводится": 4689,
      "трех": 4690,
      "FTA_MCS": 4691,
      "запись": 4692,
      "целям": 4693,
      "предназначен": 4694,
      "составляющие": 4695,
      "обслуживание": 4696,
      "юридичес": 4697,
      "инициированное": 4698,
      "указываются": 4699,
      "Также": 4700,
      "зависимый": 4701,
      "запросу": 4702,
      "анну": 4703,
      "протоколов": 4704,
      "предусмотрено": 4705,
      "вопросу": 4706,
      "ЕРТ_Т": 4707,
      "откат": 4708,
      "этап": 4709,
      "подвергаемых": 4710,
      "ведения": 4711,
      "Разделение": 4712,
      "пользова": 4713,
      "завершения": 4714,
      "располож": 4715,
      "##рактив": 4716,
      "##ALC_CM": 4717,
      "транспортом": 4718,
      "прилагаемых": 4719,
      "FPT_TST": 4720,
      "уничтожение": 4721,
      "ASEJNT": 4722,
      "введен": 4723,
      "подмножество": 4724,
      "фильтрации": 4725,
      "стой": 4726,
      "дальнейшем": 4727,
      "сертификат": 4728,
      "ФЕДЕРАЛЬ": 4729,
      "##............................": 4730,
      "FTP_ITC": 4731,
      "А1_С_СМС": 4732,
      "реагирование": 4733,
      "##_ТАТ": 4734,
      "Согласованность": 4735,
      "внимание": 4736,
      "полагается": 4737,
      "направляется": 4738,
      "программирования": 4739,
      "Ссылка": 4740,
      "##FIA_": 4741,
      "отриц": 4742,
      "MSK": 4743,
      "Гостехкомисс": 4744,
      "непротиворе": 4745,
      "августа": 4746,
      "\",": 4747,
      "Information": 4748,
      "ЕТА": 4749,
      "За": 4750,
      "ИС": 4751,
      "Может": 4752,
      "ОБ": 4753,
      "РСБ": 4754,
      "авари": 4755,
      "вать": 4756,
      "вспомог": 4757,
      "дли": 4758,
      "дис": 4759,
      "ки": 4760,
      "кас": 4761,
      "ны": 4762,
      "ный": 4763,
      "ровать": 4764,
      "шаб": 4765,
      "##ди": 4766,
      "##ион": 4767,
      "##лом": 4768,
      "##уры": 4769,
      "##кот": 4770,
      "##чением": 4771,
      "##под": 4772,
      "##прет": 4773,
      "##пуск": 4774,
      "##яет": 4775,
      "##ятого": 4776,
      "##ЕЗО": 4777,
      "##СНОСТИ": 4778,
      "##NT": 4779,
      "##EO": 4780,
      "##SB": 4781,
      "##ованы": 4782,
      "##онач": 4783,
      "##лича": 4784,
      "обход": 4785,
      "нахожд": 4786,
      "##руг": 4787,
      "откры": 4788,
      "безопасность": 4789,
      "простран": 4790,
      "данное": 4791,
      "испол": 4792,
      "стан": 4793,
      "##полнение": 4794,
      "##полнения": 4795,
      "соответ": 4796,
      "объектом": 4797,
      "##быть": 4798,
      "##фицированы": 4799,
      "карт": 4800,
      "авто": 4801,
      "случаев": 4802,
      "контролем": 4803,
      "одна": 4804,
      "##ационного": 4805,
      "основных": 4806,
      "указывать": 4807,
      "используемого": 4808,
      "исключа": 4809,
      "##COR": 4810,
      "формы": 4811,
      "технические": 4812,
      "полученных": 4813,
      "аутентификацию": 4814,
      "проведению": 4815,
      "аттестованных": 4816,
      "FIA": 4817,
      "недоп": 4818,
      "недовер": 4819,
      "установленным": 4820,
      "утверждении": 4821,
      "оценщику": 4822,
      "разделение": 4823,
      "применять": 4824,
      "применяется": 4825,
      "FMT_REV": 4826,
      "конкретные": 4827,
      "конкретным": 4828,
      "создава": 4829,
      "правилами": 4830,
      "##ованной": 4831,
      "взаимодействии": 4832,
      "2009": 4833,
      "принять": 4834,
      "ACO_COR": 4835,
      "заявлении": 4836,
      "Интерн": 4837,
      "APE": 4838,
      "плат": 4839,
      "надз": 4840,
      "внесения": 4841,
      "##riteri": 4842,
      "APE_OBJ": 4843,
      "точки": 4844,
      "составляющей": 4845,
      "независимо": 4846,
      "понят": 4847,
      "невозможность": 4848,
      "Функциональная": 4849,
      "AVA": 4850,
      "сложность": 4851,
      "представлять": 4852,
      "указывается": 4853,
      "обрабатывает": 4854,
      "подлежит": 4855,
      "новых": 4856,
      "достаточно": 4857,
      "лицензиатов": 4858,
      "должностных": 4859,
      "отклон": 4860,
      "обращения": 4861,
      "подпункте": 4862,
      "относится": 4863,
      "Детализация": 4864,
      "##________________________________": 4865,
      "обыч": 4866,
      "предполагается": 4867,
      "материалы": 4868,
      "##ement": 4869,
      "межсетевой": 4870,
      "упорядоч": 4871,
      "technology": 4872,
      "находятся": 4873,
      "операционной": 4874,
      "параллельных": 4875,
      "##ПАСНОСТИ": 4876,
      "единствен": 4877,
      "##гнуты": 4878,
      "Предполагается": 4879,
      "##отказуемость": 4880,
      "внося": 4881,
      "каждая": 4882,
      "ключевых": 4883,
      "ИНФОРМ": 4884,
      "##FDP_IFC": 4885,
      "квоты": 4886,
      "РОССИЙСКОЙ": 4887,
      "comp": 4888,
      "недекла": 4889,
      "упрощ": 4890,
      "рейтин": 4891,
      "непротиворечив": 4892,
      "##ЕЗОПАСНОСТИ": 4893,
      "Интернет": 4894,
      "03": 4895,
      "4C": 4896,
      "pro": 4897,
      "Блокирование": 4898,
      "Государ": 4899,
      "Они": 4900,
      "ПР": 4901,
      "Поряд": 4902,
      "Сведения": 4903,
      "держ": 4904,
      "жел": 4905,
      "ими": 4906,
      "игно": 4907,
      "компон": 4908,
      "куль": 4909,
      "мень": 4910,
      "оно": 4911,
      "сем": 4912,
      "сформ": 4913,
      "счит": 4914,
      "умень": 4915,
      "##ец": 4916,
      "##ающей": 4917,
      "##кат": 4918,
      "##nt": 4919,
      "##val": 4920,
      "##AA": 4921,
      "##ARP": 4922,
      "##шей": 4923,
      "##uation": 4924,
      "##19": 4925,
      "##LSA": 4926,
      "##стойчив": 4927,
      "##нос": 4928,
      "потому": 4929,
      "##атор": 4930,
      "##ателю": 4931,
      "##она": 4932,
      "##лить": 4933,
      "приоб": 4934,
      "причин": 4935,
      "##авать": 4936,
      "предо": 4937,
      "предваритель": 4938,
      "##коно": 4939,
      "безопасностиASE_": 4940,
      "##способ": 4941,
      "##осстанов": 4942,
      "данный": 4943,
      "разб": 4944,
      "стад": 4945,
      "##обиль": 4946,
      "требова": 4947,
      "исполь": 4948,
      "##няется": 4949,
      "управлением": 4950,
      "спецификацию": 4951,
      "##писок": 4952,
      "применением": 4953,
      "##ываются": 4954,
      "экз": 4955,
      "одновременно": 4956,
      "проектных": 4957,
      "проектной": 4958,
      "полез": 4959,
      "##ируют": 4960,
      "часто": 4961,
      "экспер": 4962,
      "##ширен": 4963,
      "потери": 4964,
      "получение": 4965,
      "получателя": 4966,
      "FAU_ARP": 4967,
      "содержится": 4968,
      "каждом": 4969,
      "ALC_LCD": 4970,
      "законами": 4971,
      "предоставляемые": 4972,
      "выполняются": 4973,
      "обеспечивающие": 4974,
      "персональные": 4975,
      "област": 4976,
      "методолог": 4977,
      "акта": 4978,
      "соверш": 4979,
      "сертифицированные": 4980,
      "разделенными": 4981,
      "уполномоченному": 4982,
      "протестиров": 4983,
      "##ect": 4984,
      "отсутствие": 4985,
      "создании": 4986,
      "стандартам": 4987,
      "необходима": 4988,
      "ASE_SPD": 4989,
      "##SEL": 4990,
      "##ованности": 4991,
      "руководство": 4992,
      "запуска": 4993,
      "объедин": 4994,
      "потенциальной": 4995,
      "самостоя": 4996,
      "предпринимателей": 4997,
      "##МТО": 4998,
      "выявления": 4999,
      "автоматизированные": 5000,
      "существуют": 5001,
      "противодейств": 5002,
      "носители": 5003,
      "тестовой": 5004,
      "ВыборВ": 5005,
      "ВыборB": 5006,
      "APE_ECD": 5007,
      "##лированию": 5008,
      "детализирован": 5009,
      "отказе": 5010,
      "интег": 5011,
      "интерактив": 5012,
      "матем": 5013,
      "четко": 5014,
      "обрабатываемой": 5015,
      "верх": 5016,
      "##RPL": 5017,
      "подписью": 5018,
      "сопровождение": 5019,
      "потенциальных": 5020,
      "##АЦИОН": 5021,
      "Утверждение": 5022,
      "абст": 5023,
      "строгости": 5024,
      "суток": 5025,
      "вывода": 5026,
      "удовлетворения": 5027,
      "передаваемых": 5028,
      "отвечает": 5029,
      "Указом": 5030,
      "положений": 5031,
      "аналогичными": 5032,
      "охв": 5033,
      "ФЕДЕРАЦИИ": 5034,
      "FTP_TRP": 5035,
      "спецификацией": 5036,
      "Автору": 5037,
      "итерация": 5038,
      "таблицы": 5039,
      "приостановления": 5040,
      "##информации": 5041,
      "##оустойчив": 5042,
      "распорядительных": 5043,
      "Показатель": 5044,
      "Криптографические": 5045,
      "контрмеры": 5046,
      "комиссии": 5047,
      "FTA_TA": 5048,
      "специфицирует": 5049,
      "##биратель": 5050,
      "##есообраз": 5051,
      "совпадают": 5052,
      "лишь": 5053,
      "вспомогатель": 5054,
      "недекларированных": 5055,
      "Государствен": 5056,
      "##valuation": 5057,
      "01": 5058,
      "37": 5059,
      "47": 5060,
      "DBO": 5061,
      "IEE": 5062,
      "Анонимность": 5063,
      "Во": 5064,
      "Восстанов": 5065,
      "ДА": 5066,
      "Композиция": 5067,
      "Что": 5068,
      "вправ": 5069,
      "вза": 5070,
      "диск": 5071,
      "дубли": 5072,
      "зрения": 5073,
      "ит": 5074,
      "ления": 5075,
      "ность": 5076,
      "сим": 5077,
      "##рение": 5078,
      "##вол": 5079,
      "##арт": 5080,
      "##нии": 5081,
      "##ужд": 5082,
      "##Про": 5083,
      "##зов": 5084,
      "##Анализ": 5085,
      "##ца": 5086,
      "##цеп": 5087,
      "##ction": 5088,
      "##ve": 5089,
      "##ЕТС": 5090,
      "##РН": 5091,
      "##FAU_": 5092,
      "##ЧЕ": 5093,
      "##xx": 5094,
      "##41": 5095,
      "##енную": 5096,
      "##овая": 5097,
      "поли": 5098,
      "##стве": 5099,
      "##ствии": 5100,
      "обзор": 5101,
      "нача": 5102,
      "отправл": 5103,
      "отнес": 5104,
      "илиFDP_IFC": 5105,
      "выдач": 5106,
      "поддел": 5107,
      "##иями": 5108,
      "функцио": 5109,
      "освобожд": 5110,
      "следующим": 5111,
      "следующее": 5112,
      "соответственно": 5113,
      "##извод": 5114,
      "##новь": 5115,
      "мерами": 5116,
      "мерах": 5117,
      "специальные": 5118,
      "2016": 5119,
      "описать": 5120,
      "иден": 5121,
      "могли": 5122,
      "реализован": 5123,
      "являться": 5124,
      "раскры": 5125,
      "##ивают": 5126,
      "выполне": 5127,
      "контролиров": 5128,
      "осуществляющими": 5129,
      "##евой": 5130,
      "основаны": 5131,
      "интерпрет": 5132,
      "передача": 5133,
      "функциональное": 5134,
      "установление": 5135,
      "##проект": 5136,
      "включить": 5137,
      "##ерах": 5138,
      "Надеж": 5139,
      "представленных": 5140,
      "эксплуатиру": 5141,
      "актами": 5142,
      "##рировать": 5143,
      "усили": 5144,
      "некоторого": 5145,
      "уязвимость": 5146,
      "уполномоченные": 5147,
      "статьей": 5148,
      "проводим": 5149,
      "проводить": 5150,
      "стандарту": 5151,
      "##ывание": 5152,
      "##озможность": 5153,
      "##ПДн": 5154,
      "тестами": 5155,
      "запроса": 5156,
      "принят": 5157,
      "показателя": 5158,
      "исключения": 5159,
      "исключить": 5160,
      "сущностями": 5161,
      "потребоваться": 5162,
      "марта": 5163,
      "внешней": 5164,
      "согласуется": 5165,
      "федеральный": 5166,
      "несанкционированных": 5167,
      "Проект": 5168,
      "Процедуры": 5169,
      "Производ": 5170,
      "электронных": 5171,
      "носителя": 5172,
      "000": 5173,
      "поддерживает": 5174,
      "базы": 5175,
      "предоставлена": 5176,
      "перечня": 5177,
      "FCS_COP": 5178,
      "особенно": 5179,
      "антивирус": 5180,
      "иерархии": 5181,
      "индивидуальных": 5182,
      "применимы": 5183,
      "предотвращения": 5184,
      "предотвращение": 5185,
      "момент": 5186,
      "сумм": 5187,
      "прекращении": 5188,
      "первонач": 5189,
      "телекоммуникационных": 5190,
      "подготовки": 5191,
      "##знаком": 5192,
      "материалов": 5193,
      "очеред": 5194,
      "уверенность": 5195,
      "Расширен": 5196,
      "РОР_АСС": 5197,
      "##ляция": 5198,
      "А1_С_ТАТ": 5199,
      "исполнения": 5200,
      "каналам": 5201,
      "##енсив": 5202,
      "заключения": 5203,
      ".................................................................................................": 5204,
      "##овериться": 5205,
      "1990": 5206,
      "поясн": 5207,
      "Администрирование": 5208,
      "веществ": 5209,
      "досту": 5210,
      "рассмотрен": 5211,
      "ОПС": 5212,
      "##упреждения": 5213,
      "ориент": 5214,
      "сравнению": 5215,
      "Система": 5216,
      "нужно": 5217,
      "##FTA_": 5218,
      "основываясь": 5219,
      "610": 5220,
      "особенностей": 5221,
      "1085": 5222,
      "Std": 5223,
      "СВТ": 5224,
      "интенсив": 5225,
      "##инансов": 5226,
      "ИСПДн": 5227,
      "аварийной": 5228,
      "надзора": 5229,
      "##riteria": 5230,
      "IEEE": 5231,
      "Восстановление": 5232,
      "вправе": 5233,
      "##РНР": 5234,
      "1Е": 5235,
      "40": 5236,
      "for": 5237,
      "information": 5238,
      "АВ": 5239,
      "АТЕ": 5240,
      "Более": 5241,
      "БЕЗОПАСНОСТИ": 5242,
      "Долж": 5243,
      "Данное": 5244,
      "Пара": 5245,
      "Семейства": 5246,
      "Уничто": 5247,
      "вмеш": 5248,
      "вновь": 5249,
      "гаран": 5250,
      "есть": 5251,
      "желатель": 5252,
      "иной": 5253,
      "кос": 5254,
      "мас": 5255,
      "ным": 5256,
      "ознаком": 5257,
      "ско": 5258,
      "фи": 5259,
      "фон": 5260,
      "эконо": 5261,
      "ются": 5262,
      "##дание": 5263,
      "##вы": 5264,
      "##гатив": 5265,
      "##ТВ": 5266,
      "##Требования": 5267,
      "##функцион": 5268,
      "##бин": 5269,
      "##чер": 5270,
      "##пных": 5271,
      "##ng": 5272,
      "##yst": 5273,
      "##Рисунок": 5274,
      "##РОВ": 5275,
      "##Об": 5276,
      "##шения": 5277,
      "##шта": 5278,
      "##ab": 5279,
      "##ДЕН": 5280,
      "##ИИ": 5281,
      "##ЛО": 5282,
      "##ЛУ": 5283,
      "##ho": 5284,
      "##льных": 5285,
      "##емом": 5286,
      "##редит": 5287,
      "##иты": 5288,
      "замен": 5289,
      "призна": 5290,
      "отлича": 5291,
      "безопасно": 5292,
      "неу": 5293,
      "негатив": 5294,
      "##тиров": 5295,
      "##рацион": 5296,
      "которую": 5297,
      "##фиденциаль": 5298,
      "станов": 5299,
      "##обеспеч": 5300,
      "##ласть": 5301,
      "использо": 5302,
      "##очные": 5303,
      "представлением": 5304,
      "специфицированных": 5305,
      "осуществлением": 5306,
      "определено": 5307,
      "определена": 5308,
      "классы": 5309,
      "##ранить": 5310,
      "являющиеся": 5311,
      "##ывает": 5312,
      "документах": 5313,
      "разработчикам": 5314,
      "основные": 5315,
      "исходя": 5316,
      "инфраструкту": 5317,
      "функциональным": 5318,
      "меток": 5319,
      "составе": 5320,
      "состава": 5321,
      "критичес": 5322,
      "установки": 5323,
      "форма": 5324,
      "FPT_RPL": 5325,
      "идентифи": 5326,
      "Общие": 5327,
      "обеспечивающих": 5328,
      "передачу": 5329,
      "##которые": 5330,
      "методических": 5331,
      "организаций": 5332,
      "эксплуатацию": 5333,
      "препят": 5334,
      "##SAE": 5335,
      "отдельного": 5336,
      "сертифицированных": 5337,
      "некоторому": 5338,
      "##следствие": 5339,
      "утверждений": 5340,
      "утвержденного": 5341,
      "лицензию": 5342,
      "целостностью": 5343,
      "уполномоченных": 5344,
      "сетями": 5345,
      "автоматичес": 5346,
      "FIA_USB": 5347,
      "показаны": 5348,
      "технологии": 5349,
      "исключение": 5350,
      "потенциальные": 5351,
      "самот": 5352,
      "комбин": 5353,
      "Полное": 5354,
      "смыс": 5355,
      "смарт": 5356,
      "просмотр": 5357,
      "Прос": 5358,
      "FTA_LSA": 5359,
      "источником": 5360,
      "своей": 5361,
      "верификации": 5362,
      "Оценочный": 5363,
      "##ЕРТ": 5364,
      "FPT_ITA": 5365,
      "##естовая": 5366,
      "##STM": 5367,
      "изменениями": 5368,
      "сопровож": 5369,
      "интегра": 5370,
      "##севдонимность": 5371,
      "маршрута": 5372,
      "Необход": 5373,
      "успешно": 5374,
      "FPR_UNL": 5375,
      "лицензиату": 5376,
      "журнале": 5377,
      "уникальной": 5378,
      "уникально": 5379,
      "администраторов": 5380,
      "предотвращать": 5381,
      "краткая": 5382,
      "файла": 5383,
      "инструментальных": 5384,
      "принимает": 5385,
      "технологиях": 5386,
      "пользования": 5387,
      "корректности": 5388,
      "прослеживании": 5389,
      "ввода": 5390,
      "графи": 5391,
      "затрат": 5392,
      "##окументация": 5393,
      "прилагаемые": 5394,
      "приоритетом": 5395,
      "рассмотрены": 5396,
      "##FPR_": 5397,
      "принципы": 5398,
      "наименования": 5399,
      "подмножества": 5400,
      "международного": 5401,
      "ключами": 5402,
      "FIA_ATD": 5403,
      "память": 5404,
      "следовательно": 5405,
      "сегментов": 5406,
      "определенную": 5407,
      "диап": 5408,
      "соединений": 5409,
      "обязанностей": 5410,
      "защищаемой": 5411,
      "Настоящий": 5412,
      "подлежащих": 5413,
      "предметом": 5414,
      "истечении": 5415,
      "Свидетельство": 5416,
      "криптографической": 5417,
      "шифровальных": 5418,
      "удостовериться": 5419,
      "принадлеж": 5420,
      "промышленной": 5421,
      "альтернатив": 5422,
      "считается": 5423,
      "способствует": 5424,
      "##уровнев": 5425,
      "искажения": 5426,
      "недопустим": 5427,
      "вносятся": 5428,
      "Порядок": 5429,
      "самостоятельно": 5430,
      "Уничтожение": 5431,
      "##ystem": 5432,
      "диапаз": 5433,
      "3DРазработчик": 5434,
      "52": 5435,
      "6CВ": 5436,
      "АУД": 5437,
      "НПА": 5438,
      "Он": 5439,
      "Псевдонимность": 5440,
      "Скрыт": 5441,
      "Элемент": 5442,
      "би": 5443,
      "вис": 5444,
      "гор": 5445,
      "день": 5446,
      "еще": 5447,
      "луч": 5448,
      "мот": 5449,
      "мобиль": 5450,
      "пятого": 5451,
      "спе": 5452,
      "сни": 5453,
      "той": 5454,
      "управ": 5455,
      "фей": 5456,
      "финансов": 5457,
      "ществ": 5458,
      "ян": 5459,
      "##дет": 5460,
      "##верж": 5461,
      "##илег": 5462,
      "##лось": 5463,
      "##оцен": 5464,
      "##учение": 5465,
      "##мую": 5466,
      "##ква": 5467,
      "##чи": 5468,
      "##чат": 5469,
      "##ского": 5470,
      "##ская": 5471,
      "##пля": 5472,
      "##ятия": 5473,
      "##ASE": 5474,
      "##Документация": 5475,
      "##Функцион": 5476,
      "##XX": 5477,
      "##стандар": 5478,
      "##станавлива": 5479,
      "##рее": 5480,
      "##реж": 5481,
      "##рецион": 5482,
      "##етри": 5483,
      "##емпля": 5484,
      "##ото": 5485,
      "обе": 5486,
      "обо": 5487,
      "##ентах": 5488,
      "наказ": 5489,
      "##едение": 5490,
      "##нащ": 5491,
      "загруз": 5492,
      "замеч": 5493,
      "бездействия": 5494,
      "отключение": 5495,
      "безопасной": 5496,
      "##тил": 5497,
      "##кций": 5498,
      "##ироваться": 5499,
      "компонентам": 5500,
      "стре": 5501,
      "##лаг": 5502,
      "изуч": 5503,
      "возвращ": 5504,
      "##ическая": 5505,
      "##ойти": 5506,
      "##ленный": 5507,
      "##изация": 5508,
      "специфицирован": 5509,
      "семействами": 5510,
      "описанием": 5511,
      "разработку": 5512,
      "##мести": 5513,
      "устанавли": 5514,
      "##ательства": 5515,
      "явного": 5516,
      "распред": 5517,
      "программным": 5518,
      "назначении": 5519,
      "полн": 5520,
      "метки": 5521,
      "##таграмм": 5522,
      "##бору": 5523,
      "тестированием": 5524,
      "FAU_SEL": 5525,
      "анализе": 5526,
      "нарушителя": 5527,
      "каждое": 5528,
      "Область": 5529,
      "аттесту": 5530,
      "образования": 5531,
      "целесообраз": 5532,
      "имеются": 5533,
      "представлена": 5534,
      "ограничить": 5535,
      "поддержка": 5536,
      "способы": 5537,
      "установленной": 5538,
      "##лежива": 5539,
      "элементах": 5540,
      "утвержденные": 5541,
      "утвержденными": 5542,
      "применяемых": 5543,
      "аппаратном": 5544,
      "решению": 5545,
      "сеть": 5546,
      "модификацию": 5547,
      "задокумент": 5548,
      "политика": 5549,
      "##нести": 5550,
      "правилах": 5551,
      "внутреннего": 5552,
      "руководителя": 5553,
      "запросов": 5554,
      "ОУД1": 5555,
      "ОУД2": 5556,
      "ОУД4": 5557,
      "структуре": 5558,
      "запуске": 5559,
      "заявление": 5560,
      "пакету": 5561,
      "объема": 5562,
      "связанного": 5563,
      "1804": 5564,
      "указанная": 5565,
      "несанкционированный": 5566,
      "повторное": 5567,
      "Описании": 5568,
      "регистрацию": 5569,
      "своих": 5570,
      "верификацию": 5571,
      "предполож": 5572,
      "физической": 5573,
      "физическое": 5574,
      "##НИЧЕ": 5575,
      "приведены": 5576,
      "##ажиров": 5577,
      "##аждая": 5578,
      "##ЕРЖ": 5579,
      "APE_SPD": 5580,
      "приема": 5581,
      "точно": 5582,
      "точным": 5583,
      "вопросов": 5584,
      "применительно": 5585,
      "логических": 5586,
      "профиль": 5587,
      "профилей": 5588,
      "нормативными": 5589,
      "конфигурацию": 5590,
      "помещений": 5591,
      "указывает": 5592,
      "четкое": 5593,
      "Неотказуемость": 5594,
      "языка": 5595,
      "След": 5596,
      "успешного": 5597,
      "исследований": 5598,
      "предусмотрена": 5599,
      "высоко": 5600,
      "привилег": 5601,
      "присва": 5602,
      "подписанного": 5603,
      "демонстрации": 5604,
      "уведомлением": 5605,
      "лицензионным": 5606,
      "периода": 5607,
      "правовых": 5608,
      "правовыми": 5609,
      "распоря": 5610,
      "почтов": 5611,
      "метрика": 5612,
      "предусматривает": 5613,
      "собственной": 5614,
      "##ADV_FSP": 5615,
      "оказаться": 5616,
      "выводе": 5617,
      "участи": 5618,
      "импорта": 5619,
      "логическое": 5620,
      "двумя": 5621,
      "Краткий": 5622,
      "контей": 5623,
      "подробно": 5624,
      "привлечением": 5625,
      "Возможности": 5626,
      "Распределение": 5627,
      "ресурсам": 5628,
      "последствия": 5629,
      "сертификата": 5630,
      "расширенные": 5631,
      "отправителя": 5632,
      "Реализация": 5633,
      "подлинное": 5634,
      "##СКОМУ": 5635,
      "исследователя": 5636,
      "национальным": 5637,
      "##НЫЙ": 5638,
      "реакции": 5639,
      "ассоциированные": 5640,
      "##ТРО": 5641,
      "##крест": 5642,
      "прерываний": 5643,
      "ситуациях": 5644,
      "договора": 5645,
      "Дополнительно": 5646,
      "Аннотации": 5647,
      "пассажиров": 5648,
      "контексте": 5649,
      "утратив": 5650,
      "##Приложение": 5651,
      "внеплановой": 5652,
      "просмотра": 5653,
      "##ity": 5654,
      "напрямую": 5655,
      "ТЕХНИЧЕ": 5656,
      "экземпля": 5657,
      "эксперт": 5658,
      "антивирусной": 5659,
      "АВЗ": 5660,
      "##ТВЕРЖ": 5661,
      "Скрытность": 5662,
      "города": 5663,
      "18045": 5664,
      "ТЕХНИЧЕСКОМУ": 5665,
      "39": 5666,
      "44": 5667,
      "46": 5668,
      "5CВ": 5669,
      "71": 5670,
      "79": 5671,
      "IT": 5672,
      "access": 5673,
      "mo": 5674,
      "system": 5675,
      "Друг": 5676,
      "Когда": 5677,
      "Оно": 5678,
      "См": 5679,
      "Техничес": 5680,
      "Уров": 5681,
      "УТВЕРЖ": 5682,
      "ау": 5683,
      "вследствие": 5684,
      "готов": 5685,
      "гиб": 5686,
      "ется": 5687,
      "ными": 5688,
      "нужд": 5689,
      "ря": 5690,
      "ремон": 5691,
      "сай": 5692,
      "тра": 5693,
      "труд": 5694,
      "чес": 5695,
      "##алог": 5696,
      "##ПО": 5697,
      "##АНИ": 5698,
      "##фор": 5699,
      "##кущ": 5700,
      "##ката": 5701,
      "##кость": 5702,
      "##ыре": 5703,
      "##чь": 5704,
      "##персон": 5705,
      "##йти": 5706,
      "##С1": 5707,
      "##БД": 5708,
      "##ment": 5709,
      "##ag": 5710,
      "##ъяс": 5711,
      "##орг": 5712,
      "пож": 5713,
      "поля": 5714,
      "##омер": 5715,
      "обмен": 5716,
      "нар": 5717,
      "науч": 5718,
      "##рос": 5719,
      "##олков": 5720,
      "задача": 5721,
      "##ение1": 5722,
      "##езавис": 5723,
      "безопасных": 5724,
      "неа": 5725,
      "пропуск": 5726,
      "опыт": 5727,
      "вып": 5728,
      "##ировано": 5729,
      "лич": 5730,
      "##даются": 5731,
      "информационным": 5732,
      "функция": 5733,
      "##обнов": 5734,
      "текущ": 5735,
      "осу": 5736,
      "##работка": 5737,
      "возобнов": 5738,
      "##ивших": 5739,
      "защитой": 5740,
      "##ходов": 5741,
      "##очного": 5742,
      "##жде": 5743,
      "возможного": 5744,
      "доступны": 5745,
      "доступность": 5746,
      "лицензирование": 5747,
      "2019": 5748,
      "##убъект": 5749,
      "использован": 5750,
      "описанные": 5751,
      "##жегод": 5752,
      "##ительное": 5753,
      "осуществлению": 5754,
      "аудитор": 5755,
      "реализацией": 5756,
      "распределение": 5757,
      "##ивал": 5758,
      "##ывают": 5759,
      "выполнению": 5760,
      "148": 5761,
      "##бое": 5762,
      "программы": 5763,
      "осуществляемых": 5764,
      "основанные": 5765,
      "такое": 5766,
      "проектирование": 5767,
      "полное": 5768,
      "определяющие": 5769,
      "переданных": 5770,
      "установления": 5771,
      "проверя": 5772,
      "включение": 5773,
      "FPT_STM": 5774,
      "каждым": 5775,
      "каждому": 5776,
      "Объект": 5777,
      "результатах": 5778,
      "ALC_DEL": 5779,
      "выполняют": 5780,
      "установлено": 5781,
      "отдельными": 5782,
      "некоторую": 5783,
      "компет": 5784,
      "FMT_SAE": 5785,
      "##основание": 5786,
      "отношение": 5787,
      "общем": 5788,
      "общие": 5789,
      "общая": 5790,
      "модифик": 5791,
      "созданию": 5792,
      "лицензирующих": 5793,
      "произош": 5794,
      "режимы": 5795,
      "собственных": 5796,
      "ссылок": 5797,
      "всей": 5798,
      "криптографическим": 5799,
      "принято": 5800,
      "контрольных": 5801,
      "сущность": 5802,
      "ОперацииН": 5803,
      "потребности": 5804,
      "потребителей": 5805,
      "##пользов": 5806,
      "вызв": 5807,
      "вызова": 5808,
      "Прост": 5809,
      "регистрацион": 5810,
      "Соответствие": 5811,
      "термины": 5812,
      "терминов": 5813,
      "Конфиденциаль": 5814,
      "направления": 5815,
      "правильность": 5816,
      "физически": 5817,
      "##агаются": 5818,
      "предназначены": 5819,
      "ответственности": 5820,
      "отказов": 5821,
      "понятие": 5822,
      "предотврат": 5823,
      "поддерживающие": 5824,
      "видео": 5825,
      "Отказ": 5826,
      "Откат": 5827,
      "влияния": 5828,
      "##ортиров": 5829,
      "сбои": 5830,
      "##_СС1": 5831,
      "инициировать": 5832,
      "предоставленных": 5833,
      "реализованных": 5834,
      "Некоторые": 5835,
      "язык": 5836,
      "изготовителем": 5837,
      "изложении": 5838,
      "протокола": 5839,
      "лицензиатом": 5840,
      "307": 5841,
      "высокий": 5842,
      "должностными": 5843,
      "##нуть": 5844,
      "виртуализации": 5845,
      "сопровождения": 5846,
      "блокирования": 5847,
      "лицензионного": 5848,
      "централь": 5849,
      "завершение": 5850,
      "исправления": 5851,
      "допустимых": 5852,
      "аспекты": 5853,
      "аспектов": 5854,
      "Атрибут": 5855,
      "передаваемой": 5856,
      "FPT_TRC": 5857,
      "помещениях": 5858,
      "Части": 5859,
      "принципов": 5860,
      "##нюю": 5861,
      ")................................................................................................": 5862,
      "Банк": 5863,
      "##ance": 5864,
      "ОЦЕН": 5865,
      "объеме": 5866,
      "паролей": 5867,
      "входящие": 5868,
      "вместе": 5869,
      "рекомендуется": 5870,
      "проблема": 5871,
      "вызовы": 5872,
      "Аттестат": 5873,
      "учитывать": 5874,
      "разрабатывается": 5875,
      "Оператором": 5876,
      "##НЫХ": 5877,
      "генерировать": 5878,
      "##иболее": 5879,
      "постановлением": 5880,
      "Автоматическое": 5881,
      "неправомер": 5882,
      "ЕРТ_РНР": 5883,
      "прошедшие": 5884,
      "происходит": 5885,
      "АРЕ_СС1": 5886,
      "санкционированного": 5887,
      "характеризу": 5888,
      "дейтаграмм": 5889,
      "пригоден": 5890,
      "согласованию": 5891,
      "специалистов": 5892,
      "нахождения": 5893,
      "##оустойчивость": 5894,
      "символ": 5895,
      "##Процедуры": 5896,
      "интерпретации": 5897,
      "усилий": 5898,
      "очередь": 5899,
      "масшта": 5900,
      "##Обоснование": 5901,
      "смысле": 5902,
      "АРЕ_СС1_": 5903,
      "05": 5904,
      "09": 5905,
      "1D": 5906,
      "1E": 5907,
      "95": 5908,
      "Access": 5909,
      "IP": 5910,
      "ass": 5911,
      "АН": 5912,
      "Архитекту": 5913,
      "ВЕ": 5914,
      "Важ": 5915,
      "КОН": 5916,
      "Каждая": 5917,
      "Ме": 5918,
      "МЕ": 5919,
      "ПК": 5920,
      "Пре": 5921,
      "Пров": 5922,
      "СУ": 5923,
      "Сро": 5924,
      "Сам": 5925,
      "СЛУ": 5926,
      "УЗ": 5927,
      "аг": 5928,
      "вателя": 5929,
      "входа": 5930,
      "кации": 5931,
      "кто": 5932,
      "мик": 5933,
      "мации": 5934,
      "оруж": 5935,
      "рования": 5936,
      "сли": 5937,
      "спеч": 5938,
      "спроект": 5939,
      "ту": 5940,
      "тов": 5941,
      "теля": 5942,
      "ути": 5943,
      "энер": 5944,
      "##деля": 5945,
      "##вра": 5946,
      "##аудит": 5947,
      "##нему": 5948,
      "##ув": 5949,
      "##жений": 5950,
      "##гну": 5951,
      "##ВИ": 5952,
      "##беж": 5953,
      "##как": 5954,
      "##чень": 5955,
      "##поч": 5956,
      "##ul": 5957,
      "##эш": 5958,
      "##Для": 5959,
      "##Класс": 5960,
      "##Утвержд": 5961,
      "##24": 5962,
      "##ъем": 5963,
      "##ЛЮ": 5964,
      "##ЖБ": 5965,
      "##стал": 5966,
      "##рас": 5967,
      "##рай": 5968,
      "##льного": 5969,
      "##еть": 5970,
      "пользу": 5971,
      "##ристи": 5972,
      "наиболее": 5973,
      "##ействие": 5974,
      "##истрация": 5975,
      "##тием": 5976,
      "данная": 5977,
      "данную": 5978,
      "разные": 5979,
      "подключ": 5980,
      "##варя": 5981,
      "##озна": 5982,
      "рекв": 5983,
      "обеспечено": 5984,
      "защитить": 5985,
      "##ущены": 5986,
      "##луч": 5987,
      "действительно": 5988,
      "содержаться": 5989,
      "##инте": 5990,
      "##___": 5991,
      "1000": 5992,
      "133": 5993,
      "##теч": 5994,
      "атрибута": 5995,
      "связать": 5996,
      "выполнена": 5997,
      "##сыла": 5998,
      "документами": 5999,
      "экв": 6000,
      "одном": 6001,
      "использующих": 6002,
      "##ируются": 6003,
      "функциональную": 6004,
      "##имися": 6005,
      "##рхив": 6006,
      "##фейсы": 6007,
      "функционирования2": 6008,
      "адек": 6009,
      "несо": 6010,
      "несоглас": 6011,
      "требуя": 6012,
      "результатом": 6013,
      "базовой": 6014,
      "обеспечивающим": 6015,
      "имеющие": 6016,
      "событие": 6017,
      "облада": 6018,
      "передачей": 6019,
      "поддержан": 6020,
      "пресе": 6021,
      "##TDC": 6022,
      "утвержденным": 6023,
      "компенс": 6024,
      "каталог": 6025,
      "общее": 6026,
      "Операция": 6027,
      "конкретный": 6028,
      "повлия": 6029,
      "пунктов": 6030,
      "режимов": 6031,
      "необходимую": 6032,
      "роля": 6033,
      "взаимодействуют": 6034,
      "ссылку": 6035,
      "ссылочных": 6036,
      "Пользоват": 6037,
      "обработка": 6038,
      "автомат": 6039,
      "внутренних": 6040,
      "ОУДЗ": 6041,
      "ОУД5": 6042,
      "пакетам": 6043,
      "##рабат": 6044,
      "##дек": 6045,
      "недостатки": 6046,
      "##блиографи": 6047,
      "себе": 6048,
      "связанной": 6049,
      "обосновании": 6050,
      "##естирования": 6051,
      "производится": 6052,
      "##рхитектур": 6053,
      "Подсист": 6054,
      "федеральных": 6055,
      "разрешать": 6056,
      "указанным": 6057,
      "указанному": 6058,
      "повторной": 6059,
      "выявление": 6060,
      "##ОРТ": 6061,
      "автоматизированными": 6062,
      "##ускается": 6063,
      "строг": 6064,
      "подсистема": 6065,
      "обязательной": 6066,
      "профиле": 6067,
      "имена": 6068,
      "уточнения": 6069,
      "##enti": 6070,
      "состояний": 6071,
      "инициализации": 6072,
      "четыре": 6073,
      "интерфейсам": 6074,
      "интерфейсами": 6075,
      "конфиденциальной": 6076,
      "машинные": 6077,
      "ситуации": 6078,
      "телеф": 6079,
      "секреты": 6080,
      "терминала": 6081,
      "высокого": 6082,
      "FMT_SMF": 6083,
      "подвергаемые": 6084,
      "Регистрация": 6085,
      "руководстве": 6086,
      "ведет": 6087,
      "вторжения": 6088,
      "вторжений": 6089,
      "метрику": 6090,
      "заказным": 6091,
      "грамм": 6092,
      "##фрование": 6093,
      "телекоммуникационными": 6094,
      "##ужений": 6095,
      "рассмотрение": 6096,
      "введена": 6097,
      "очень": 6098,
      "дополнить": 6099,
      "выбираемых": 6100,
      "отображения": 6101,
      "превышать": 6102,
      "ключам": 6103,
      "экрана": 6104,
      "схема": 6105,
      "РОР_ЕТС": 6106,
      "аналогичные": 6107,
      "воздействий": 6108,
      "присвоения": 6109,
      "содержатся": 6110,
      "характера": 6111,
      "операциями": 6112,
      "итерации": 6113,
      "##андат": 6114,
      "действующих": 6115,
      "последовательности": 6116,
      "Модель": 6117,
      "учт": 6118,
      "соединения": 6119,
      "регулиру": 6120,
      "возникновении": 6121,
      "Криптографическая": 6122,
      "сотрудников": 6123,
      "Поскольку": 6124,
      "прерывания": 6125,
      "##--------": 6126,
      "конструкции": 6127,
      "недоступность": 6128,
      "##FMT_SM": 6129,
      "##ЕНИЯ": 6130,
      "ЕМТ_МТО": 6131,
      "вручении": 6132,
      "неправиль": 6133,
      "confi": 6134,
      "медицинской": 6135,
      "узла": 6136,
      "##сторон": 6137,
      "находится": 6138,
      "испытательных": 6139,
      "Исключение": 6140,
      "##овещение": 6141,
      "оборудования": 6142,
      "сооружений": 6143,
      "никаких": 6144,
      "зависят": 6145,
      "акк": 6146,
      "аттестуемом": 6147,
      "Правительством": 6148,
      "шаблон": 6149,
      "автоном": 6150,
      "приобрет": 6151,
      "разблокиров": 6152,
      "областях": 6153,
      "дубликата": 6154,
      "отправлением": 6155,
      "контролировать": 6156,
      "интенсивность": 6157,
      "косв": 6158,
      "инфраструктуре": 6159,
      "препятств": 6160,
      "комбинации": 6161,
      "января": 6162,
      "устанавливать": 6163,
      "почтовым": 6164,
      "Уровень": 6165,
      "##персональных": 6166,
      "научно": 6167,
      "##ивалент": 6168,
      "предотвратить": 6169,
      "АНЗ": 6170,
      "Архитектура": 6171,
      "Прекращ": 6172,
      "СУБД": 6173,
      "СЛУЖБ": 6174,
      "утилиз": 6175,
      "реквиз": 6176,
      "100000": 6177,
      "адекват": 6178,
      "компенсиру": 6179,
      "повлиять": 6180,
      "##блиография": 6181,
      ".[": 6182,
      "53": 6183,
      "6C": 6184,
      "81": 6185,
      "MBO": 6186,
      "ЕС": 6187,
      "ЕСО": 6188,
      "Мос": 6189,
      "Меж": 6190,
      "Нев": 6191,
      "Независ": 6192,
      "Оп": 6193,
      "Обы": 6194,
      "СР": 6195,
      "СОВ": 6196,
      "Список": 6197,
      "Уси": 6198,
      "Целей": 6199,
      "ЭК": 6200,
      "аноним": 6201,
      "гол": 6202,
      "гид": 6203,
      "лит": 6204,
      "лож": 6205,
      "мон": 6206,
      "пра": 6207,
      "пис": 6208,
      "рые": 6209,
      "чего": 6210,
      "чув": 6211,
      "эв": 6212,
      "ют": 6213,
      "##дин": 6214,
      "##лся": 6215,
      "##уме": 6216,
      "##ПТ": 6217,
      "##гла": 6218,
      "##АМ": 6219,
      "##буд": 6220,
      "##прод": 6221,
      "##ября": 6222,
      "##il": 6223,
      "##ЕЧ": 6224,
      "##ОС": 6225,
      "##ACO_": 6226,
      "##шими": 6227,
      "##FCS_": 6228,
      "##ub": 6229,
      "##ИН": 6230,
      "##21": 6231,
      "##OE": 6232,
      "##ject": 6233,
      "##стриру": 6234,
      "##овой": 6235,
      "##ового": 6236,
      "##анность": 6237,
      "постро": 6238,
      "##еме": 6239,
      "##ометри": 6240,
      "##ерн": 6241,
      "иннов": 6242,
      "инстал": 6243,
      "##ениях": 6244,
      "обойти": 6245,
      "##ентства": 6246,
      "##ктор": 6247,
      "задерж": 6248,
      "##использов": 6249,
      "##рующих": 6250,
      "предопредел": 6251,
      "предпоч": 6252,
      "отмена": 6253,
      "неиз": 6254,
      "проку": 6255,
      "разно": 6256,
      "##вая": 6257,
      "##вает": 6258,
      "##вали": 6259,
      "##означение": 6260,
      "##огранич": 6261,
      "ступ": 6262,
      "тести": 6263,
      "##менение": 6264,
      "##полн": 6265,
      "осущ": 6266,
      "конта": 6267,
      "обеспечиваться": 6268,
      "возлож": 6269,
      "возвра": 6270,
      "##удовлетв": 6271,
      "##ойдет": 6272,
      "пользователяВ": 6273,
      "##рытие": 6274,
      "управле": 6275,
      "специализ": 6276,
      "специальных": 6277,
      "такими": 6278,
      "возможное": 6279,
      "возможностям": 6280,
      "доступных": 6281,
      "оцененных": 6282,
      "использовано": 6283,
      "предоставлению": 6284,
      "определенными": 6285,
      "определенная": 6286,
      "реализует": 6287,
      "##ированного": 6288,
      "Приня": 6289,
      "связностью": 6290,
      "##ивается": 6291,
      "##ываемых": 6292,
      "средство": 6293,
      "149": 6294,
      "##боре": 6295,
      "программном": 6296,
      "##терфейсы": 6297,
      "осуществляющий": 6298,
      "осуществляемой": 6299,
      "указано": 6300,
      "действиям": 6301,
      "действиях": 6302,
      "использует": 6303,
      "используемой": 6304,
      "##грозы": 6305,
      "частности": 6306,
      "идентификацию": 6307,
      "формации": 6308,
      "технического": 6309,
      "получатель": 6310,
      "получены": 6311,
      "##программ": 6312,
      "списки": 6313,
      "списком": 6314,
      "FPT_TDC": 6315,
      "требуемых": 6316,
      "средствах": 6317,
      "государственные": 6318,
      "процессо": 6319,
      "защищать": 6320,
      "защищенной": 6321,
      "способна": 6322,
      "методами": 6323,
      "эксплуатацией": 6324,
      "совмести": 6325,
      "некоторым": 6326,
      "работки": 6327,
      "работчик": 6328,
      "##ющегося": 6329,
      "уполномоченное": 6330,
      "общих": 6331,
      "общую": 6332,
      "Базовое": 6333,
      "политике": 6334,
      "предприня": 6335,
      "механизмом": 6336,
      "необходимой": 6337,
      "проводит": 6338,
      "проводиться": 6339,
      "необходимым": 6340,
      "##ованного": 6341,
      "2005": 6342,
      "2002": 6343,
      "Требованиями": 6344,
      "грузов": 6345,
      "доверенному": 6346,
      "эту": 6347,
      "структуриров": 6348,
      "дополнительно": 6349,
      "идентифицирован": 6350,
      "содержащий": 6351,
      "пакета": 6352,
      "потребителю": 6353,
      "потребителям": 6354,
      "##ходят": 6355,
      "##ходящ": 6356,
      "связанная": 6357,
      "Полный": 6358,
      "согласованность": 6359,
      "согласованности": 6360,
      "разрешение": 6361,
      "разрешено": 6362,
      "указанный": 6363,
      "Ограниченная": 6364,
      "восп": 6365,
      "повторно": 6366,
      "повторную": 6367,
      "нию": 6368,
      "верифициров": 6369,
      "невы": 6370,
      "описываются": 6371,
      "правильное": 6372,
      "адресов": 6373,
      "##ромет": 6374,
      "FPT_ITC": 6375,
      "приемлем": 6376,
      "предназначенных": 6377,
      "подвергнуты": 6378,
      "изменениях": 6379,
      "удаленного": 6380,
      "управляемым": 6381,
      "отказа": 6382,
      "поддерживающих": 6383,
      "базе": 6384,
      "базами": 6385,
      "помог": 6386,
      "сбое": 6387,
      "факта": 6388,
      "полномочия": 6389,
      "обрабатываемых": 6390,
      "новые": 6391,
      "зависимым": 6392,
      "успешное": 6393,
      "рабочей": 6394,
      "запросить": 6395,
      "видам": 6396,
      "несколькими": 6397,
      "протоколы": 6398,
      "делает": 6399,
      "моделью": 6400,
      "журнал": 6401,
      "копирование": 6402,
      "##ались": 6403,
      "оператив": 6404,
      "сетевого": 6405,
      "соискателем": 6406,
      "краткой": 6407,
      "уведомления": 6408,
      "размещены": 6409,
      "Избиратель": 6410,
      "псевдонимность": 6411,
      "принимаются": 6412,
      "относиться": 6413,
      "##ротокол": 6414,
      "##ротехничес": 6415,
      "почему": 6416,
      "располагаются": 6417,
      "распределения": 6418,
      "##окументированных": 6419,
      "удовлетворены": 6420,
      "максимально": 6421,
      "максимального": 6422,
      "Целью": 6423,
      "рассмотрения": 6424,
      "логически": 6425,
      "номера": 6426,
      "функционируют": 6427,
      "Президент": 6428,
      "отвечают": 6429,
      "Указанные": 6430,
      "известных": 6431,
      "межсетевого": 6432,
      "помощи": 6433,
      "полуформальная": 6434,
      "Термин": 6435,
      "##НОМУ": 6436,
      "букв": 6437,
      "##ТЕЛЬ": 6438,
      "##ускать": 6439,
      "границы": 6440,
      "параллельные": 6441,
      "назв": 6442,
      "Связь": 6443,
      "переменной": 6444,
      "заказчиком": 6445,
      "обратной": 6446,
      "минимум": 6447,
      "структурно": 6448,
      "нейтрализацию": 6449,
      "##отказуемости": 6450,
      "После": 6451,
      "FTA_TSE": 6452,
      "приватности": 6453,
      "Перечень": 6454,
      "##ЕНИЕ": 6455,
      "##ATE_FUN": 6456,
      "ветствии": 6457,
      "отслежив": 6458,
      "отличие": 6459,
      "вариантов": 6460,
      "фикации": 6461,
      "зователя": 6462,
      "руш": 6463,
      "синхронизации": 6464,
      "высоким": 6465,
      "субъек": 6466,
      "##СПОРТ": 6467,
      "муниципальных": 6468,
      "команды": 6469,
      "редакции": 6470,
      "надлежащим": 6471,
      "многих": 6472,
      "##AGD_PRE": 6473,
      "полноты": 6474,
      "##ALC_CMC": 6475,
      "##FIA_U": 6476,
      "длины": 6477,
      "исполня": 6478,
      "компонен": 6479,
      "охватыва": 6480,
      "взаимо": 6481,
      "дискрецион": 6482,
      "Надежное": 6483,
      "вмешательства": 6484,
      "скорее": 6485,
      "фигу": 6486,
      "экономичес": 6487,
      "##функционирования": 6488,
      "##черп": 6489,
      "Просмотр": 6490,
      "мотив": 6491,
      "##крестные": 6492,
      "УТВЕРЖДЕН": 6493,
      "##организ": 6494,
      "Конфиденциальность": 6495,
      "КОНТРО": 6496,
      "Невозможность": 6497,
      "ЭКСПОРТ": 6498,
      "чувств": 6499,
      "эвристи": 6500,
      "осущест": 6501,
      "контакт": 6502,
      "ЭКСПОРТНОМУ": 6503,
      ".........": 6504,
      "3EОценщик": 6505,
      "55": 6506,
      "7CВ": 6507,
      "AGD": 6508,
      "criteria": 6509,
      "do": 6510,
      "int": 6511,
      "man": 6512,
      "pol": 6513,
      "re": 6514,
      "to": 6515,
      "Акт": 6516,
      "Да": 6517,
      "Данная": 6518,
      "Значение": 6519,
      "Ко": 6520,
      "Комп": 6521,
      "Пов": 6522,
      "Существ": 6523,
      "аном": 6524,
      "архив": 6525,
      "вания": 6526,
      "весь": 6527,
      "ге": 6528,
      "ежегод": 6529,
      "зон": 6530,
      "ином": 6531,
      "край": 6532,
      "лег": 6533,
      "мых": 6534,
      "мандат": 6535,
      "ня": 6536,
      "ог": 6537,
      "пс": 6538,
      "пер": 6539,
      "ск": 6540,
      "суд": 6541,
      "ты": 6542,
      "тыс": 6543,
      "уже": 6544,
      "утеч": 6545,
      "фра": 6546,
      "шка": 6547,
      "ющ": 6548,
      "##ека": 6549,
      "##есть": 6550,
      "##дов": 6551,
      "##доступ": 6552,
      "##ир": 6553,
      "##иблиография": 6554,
      "##такс": 6555,
      "##ья": 6556,
      "##ьми": 6557,
      "##мери": 6558,
      "##жет": 6559,
      "##ТО": 6560,
      "##АН": 6561,
      "##INT": 6562,
      "##че": 6563,
      "##чный": 6564,
      "##чены": 6565,
      "##ским": 6566,
      "##цес": 6567,
      "##пото": 6568,
      "##йных": 6569,
      "##ion": 6570,
      "##ший": 6571,
      "##шению": 6572,
      "##На": 6573,
      "##НС": 6574,
      "##Из": 6575,
      "##ИТ": 6576,
      "##КО": 6577,
      "##14": 6578,
      "##pl": 6579,
      "##92": 6580,
      "##fic": 6581,
      "##gur": 6582,
      "##\";": 6583,
      "##овано": 6584,
      "##анными": 6585,
      "##анализ": 6586,
      "##ресов": 6587,
      "##орож": 6588,
      "##атора": 6589,
      "##отро": 6590,
      "##отвращ": 6591,
      "##име": 6592,
      "##ролог": 6593,
      "##наб": 6594,
      "заши": 6595,
      "заинте": 6596,
      "##езд": 6597,
      "##авшего": 6598,
      "предлага": 6599,
      "предложения": 6600,
      "отходов": 6601,
      "нее": 6602,
      "неод": 6603,
      "непред": 6604,
      "##альны": 6605,
      "проч": 6606,
      "проанализ": 6607,
      "##истер": 6608,
      "выступ": 6609,
      "которому": 6610,
      "разъяс": 6611,
      "разрабат": 6612,
      "функцией": 6613,
      "функциям": 6614,
      "##лаго": 6615,
      "##ихотро": 6616,
      "оснащ": 6617,
      "следующем": 6618,
      "среди": 6619,
      "##ическое": 6620,
      "##очно": 6621,
      "функционировать": 6622,
      "##няются": 6623,
      "специально": 6624,
      "лицензия": 6625,
      "оценен": 6626,
      "оценкой": 6627,
      "системные": 6628,
      "семейством": 6629,
      "устойчив": 6630,
      "требованиях": 6631,
      "##ательно": 6632,
      "##ранее": 6633,
      "1119": 6634,
      "модерн": 6635,
      "определенное": 6636,
      "##услов": 6637,
      "выполнены": 6638,
      "средстве": 6639,
      "случаи": 6640,
      "##разработ": 6641,
      "##разить": 6642,
      "уровнем": 6643,
      "автором": 6644,
      "основной": 6645,
      "основанных": 6646,
      "основываться": 6647,
      "##личие": 6648,
      "##имостью": 6649,
      "используя": 6650,
      "используемый": 6651,
      "исчерп": 6652,
      "проектная": 6653,
      "полей": 6654,
      "перес": 6655,
      "##урс": 6656,
      "частях": 6657,
      "123": 6658,
      "метролог": 6659,
      "критических": 6660,
      "экспорте": 6661,
      "формируют": 6662,
      "получении": 6663,
      "полученные": 6664,
      "аутентификационных": 6665,
      "аутентификационные": 6666,
      "потока": 6667,
      "нарушитель": 6668,
      "нарушителем": 6669,
      "требуются": 6670,
      "требуемые": 6671,
      "Обозначение": 6672,
      "виду": 6673,
      "предоставляя": 6674,
      "государственными": 6675,
      "настоящему": 6676,
      "имеющихся": 6677,
      "Наличие": 6678,
      "модулем": 6679,
      "актива": 6680,
      "прек": 6681,
      "установленные": 6682,
      "взаимосвязь": 6683,
      "отдельным": 6684,
      "отдельный": 6685,
      "сертифицирован": 6686,
      "соответствуют": 6687,
      "различным": 6688,
      "общего": 6689,
      "процедуру": 6690,
      "заданий": 6691,
      "категорированию": 6692,
      "правилам": 6693,
      "произойдет": 6694,
      "внести": 6695,
      "позволит": 6696,
      "##аллов": 6697,
      "НазначениеВ": 6698,
      "криптографическими": 6699,
      "структурой": 6700,
      "дополнительное": 6701,
      "контрольно": 6702,
      "органам": 6703,
      "Выявление": 6704,
      "Интерфейсы": 6705,
      "потенциальным": 6706,
      "Предотвращ": 6707,
      "Министер": 6708,
      "самого": 6709,
      "коммуник": 6710,
      "возникающих": 6711,
      "связанными": 6712,
      "Полностью": 6713,
      "##случа": 6714,
      "разрешается": 6715,
      "терминолог": 6716,
      "достигну": 6717,
      "направленные": 6718,
      "служит": 6719,
      "обслужива": 6720,
      "активы": 6721,
      "физическим": 6722,
      "приведен": 6723,
      "внесению": 6724,
      "предназначенные": 6725,
      "вопросы": 6726,
      "подверг": 6727,
      "удален": 6728,
      "логического": 6729,
      "##шинстве": 6730,
      "инструкции": 6731,
      "большинстве": 6732,
      "Отмена": 6733,
      "Открытие": 6734,
      "влияющие": 6735,
      "помимо": 6736,
      "маршрутиз": 6737,
      "свидетельствах": 6738,
      "изготовителю": 6739,
      "Таблице": 6740,
      "уникальное": 6741,
      "высокая": 6742,
      "##ЕНЬ": 6743,
      "##нутрен": 6744,
      "подразуме": 6745,
      "сопровождению": 6746,
      "файл": 6747,
      "Изложение": 6748,
      "распозна": 6749,
      "административных": 6750,
      "второй": 6751,
      "центрах": 6752,
      "пользованием": 6753,
      "извещ": 6754,
      "текста": 6755,
      "текстом": 6756,
      "суда": 6757,
      "реализуются": 6758,
      "реализующих": 6759,
      "реализующие": 6760,
      "каналы": 6761,
      "##ALC_LCD": 6762,
      "импорте": 6763,
      "FPT_TEE": 6764,
      "обороны": 6765,
      "Возможность": 6766,
      "разграничение": 6767,
      "международных": 6768,
      "превышении": 6769,
      "Регламента": 6770,
      "увеличение": 6771,
      "увеличения": 6772,
      "увеличива": 6773,
      "##надзор": 6774,
      "известными": 6775,
      "##ляции": 6776,
      "воздействие": 6777,
      "##art": 6778,
      "вызову": 6779,
      "##ine": 6780,
      "подлинности": 6781,
      "Аттестация": 6782,
      "Аттестата": 6783,
      "синтакс": 6784,
      "называется": 6785,
      "прямой": 6786,
      "отмены": 6787,
      "сочетание": 6788,
      "здоров": 6789,
      "регулированию": 6790,
      "переменные": 6791,
      "возникновению": 6792,
      "перемещения": 6793,
      "перемещение": 6794,
      "идентифицирует": 6795,
      "Администра": 6796,
      "неформальным": 6797,
      "плановой": 6798,
      "плановых": 6799,
      "внос": 6800,
      "рассмотреть": 6801,
      "единый": 6802,
      "##utho": 6803,
      "задачи": 6804,
      "получает": 6805,
      "идентичен": 6806,
      "владельца": 6807,
      "лаборатории": 6808,
      "##FMT_M": 6809,
      "множество": 6810,
      "##СТВО": 6811,
      "маркировкой": 6812,
      "Аннотация": 6813,
      "вруча": 6814,
      "##ator": 6815,
      "знать": 6816,
      "пассив": 6817,
      "постоянно": 6818,
      "добавление": 6819,
      "сигналов": 6820,
      "банк": 6821,
      "взрыв": 6822,
      "зарегистрирован": 6823,
      "Организация": 6824,
      "сценариев": 6825,
      "Заклю": 6826,
      "дублиру": 6827,
      "классификации": 6828,
      "взаимосвязи": 6829,
      "комплекс": 6830,
      "этапах": 6831,
      "ФЕДЕРАЛЬНО": 6832,
      "##диг": 6833,
      "математ": 6834,
      "верхнего": 6835,
      "абстра": 6836,
      "FTA_TAH": 6837,
      "подделок": 6838,
      "Производные": 6839,
      "пояснительным": 6840,
      "1ЕОценщик": 6841,
      "отличается": 6842,
      "диапазон": 6843,
      "##оценки": 6844,
      "Следовательно": 6845,
      "##agement": 6846,
      "наркот": 6847,
      "регистрационный": 6848,
      "Важно": 6849,
      "Срок": 6850,
      "эквивалент": 6851,
      "пресечение": 6852,
      "configur": 6853,
      "аккредит": 6854,
      "разблокирования": 6855,
      "Прекращение1": 6856,
      "Независимое": 6857,
      "##продукт": 6858,
      "предпочт": 6859,
      "процессора": 6860,
      "совместим": 6861,
      "##ротехнических": 6862,
      "КОНТРОЛЮ": 6863,
      "management": 6864,
      "polic": 6865,
      "психотро": 6866,
      "заинтересов": 6867,
      "метрологии": 6868,
      "configuration": 6869,
      "...": 6870,
      "08": 6871,
      "1ASE_": 6872,
      "3B": 6873,
      "41": 6874,
      "42": 6875,
      "59": 6876,
      "62": 6877,
      "67": 6878,
      "7C": 6879,
      "8C": 6880,
      "DEO": 6881,
      "Evaluation": 6882,
      "He": 6883,
      "M3": 6884,
      "Part": 6885,
      "TOE": 6886,
      "_____": 6887,
      "_________________________________": 6888,
      "fst": 6889,
      "tr": 6890,
      "»:": 6891,
      "Довери": 6892,
      "ДНС": 6893,
      "ЕОР_": 6894,
      "ЕТР": 6895,
      "Зад": 6896,
      "К1": 6897,
      "Кат": 6898,
      "Пл": 6899,
      "Перв": 6900,
      "Протокол": 6901,
      "Стро": 6902,
      "Слож": 6903,
      "Серти": 6904,
      "Субъект": 6905,
      "Тогда": 6906,
      "ФСБ": 6907,
      "Цент": 6908,
      "ЭВ": 6909,
      "апе": 6910,
      "апре": 6911,
      "вля": 6912,
      "вание": 6913,
      "дать": 6914,
      "деля": 6915,
      "дукт": 6916,
      "зло": 6917,
      "ито": 6918,
      "кроме": 6919,
      "ок": 6920,
      "пла": 6921,
      "улуч": 6922,
      "фами": 6923,
      "фили": 6924,
      "хэш": 6925,
      "чит": 6926,
      "чение": 6927,
      "чрез": 6928,
      "шриф": 6929,
      "##дици": 6930,
      "##джет": 6931,
      "##вания": 6932,
      "##ающий": 6933,
      "##нит": 6934,
      "##онос": 6935,
      "##оспособ": 6936,
      "##уда": 6937,
      "##ужения": 6938,
      "##ЗБ": 6939,
      "##менти": 6940,
      "##ги": 6941,
      "##АЯ": 6942,
      "##_М": 6943,
      "##функци": 6944,
      "##спе": 6945,
      "##ском": 6946,
      "##цел": 6947,
      "##пит": 6948,
      "##пад": 6949,
      "##vel": 6950,
      "##юджет": 6951,
      "##шеств": 6952,
      "##шает": 6953,
      "##Цели": 6954,
      "##ac": 6955,
      "##au": 6956,
      "##as": 6957,
      "##15": 6958,
      "##5ГОСТР": 6959,
      "##pt": 6960,
      "##43": 6961,
      "##7ГОСТР": 6962,
      "##ЖК": 6963,
      "##стом": 6964,
      "##енств": 6965,
      "##нопо": 6966,
      "##рей": 6967,
      "##льные": 6968,
      "##етом": 6969,
      "поис": 6970,
      "поиск": 6971,
      "##атрибут": 6972,
      "##ателе": 6973,
      "##омина": 6974,
      "##ровод": 6975,
      "##имые": 6976,
      "облег": 6977,
      "обуслов": 6978,
      "##еди": 6979,
      "##еданные": 6980,
      "##есист": 6981,
      "##олб": 6982,
      "заго": 6983,
      "заранее": 6984,
      "##остей": 6985,
      "##остоит": 6986,
      "предшеств": 6987,
      "##ожением": 6988,
      "отключ": 6989,
      "отчеств": 6990,
      "отрас": 6991,
      "безопасному": 6992,
      "неяв": 6993,
      "небезопас": 6994,
      "соци": 6995,
      "согла": 6996,
      "##осс": 6997,
      "выезд": 6998,
      "##ностях": 6999,
      "##рацией": 7000,
      "##ированием": 7001,
      "размер": 7002,
      "подоз": 7003,
      "подхода": 7004,
      "лиз": 7005,
      "информационный": 7006,
      "стран": 7007,
      "реорганиз": 7008,
      "избы": 7009,
      "конеч": 7010,
      "концеп": 7011,
      "среду": 7012,
      "функционировании": 7013,
      "специфициров": 7014,
      "##фициро": 7015,
      "##лев": 7016,
      "МЭЖК": 7017,
      "оценочных": 7018,
      "системных": 7019,
      "системного": 7020,
      "значимое": 7021,
      "печ": 7022,
      "##ительный": 7023,
      "##ительными": 7024,
      "предоставлением": 7025,
      "правоп": 7026,
      "реализуют": 7027,
      "всесторон": 7028,
      "доку": 7029,
      "##боль": 7030,
      "необязатель": 7031,
      "разработчики": 7032,
      "основу": 7033,
      "другу": 7034,
      "используемыми": 7035,
      "полном": 7036,
      "##ируется": 7037,
      "определяться": 7038,
      "перевод": 7039,
      "частным": 7040,
      "метка": 7041,
      "идентификацией": 7042,
      "допускать": 7043,
      "угрозах": 7044,
      "формирования": 7045,
      "формальное": 7046,
      "формальный": 7047,
      "формационными": 7048,
      "получать": 7049,
      "несерти": 7050,
      "##ITT": 7051,
      "анализом": 7052,
      "поток": 7053,
      "нарушению": 7054,
      "Общ": 7055,
      "Обрат": 7056,
      "##аче": 7057,
      "аттестацию": 7058,
      "аттестованной": 7059,
      "базовую": 7060,
      "способен": 7061,
      "методик": 7062,
      "методические": 7063,
      "недокументированных": 7064,
      "прежде": 7065,
      "совпад": 7066,
      "##ратуры": 7067,
      "соответствующем": 7068,
      "##вест": 7069,
      "частично": 7070,
      "работоспособ": 7071,
      "компи": 7072,
      "аппаратным": 7073,
      "общий": 7074,
      "политику": 7075,
      "персональныхданных": 7076,
      "механизму": 7077,
      "механизмам": 7078,
      "произвед": 7079,
      "дается": 7080,
      "продукты": 7081,
      "продуктами": 7082,
      "необходимый": 7083,
      "позволить": 7084,
      "обнаруживать": 7085,
      "пределами": 7086,
      "испытание": 7087,
      "2003": 7088,
      "внутренне": 7089,
      "внутренние": 7090,
      "внутреннюю": 7091,
      "удовлетворять": 7092,
      "идентификаторов": 7093,
      "доверенных": 7094,
      "истор": 7095,
      "показана": 7096,
      "показано": 7097,
      "показатели": 7098,
      "физический": 7099,
      "дополнительной": 7100,
      "##ителями": 7101,
      "содержащих": 7102,
      "каналу": 7103,
      "учета": 7104,
      "учетных": 7105,
      "учетные": 7106,
      "местах": 7107,
      "возникающие": 7108,
      "Положением": 7109,
      "обоснования": 7110,
      "производствен": 7111,
      "согласования": 7112,
      "несанкционированной": 7113,
      "Профи": 7114,
      "ассоциировать": 7115,
      "ассоциированных": 7116,
      "достижении": 7117,
      "одноти": 7118,
      "направлена": 7119,
      "направленными": 7120,
      "подсистемами": 7121,
      "приведено": 7122,
      "##естно": 7123,
      "приемку": 7124,
      "распространение": 7125,
      "управляемых": 7126,
      "понятий": 7127,
      "сделано": 7128,
      "Стандар": 7129,
      "цифров": 7130,
      "поддерживают": 7131,
      "событиях": 7132,
      "базах": 7133,
      "влияющих": 7134,
      "##ведомствен": 7135,
      "представляется": 7136,
      "устанавливается": 7137,
      "устанавливаются": 7138,
      "четвер": 7139,
      "ствии": 7140,
      "ствие": 7141,
      "исследования": 7142,
      "изложить": 7143,
      "ограничениями": 7144,
      "предусмотренном": 7145,
      "низким": 7146,
      "распространяются": 7147,
      "1CС": 7148,
      "этапе": 7149,
      "вычислительных": 7150,
      "демонстрация": 7151,
      "краткое": 7152,
      "стирание": 7153,
      "##атическая": 7154,
      "подпункта": 7155,
      "исходного": 7156,
      "файлы": 7157,
      "подвергающихся": 7158,
      "псевдонимов": 7159,
      "метрики": 7160,
      "метрике": 7161,
      "##ЕДСТВ": 7162,
      "собственную": 7163,
      "##плат": 7164,
      "хранили": 7165,
      "исправлений": 7166,
      "распределенной": 7167,
      "##ASE_CCL": 7168,
      "##личество": 7169,
      "детально": 7170,
      "июня": 7171,
      "максимальные": 7172,
      "импорт": 7173,
      "импортиру": 7174,
      "транспорт": 7175,
      "##фицированной": 7176,
      "привлек": 7177,
      "привлека": 7178,
      "coh": 7179,
      "Допускается": 7180,
      "подразделе": 7181,
      ")............................................................................................": 7182,
      "Каждое": 7183,
      "Каждому": 7184,
      "Состава": 7185,
      "дальнейшего": 7186,
      "охва": 7187,
      "полуформального": 7188,
      "инциденты": 7189,
      "##...........................": 7190,
      "входными": 7191,
      "входящ": 7192,
      "глав": 7193,
      "мониторинг": 7194,
      "находящихся": 7195,
      "сферах": 7196,
      "третьих": 7197,
      "третьего": 7198,
      "предыдущих": 7199,
      "прямо": 7200,
      "##групп": 7201,
      "сочетании": 7202,
      ".).": 7203,
      "Модуль": 7204,
      "Покрытие": 7205,
      "Связывание": 7206,
      "учрежд": 7207,
      "реакция": 7208,
      "соблюдение": 7209,
      "заказчика": 7210,
      "##знать": 7211,
      "обратиться": 7212,
      "Доступность": 7213,
      "Определенная": 7214,
      "сотрудники": 7215,
      "обновления": 7216,
      "Настоящие": 7217,
      "выражения": 7218,
      "Лицензиру": 7219,
      "ИНЦ": 7220,
      "Средство": 7221,
      "множества": 7222,
      "»;-": 7223,
      "Свой": 7224,
      "##актив": 7225,
      "вредонос": 7226,
      "сокращения": 7227,
      "статических": 7228,
      "дополня": 7229,
      "дополни": 7230,
      "удостовер": 7231,
      "планиру": 7232,
      "аннотация": 7233,
      "находиться": 7234,
      "вынесения": 7235,
      "содержащиеся": 7236,
      "386": 7237,
      "наблюдения": 7238,
      "Установленные": 7239,
      "адапт": 7240,
      "адаптиров": 7241,
      "чтение": 7242,
      "практик": 7243,
      "признания": 7244,
      "подтверждающие": 7245,
      "охраны": 7246,
      "намерен": 7247,
      "комплекса": 7248,
      "аннулировании": 7249,
      "сертификатов": 7250,
      "Гостехкомиссией": 7251,
      "ЕТА_ТА": 7252,
      "дисков": 7253,
      "каса": 7254,
      "платформ": 7255,
      "ИНФОРМАЦИИ": 7256,
      "протестировать": 7257,
      "Чтобы": 7258,
      "реализованными": 7259,
      "носителях": 7260,
      "Расширенные": 7261,
      "доступе": 7262,
      "Парамет": 7263,
      "##ЛОГ": 7264,
      "сопровожда": 7265,
      "интеграль": 7266,
      "графичес": 7267,
      "биометри": 7268,
      "ществля": 7269,
      "##ASEJNT": 7270,
      "##Функциональная": 7271,
      "##станавливается": 7272,
      "наказания": 7273,
      "изучения": 7274,
      "целесообразно": 7275,
      "предположений": 7276,
      "высокоуровнев": 7277,
      "Атрибуты": 7278,
      "агентства": 7279,
      "слисок": 7280,
      "Москва": 7281,
      "Обычно": 7282,
      "СРЕДСТВ": 7283,
      "##ility": 7284,
      "построения": 7285,
      "##удовлетвор": 7286,
      "эвристика": 7287,
      "Повтор": 7288,
      "зону": 7289,
      "крайней": 7290,
      "утечки": 7291,
      "фрагмент": 7292,
      "Предотвращение": 7293,
      "достигнуто": 7294,
      "##uthori": 7295,
      "абстракции": 7296,
      "policy": 7297,
      "M3K": 7298,
      "fstec": 7299,
      "Доверие": 7300,
      "апел": 7301,
      "апреля": 7302,
      "планом": 7303,
      "##дицион": 7304,
      "отраслев": 7305,
      "избыточ": 7306,
      "63": 7307,
      "82": 7308,
      "8CВ": 7309,
      "93": 7310,
      "BO": 7311,
      "FCS": 7312,
      "RF": 7313,
      "TC": 7314,
      "VII": 7315,
      "_СК": 7316,
      "an": 7317,
      "bdu": 7318,
      "evaluation": 7319,
      "ww": 7320,
      "Включение": 7321,
      "Внутрен": 7322,
      "Глуб": 7323,
      "Действие": 7324,
      "Зав": 7325,
      "Истор": 7326,
      "Пасс": 7327,
      "Пакет": 7328,
      "Тем": 7329,
      "Физ": 7330,
      "ар": 7331,
      "вся": 7332,
      "вект": 7333,
      "вклю": 7334,
      "ду": 7335,
      "дения": 7336,
      "дол": 7337,
      "ест": 7338,
      "жив": 7339,
      "ил": 7340,
      "кому": 7341,
      "квали": 7342,
      "лет": 7343,
      "мор": 7344,
      "нения": 7345,
      "ний": 7346,
      "нентов": 7347,
      "пу": 7348,
      "пы": 7349,
      "са": 7350,
      "сут": 7351,
      "сами": 7352,
      "сможет": 7353,
      "ссыла": 7354,
      "тщ": 7355,
      "тверж": 7356,
      "умер": 7357,
      "фици": 7358,
      "ция": 7359,
      "член": 7360,
      "щих": 7361,
      "##ися": 7362,
      "##треб": 7363,
      "##нед": 7364,
      "##нформ": 7365,
      "##закци": 7366,
      "##жению": 7367,
      "##АР": 7368,
      "##АВИ": 7369,
      "##ВС": 7370,
      "##бит": 7371,
      "##без": 7372,
      "##бой": 7373,
      "##коп": 7374,
      "##37": 7375,
      "##чное": 7376,
      "##сем": 7377,
      "##цат": 7378,
      "##провод": 7379,
      "##яется": 7380,
      "##ящие": 7381,
      "##ist": 7382,
      "##re": 7383,
      "##ЕСП": 7384,
      "##юстом": 7385,
      "##AB": 7386,
      "##AGD": 7387,
      "##шли": 7388,
      "##шая": 7389,
      "##un": 7390,
      "##ass": 7391,
      "##ИЯ": 7392,
      "##ИСО": 7393,
      "##ГО": 7394,
      "##»;": 7395,
      "##ФТБ": 7396,
      "##del": 7397,
      "##zed": 7398,
      "##овые": 7399,
      "##овек": 7400,
      "##ция": 7401,
      "пошли": 7402,
      "##ритель": 7403,
      "##емому": 7404,
      "##ляют": 7405,
      "##ота": 7406,
      "##отно": 7407,
      "##ерных": 7408,
      "##ершение": 7409,
      "инспе": 7410,
      "##одез": 7411,
      "##имому": 7412,
      "##ениями": 7413,
      "обна": 7414,
      "ная": 7415,
      "напри": 7416,
      "народ": 7417,
      "назна": 7418,
      "##.....": 7419,
      "##.......": 7420,
      "##езнод": 7421,
      "##той": 7422,
      "предупреждения": 7423,
      "безопасном": 7424,
      "некот": 7425,
      "неотказуемости": 7426,
      "сок": 7427,
      "сох": 7428,
      "опции": 7429,
      "##тиру": 7430,
      "##акон": 7431,
      "выс": 7432,
      "выборе": 7433,
      "данному": 7434,
      "подключение": 7435,
      "подбору": 7436,
      "требо": 7437,
      "информационном": 7438,
      "столб": 7439,
      "##обор": 7440,
      "##обязатель": 7441,
      "##ламенти": 7442,
      "измер": 7443,
      "излага": 7444,
      "свод": 7445,
      "##люстриру": 7446,
      "требованию": 7447,
      "теоре": 7448,
      "##ерить": 7449,
      "##част": 7450,
      "соотно": 7451,
      "объектив": 7452,
      "действует": 7453,
      "##одержание": 7454,
      "представлении": 7455,
      "##ленным": 7456,
      "##идентифик": 7457,
      "меся": 7458,
      "специфицированы": 7459,
      "возможной": 7460,
      "проверить": 7461,
      "оценок": 7462,
      "значением": 7463,
      "довод": 7464,
      "можетбыть": 7465,
      "уста": 7466,
      "##ательную": 7467,
      "какого": 7468,
      "##писание": 7469,
      "109": 7470,
      "толь": 7471,
      "какая": 7472,
      "##тех": 7473,
      "классом": 7474,
      "доказ": 7475,
      "Приват": 7476,
      "аудитаС": 7477,
      "документе": 7478,
      "FPR": 7479,
      "##ника": 7480,
      "назначением": 7481,
      "осуществляющим": 7482,
      "необходимостью": 7483,
      "##евид": 7484,
      "##ационным": 7485,
      "разработчиками": 7486,
      "основана": 7487,
      "основанный": 7488,
      "друга": 7489,
      "секре": 7490,
      "указания": 7491,
      "##мотреть": 7492,
      "используемая": 7493,
      "зависи": 7494,
      "##ащих": 7495,
      "полную": 7496,
      "интерпре": 7497,
      "определяющих": 7498,
      "переход": 7499,
      "серв": 7500,
      "установка": 7501,
      "##кончание": 7502,
      "формат": 7503,
      "формальных": 7504,
      "формальным": 7505,
      "формальную": 7506,
      "тестирова": 7507,
      "технически": 7508,
      "техническими": 7509,
      "раст": 7510,
      "администриров": 7511,
      "несут": 7512,
      "типами": 7513,
      "требуемой": 7514,
      "требуемого": 7515,
      "##матривать": 7516,
      "аттестационной": 7517,
      "образц": 7518,
      "включается": 7519,
      "целев": 7520,
      "целевой": 7521,
      "законов": 7522,
      "государственным": 7523,
      "##ищенное": 7524,
      "настоящими": 7525,
      "обеспечивая": 7526,
      "представленной": 7527,
      "ограниченное": 7528,
      "поддержку": 7529,
      "способность": 7530,
      "##onent": 7531,
      "установленный": 7532,
      "установленными": 7533,
      "сертификацию": 7534,
      "соответствующим": 7535,
      "соответствующее": 7536,
      "подсистемой": 7537,
      "подсистему": 7538,
      "элементе": 7539,
      "элементам": 7540,
      "работников": 7541,
      "раздела": 7542,
      "разделах": 7543,
      "продукту": 7544,
      "применяют": 7545,
      "представлениями": 7546,
      "рассматривать": 7547,
      "##ющийся": 7548,
      "аппаратными": 7549,
      "информационнымипото": 7550,
      "люд": 7551,
      "любое": 7552,
      "модифицировать": 7553,
      "задава": 7554,
      "конкретному": 7555,
      "состоят": 7556,
      "произво": 7557,
      "уровням": 7558,
      "дают": 7559,
      "режимах": 7560,
      "значимые": 7561,
      "необходимыми": 7562,
      "##ованное": 7563,
      "##ованная": 7564,
      "FTA": 7565,
      "ссылке": 7566,
      "Защищенное": 7567,
      "теста": 7568,
      "внутренним": 7569,
      "внутренняя": 7570,
      "выбором": 7571,
      "принятии": 7572,
      "##ативные": 7573,
      "ACO_CT": 7574,
      "исключительно": 7575,
      "эксплуатацииAGD_PRE": 7576,
      "содержащего": 7577,
      "заявлено": 7578,
      "регламент": 7579,
      "регламенти": 7580,
      "расширя": 7581,
      "##ходящие": 7582,
      "##ряд": 7583,
      "Предупреждения": 7584,
      "Минюстом": 7585,
      "самый": 7586,
      "возникают": 7587,
      "связанным": 7588,
      "предпринимаемых": 7589,
      "##МТ_": 7590,
      "обоснован": 7591,
      "опасных": 7592,
      "смогут": 7593,
      "последней": 7594,
      "последнем": 7595,
      "повторить": 7596,
      "повторная": 7597,
      "приводит": 7598,
      "прослежива": 7599,
      "третий": 7600,
      "##точки": 7601,
      "достижение": 7602,
      "достичь": 7603,
      "источники": 7604,
      "верия": 7605,
      "направленных": 7606,
      "Классы": 7607,
      "противостоит": 7608,
      "правильного": 7609,
      "носит": 7610,
      "условиями": 7611,
      "APE_CCL": 7612,
      "приемочных": 7613,
      "актуальные": 7614,
      "##лирования": 7615,
      "составляют": 7616,
      "распространения": 7617,
      "детализация": 7618,
      "ответственных": 7619,
      "ответственные": 7620,
      "нормативные": 7621,
      "именованные": 7622,
      "сделан": 7623,
      "##учное": 7624,
      "любому": 7625,
      "контролируемую": 7626,
      "предоставлено": 7627,
      "предоставленные": 7628,
      "##ers": 7629,
      "Испыт": 7630,
      "конфиденциальность": 7631,
      "##esion": 7632,
      "запросах": 7633,
      "запросил": 7634,
      "изложением": 7635,
      "нескольким": 7636,
      "##ATEJND": 7637,
      "попыткам": 7638,
      "терминал": 7639,
      "иерархия": 7640,
      "копия": 7641,
      "низкий": 7642,
      "транзакци": 7643,
      "высоких": 7644,
      "должностное": 7645,
      "применимо": 7646,
      "##FDP_ITC": 7647,
      "ставление": 7648,
      "Постановление": 7649,
      "Постановлений": 7650,
      "домена": 7651,
      "##all": 7652,
      "поставля": 7653,
      "обращение": 7654,
      "приложений": 7655,
      "приложением": 7656,
      "виртуальных": 7657,
      "нападении": 7658,
      "блокировать": 7659,
      "размещение": 7660,
      "потенциала": 7661,
      "инструментальным": 7662,
      "принимать": 7663,
      "второго": 7664,
      "Утверждении": 7665,
      "строгое": 7666,
      "корректность": 7667,
      "##ОВЛ": 7668,
      "допустимый": 7669,
      "распределенных": 7670,
      "прекращения": 7671,
      "прекращение": 7672,
      "первом": 7673,
      "подготовка": 7674,
      "реализуемые": 7675,
      "тайны": 7676,
      "удовлетворить": 7677,
      "приоритета": 7678,
      "передаваемые": 7679,
      "монопо": 7680,
      "реестра": 7681,
      "очевид": 7682,
      "выбирать": 7683,
      "выбираются": 7684,
      "однозначное": 7685,
      "отображением": 7686,
      "примеры": 7687,
      "превышения": 7688,
      "выходе": 7689,
      "выходных": 7690,
      "алгоритма": 7691,
      "алгоритмичес": 7692,
      "##лонам": 7693,
      "настройка": 7694,
      "схемы": 7695,
      "положением": 7696,
      "сегменты": 7697,
      "пароля": 7698,
      "охват": 7699,
      "приложениями": 7700,
      "воздействовать": 7701,
      "кодек": 7702,
      "подтверждается": 7703,
      "рекомендации": 7704,
      "специфика": 7705,
      "спецификаций": 7706,
      "скрытности": 7707,
      "скрытность": 7708,
      "таблицу": 7709,
      "испытаниях": 7710,
      "большей": 7711,
      "Безопасные": 7712,
      "Решение": 7713,
      "направить": 7714,
      "обозначения": 7715,
      "предыдущем": 7716,
      "предыдущего": 7717,
      "ционирования": 7718,
      "исследователем": 7719,
      ".................................................................................................................................": 7720,
      "тельно": 7721,
      "##лекс": 7722,
      "распорядительные": 7723,
      "предъявляются": 7724,
      "предъявляемым": 7725,
      "хранимые": 7726,
      "оценивается": 7727,
      "здесь": 7728,
      "учесть": 7729,
      "соблюдения": 7730,
      "возникновение": 7731,
      "идентифицируются": 7732,
      "минимизации": 7733,
      "обновлений": 7734,
      "выданного": 7735,
      "нейтрализации": 7736,
      "демонстрируемое": 7737,
      "абзаце": 7738,
      "достовер": 7739,
      "существующих": 7740,
      "существующие": 7741,
      "Автоматическая": 7742,
      "критичных": 7743,
      "Перекрестные": 7744,
      "Среда": 7745,
      "Средства": 7746,
      "маркировка": 7747,
      "##ATE_DPT": 7748,
      "##FDP_IFF": 7749,
      "стандартизации": 7750,
      "стандартизированный": 7751,
      "шифрования": 7752,
      "##FTP_": 7753,
      "аннотации": 7754,
      "беспровод": 7755,
      "утратил": 7756,
      "принадлежащ": 7757,
      "обладателя": 7758,
      "глобальной": 7759,
      "чтения": 7760,
      "интервал": 7761,
      "интервала": 7762,
      "изменяются": 7763,
      "муниципального": 7764,
      "##компонентов": 7765,
      "причем": 7766,
      "причина": 7767,
      "непримени": 7768,
      "широком": 7769,
      "сценарии": 7770,
      "окончании": 7771,
      "##AGD_OPE": 7772,
      "##urance": 7773,
      "полноту": 7774,
      "повышения": 7775,
      "юридическим": 7776,
      "##ALC_CMS": 7777,
      "отрицания": 7778,
      "ОБЕСП": 7779,
      "карты": 7780,
      "ИНФОРМАЦИОН": 7781,
      "ПРАВИ": 7782,
      "железнод": 7783,
      "игнорировать": 7784,
      "безопасностиASE_SPD": 7785,
      "стадии": 7786,
      "совершенств": 7787,
      "противодействовать": 7788,
      "интеграции": 7789,
      "интерактивного": 7790,
      "вспомогательным": 7791,
      "Государственный": 7792,
      "начала": 7793,
      "##обеспечения": 7794,
      "##ЕРТ_Т": 7795,
      "Необходимо": 7796,
      "фейсы": 7797,
      "загрузки": 7798,
      "замечания": 7799,
      "стрел": 7800,
      "задокументировать": 7801,
      "утратившими": 7802,
      "791": 7803,
      "Другими": 7804,
      "обмене": 7805,
      "компетенци": 7806,
      "модификаций": 7807,
      "Простые": 7808,
      "центральный": 7809,
      "символов": 7810,
      "assurance": 7811,
      "Механизм": 7812,
      "микро": 7813,
      "оружия": 7814,
      "##аудита": 7815,
      "обладающим": 7816,
      "автоматического": 7817,
      "учтены": 7818,
      "##FMT_SMR": 7819,
      "реквизиты": 7820,
      "компенсирующих": 7821,
      "голос": 7822,
      "инновационного": 7823,
      "прокуратуры": 7824,
      "возврата": 7825,
      "Избирательное": 7826,
      "Актив": 7827,
      "Комплекс": 7828,
      "легко": 7829,
      "##мерим": 7830,
      "##ТОД": 7831,
      "##Изложение": 7832,
      "##fication": 7833,
      "выступающих": 7834,
      "модернизации": 7835,
      "прекурс": 7836,
      "синтаксис": 7837,
      "##дигма": 7838,
      "ЭВМ": 7839,
      "окруж": 7840,
      "##есистем": 7841,
      "подозритель": 7842,
      "несертифицированных": 7843,
      "работоспособности": 7844,
      "истории": 7845,
      "хранилищ": 7846,
      "cohesion": 7847,
      "адаптированного": 7848,
      "##uthorized": 7849,
      "RFC": 7850,
      "TCP": 7851,
      "_СКМ": 7852,
      "and": 7853,
      "www": 7854,
      "Внутренняя": 7855,
      "Глубина": 7856,
      "Завершение": 7857,
      "История": 7858,
      "Пассив": 7859,
      "естеств": 7860,
      "иллюстриру": 7861,
      "Приватность": 7862,
      "информационнымипотоками": 7863,
      "ACO_CTT": 7864,
      "ОБЕСПЕЧ": 7865,
      "железнодорож": 7866,
      "подозрительной": 7867,
      "\")": 7868,
      "....": 7869,
      "1ADV_TDS": 7870,
      "56": 7871,
      "65": 7872,
      "64": 7873,
      "69": 7874,
      "68": 7875,
      "70": 7876,
      "86": 7877,
      "99": 7878,
      "96": 7879,
      "9CВ": 7880,
      ";\";": 7881,
      "CD": 7882,
      "Co": 7883,
      "INT": 7884,
      "de": 7885,
      "fun": 7886,
      "id": 7887,
      "protection": 7888,
      "Аналогич": 7889,
      "Библиография": 7890,
      "Втор": 7891,
      "Вне": 7892,
      "ДОВ": 7893,
      "Дальнейш": 7894,
      "ЕОценщик": 7895,
      "ЗА": 7896,
      "Ини": 7897,
      "ИПО": 7898,
      "КР": 7899,
      "К2": 7900,
      "Много": 7901,
      "Мар": 7902,
      "Норм": 7903,
      "Национ": 7904,
      "Ожи": 7905,
      "Пон": 7906,
      "РАЦ": 7907,
      "Си": 7908,
      "Сущ": 7909,
      "Суда": 7910,
      "Утвердить": 7911,
      "Утра": 7912,
      "УРОВ": 7913,
      "архитектур": 7914,
      "бут": 7915,
      "бюджет": 7916,
      "вов": 7917,
      "ватель": 7918,
      "ввести": 7919,
      "гу": 7920,
      "год": 7921,
      "достав": 7922,
      "дуль": 7923,
      "двер": 7924,
      "жен": 7925,
      "зан": 7926,
      "крет": 7927,
      "му": 7928,
      "мого": 7929,
      "нан": 7930,
      "нот": 7931,
      "нент": 7932,
      "нии": 7933,
      "нена": 7934,
      "нента": 7935,
      "рых": 7936,
      "раций": 7937,
      "сть": 7938,
      "скры": 7939,
      "содейств": 7940,
      "сбора": 7941,
      "сматрива": 7942,
      "трид": 7943,
      "умест": 7944,
      "хор": 7945,
      "ценность": 7946,
      "щий": 7947,
      "ющие": 7948,
      "##рным": 7949,
      "##еб": 7950,
      "##длежащ": 7951,
      "##видетельство": 7952,
      "##ующего": 7953,
      "##жен": 7954,
      "##_МС": 7955,
      "##Введение": 7956,
      "##фав": 7957,
      "##фери": 7958,
      "##кри": 7959,
      "##крат": 7960,
      "##чного": 7961,
      "##сред": 7962,
      "##сед": 7963,
      "##содерж": 7964,
      "##специ": 7965,
      "##судар": 7966,
      "##ский": 7967,
      "##связ": 7968,
      "##скими": 7969,
      "##це": 7970,
      "##яться": 7971,
      "##ящих": 7972,
      "##na": 7973,
      "##tt": 7974,
      "##id": 7975,
      "##ОЧ": 7976,
      "##Описание": 7977,
      "##VV": 7978,
      "##VSS": 7979,
      "##шему": 7980,
      "##FS": 7981,
      "##FRU": 7982,
      "##UCO": 7983,
      "##mon": 7984,
      "##ust": 7985,
      "##upl": 7986,
      "##НАЯ": 7987,
      "##ИЕ": 7988,
      "##Информ": 7989,
      "##КТ": 7990,
      "##КИ": 7991,
      "##11": 7992,
      "##sti": 7993,
      "##ГУ": 7994,
      "##BJ": 7995,
      "##сто": 7996,
      "##овых": 7997,
      "##овании": 7998,
      "##ант": 7999,
      "##ций": 8000,
      "##циализация": 8001,
      "##расп": 8002,
      "##оррект": 8003,
      "##ордин": 8004,
      "пока": 8005,
      "потер": 8006,
      "##ствуют": 8007,
      "##отестирование": 8008,
      "##итетом": 8009,
      "##одол": 8010,
      "##имых": 8011,
      "обес": 8012,
      "##едлен": 8013,
      "##роль": 8014,
      "##......": 8015,
      "заб": 8016,
      "закрытия": 8017,
      "информирование": 8018,
      "##азатели": 8019,
      "##опе": 8020,
      "##опис": 8021,
      "приост": 8022,
      "##льзя": 8023,
      "##руемые": 8024,
      "предуп": 8025,
      "предупрежд": 8026,
      "отчет": 8027,
      "отменить": 8028,
      "неболь": 8029,
      "нельзя": 8030,
      "безопасностиТребования": 8031,
      "прохода": 8032,
      "опи": 8033,
      "##тию": 8034,
      "##тичес": 8035,
      "##тировать": 8036,
      "сле": 8037,
      "выданных": 8038,
      "выдает": 8039,
      "разных": 8040,
      "##фигу": 8041,
      "подходящ": 8042,
      "##вается": 8043,
      "линии": 8044,
      "##ласт": 8045,
      "избеж": 8046,
      "##имой": 8047,
      "##части": 8048,
      "определи": 8049,
      "средах": 8050,
      "##ической": 8051,
      "##ившим": 8052,
      "##луж": 8053,
      "152": 8054,
      "154": 8055,
      "атри": 8056,
      "атом": 8057,
      "##очет": 8058,
      "функциони": 8059,
      "представительства": 8060,
      "содержимому": 8061,
      "##изировать": 8062,
      "##иде": 8063,
      "мерам": 8064,
      "специального": 8065,
      "возможностями": 8066,
      "доступу": 8067,
      "оцененной": 8068,
      "системам": 8069,
      "значимость": 8070,
      "значительной": 8071,
      "разработать": 8072,
      "##ительного": 8073,
      "кар": 8074,
      "106": 8075,
      "определением": 8076,
      "правами": 8077,
      "управленияинформ": 8078,
      "классами": 8079,
      "##ированные": 8080,
      "Применение": 8081,
      "компонентовASEJNT": 8082,
      "раскрытие": 8083,
      "##ивает": 8084,
      "деб": 8085,
      "аудитабезопасности": 8086,
      "экрани": 8087,
      "назначе": 8088,
      "одну": 8089,
      "основания": 8090,
      "основанного": 8091,
      "основывается": 8092,
      "другом": 8093,
      "полужи": 8094,
      "используемую": 8095,
      "исследу": 8096,
      "полный": 8097,
      "переза": 8098,
      "перегов": 8099,
      "##урного": 8100,
      "127": 8101,
      "составному": 8102,
      "возможностью": 8103,
      "допущены": 8104,
      "установку": 8105,
      "##конфигу": 8106,
      "формация": 8107,
      "тестировании": 8108,
      "получателем": 8109,
      "ради": 8110,
      "свидетельством": 8111,
      "включенных": 8112,
      "резуль": 8113,
      "##енциальных": 8114,
      "нарушении": 8115,
      "требующих": 8116,
      "требуемый": 8117,
      "##лоны": 8118,
      "##локи": 8119,
      "Обзор": 8120,
      "##предостав": 8121,
      "проведенной": 8122,
      "аттестация": 8123,
      "аттестата": 8124,
      "лицам": 8125,
      "базовому": 8126,
      "настоящие": 8127,
      "ресурсе": 8128,
      "персональны": 8129,
      "конфигурация": 8130,
      "конфигуриров": 8131,
      "защищенных": 8132,
      "представленные": 8133,
      "представленному": 8134,
      "ограниченного": 8135,
      "способами": 8136,
      "методики": 8137,
      "модулю": 8138,
      "организацией": 8139,
      "эксплуатационная": 8140,
      "актом": 8141,
      "недо": 8142,
      "преодол": 8143,
      "установленное": 8144,
      "##соответств": 8145,
      "некотором": 8146,
      "некоторое": 8147,
      "некоторыми": 8148,
      "элементами": 8149,
      "работники": 8150,
      "##сутствие": 8151,
      "оценщиков": 8152,
      "создается": 8153,
      "УКФ": 8154,
      "общесистем": 8155,
      "модифицированных": 8156,
      "модифицированы": 8157,
      "Базовым": 8158,
      "задании": 8159,
      "заданное": 8160,
      ");-": 8161,
      "предприятия": 8162,
      "состоять": 8163,
      "значимым": 8164,
      "значимыми": 8165,
      "##ованном": 8166,
      "##ованную": 8167,
      "ошибочных": 8168,
      "НазначениеB": 8169,
      "руководителем": 8170,
      "выборочным": 8171,
      "ОУД7": 8172,
      "ОУД6": 8173,
      "грубы": 8174,
      "обязаны": 8175,
      "относят": 8176,
      "идентифицированным": 8177,
      "запися": 8178,
      "содержащей": 8179,
      "восстановлению": 8180,
      "ОперацииJ": 8181,
      "потенциального": 8182,
      "Предостав": 8183,
      "самими": 8184,
      "коммер": 8185,
      "возникнуть": 8186,
      "связанную": 8187,
      "внешним": 8188,
      "Полу": 8189,
      "Получ": 8190,
      "Положение": 8191,
      "ключи": 8192,
      "имел": 8193,
      "производственных": 8194,
      "последнего": 8195,
      "187": 8196,
      "разрешенных": 8197,
      "указанном": 8198,
      "Ограниченный": 8199,
      "##иче": 8200,
      "выявленного": 8201,
      "приводить": 8202,
      "приводят": 8203,
      "группа": 8204,
      "Описания": 8205,
      "Процес": 8206,
      "плана": 8207,
      "достигнут": 8208,
      "однораз": 8209,
      "сообщение": 8210,
      "сообществ": 8211,
      "своев": 8212,
      "существовать": 8213,
      "распрост": 8214,
      "строки": 8215,
      "строительства": 8216,
      "активности": 8217,
      "активации": 8218,
      "##нократ": 8219,
      "параметра": 8220,
      "##ЕРИЯ": 8221,
      "тестовые": 8222,
      "остальных": 8223,
      "архитектура": 8224,
      "риска": 8225,
      "удаления": 8226,
      "ответственным": 8227,
      "отказоустойчивость": 8228,
      "нормативно": 8229,
      "нормативной": 8230,
      "процедурыALC_CMC": 8231,
      "сложных": 8232,
      "территориях": 8233,
      "##ADVJMP": 8234,
      "процедурные": 8235,
      "фактор": 8236,
      "##eration": 8237,
      "Такими": 8238,
      "нового": 8239,
      "перечнем": 8240,
      "особенности": 8241,
      "делать": 8242,
      "достаточность": 8243,
      "иерархически": 8244,
      "должностного": 8245,
      "администратору": 8246,
      "##FDP_U": 8247,
      "ставших": 8248,
      "выбраны": 8249,
      "выбранных": 8250,
      "1CДокументация": 8251,
      "обращен": 8252,
      "соискатель": 8253,
      "соискателю": 8254,
      "подписания": 8255,
      "допускает": 8256,
      "допускают": 8257,
      "сопровождать": 8258,
      "кратко": 8259,
      "стиля": 8260,
      "прикладном": 8261,
      "размещения": 8262,
      "исходные": 8263,
      "Изготов": 8264,
      "перимет": 8265,
      "правовые": 8266,
      "организационные": 8267,
      "остаточные": 8268,
      "пониманию": 8269,
      "исправлению": 8270,
      "располагается": 8271,
      "допустимы": 8272,
      "оказываемых": 8273,
      "позволяющие": 8274,
      "неуспешное": 8275,
      "первый": 8276,
      "аспектами": 8277,
      "##ALC_DEL": 8278,
      "транспортиров": 8279,
      "рассмотрении": 8280,
      "реестре": 8281,
      "операторов": 8282,
      "привлечения": 8283,
      "компьютерные": 8284,
      "важно": 8285,
      "важные": 8286,
      "актуальна": 8287,
      "Банка": 8288,
      "##and": 8289,
      "доказательства": 8290,
      "фильтрацию": 8291,
      "стоимость": 8292,
      "##ыск": 8293,
      "Составной": 8294,
      "схему": 8295,
      "сохранение": 8296,
      "сохранением": 8297,
      "свойствами": 8298,
      "независимый": 8299,
      "полуформальное": 8300,
      "входит": 8301,
      "входят": 8302,
      "входящих": 8303,
      "отправитель": 8304,
      "рекомендация": 8305,
      "операциям": 8306,
      "Резерв": 8307,
      "немедлен": 8308,
      "оформленного": 8309,
      "оформляются": 8310,
      "скрытых": 8311,
      "действующего": 8312,
      "большее": 8313,
      "вступают": 8314,
      "##ing": 8315,
      "приостановлении": 8316,
      "5192": 8317,
      "ожидается": 8318,
      "торых": 8319,
      "торые": 8320,
      "тельной": 8321,
      "##оверия": 8322,
      "оцениваемого": 8323,
      "оцениваемое": 8324,
      "просто": 8325,
      "издания": 8326,
      "Определении": 8327,
      "полагаются": 8328,
      "##ствующие": 8329,
      "обновление": 8330,
      "объяснение": 8331,
      "объясняется": 8332,
      "Предположения": 8333,
      "нейтрализованы": 8334,
      "демонстрирует": 8335,
      "периодически": 8336,
      "ответы": 8337,
      "ОПО": 8338,
      "договор": 8339,
      "надежное": 8340,
      "приватностью": 8341,
      "конструкций": 8342,
      "лабораторий": 8343,
      "##ящий": 8344,
      "##ATE_COV": 8345,
      "##актор": 8346,
      "криптографии": 8347,
      "отношениям": 8348,
      "вреда": 8349,
      "дверей": 8350,
      "знаний": 8351,
      "##duction": 8352,
      "сокращенное": 8353,
      "показывает": 8354,
      "алгоритмов": 8355,
      "происходить": 8356,
      "официальное": 8357,
      "официального": 8358,
      "тификации": 8359,
      "обладателем": 8360,
      "преобразования": 8361,
      "надзору": 8362,
      "противореч": 8363,
      "участниками": 8364,
      "промышленного": 8365,
      "наслед": 8366,
      "служебных": 8367,
      "глобальных": 8368,
      "Основные": 8369,
      "аутентифицирован": 8370,
      "Установка": 8371,
      "присутствовать": 8372,
      "выделены": 8373,
      "Формальная": 8374,
      "знаком": 8375,
      "сооружения": 8376,
      "подтверждающего": 8377,
      "Типы": 8378,
      "Типич": 8379,
      "дублировании": 8380,
      "многие": 8381,
      "замок": 8382,
      "замками": 8383,
      "аттестуемому": 8384,
      "образовательными": 8385,
      "Правительство": 8386,
      "ЕРТ_ТОС": 8387,
      "расположены": 8388,
      "стойкость": 8389,
      "ФЕДЕРАЛЬНАЯ": 8390,
      "пространства": 8391,
      "исполнять": 8392,
      "упорядочения": 8393,
      "component": 8394,
      "рейтинг": 8395,
      "меньшей": 8396,
      "семей": 8397,
      "считать": 8398,
      "считаться": 8399,
      "абстракт": 8400,
      "FTA_TAB": 8401,
      "Государственной": 8402,
      "освобождении": 8403,
      "##FTA_T": 8404,
      "##ngine": 8405,
      "##РОВАНИ": 8406,
      "замены": 8407,
      "неудач": 8408,
      "самотестирования": 8409,
      "затраты": 8410,
      "##FPR_UN": 8411,
      "##FPR_PSE": 8412,
      "мобильных": 8413,
      "мобильного": 8414,
      "##чатых": 8415,
      "##режда": 8416,
      "распоряжения": 8417,
      "участие": 8418,
      "контейнер": 8419,
      "model": 8420,
      "сайте": 8421,
      "традицион": 8422,
      "задачами": 8423,
      "неакту": 8424,
      "пропускным": 8425,
      "выпуска": 8426,
      "видеоинформации": 8427,
      "ОЦЕНОЧ": 8428,
      "характеризующий": 8429,
      "дейтаграммы": 8430,
      "956": 8431,
      "Проведение": 8432,
      "Самотестирование": 8433,
      "спроектировать": 8434,
      "энерг": 8435,
      "##Утверждение": 8436,
      "несоответств": 8437,
      "ролями": 8438,
      "##декват": 8439,
      "Подсистемы": 8440,
      "строгим": 8441,
      "телефон": 8442,
      "утилизация": 8443,
      "Оповещение": 8444,
      "пись": 8445,
      "разнопланов": 8446,
      "Принятие": 8447,
      "помогает": 8448,
      "фигурации": 8449,
      "Количество": 8450,
      "Существуют": 8451,
      "геодез": 8452,
      "неоднократ": 8453,
      "оснащены": 8454,
      "исчерпыва": 8455,
      "##FMT_MSA": 8456,
      "взрывчатых": 8457,
      "наркотических": 8458,
      "психотропных": 8459,
      "Категор": 8460,
      "##ase": 8461,
      "##15408": 8462,
      "заголов": 8463,
      "необязательно": 8464,
      "однотипных": 8465,
      "привлекать": 8466,
      "адаптации": 8467,
      "Параметры": 8468,
      "##удовлетворения": 8469,
      "Физическая": 8470,
      "твержд": 8471,
      "##семестно": 8472,
      "инспекцион": 8473,
      "прослеживаются": 8474,
      "носителе": 8475,
      "монополиз": 8476,
      "##лонамер": 8477,
      "неприменим": 8478,
      "иллюстрирует": 8479,
      "ОБЕСПЕЧЕНИЯ": 8480,
      "function": 8481,
      "ДОВЕРИЯ": 8482,
      "Инициализация": 8483,
      "Маркиров": 8484,
      "Нормативные": 8485,
      "Национальные": 8486,
      "УРОВЕНЬ": 8487,
      "дверьми": 8488,
      "ненадлежащ": 8489,
      "стью": 8490,
      "тридцат": 8491,
      "##FSR": 8492,
      "##FRU_": 8493,
      "##usted": 8494,
      "##upling": 8495,
      "обеспе": 8496,
      "предупрежда": 8497,
      "управленияинформационными": 8498,
      "переговоров": 8499,
      "персональныеданные": 8500,
      "ОЦЕНОЧНЫЙ": 8501,
      "1FPT_": 8502,
      "2D": 8503,
      "2ASE_": 8504,
      "4EОценщик": 8505,
      "BD": 8506,
      "CVSS": 8507,
      "El": 8508,
      "FAU": 8509,
      "Mau": 8510,
      "TS": 8511,
      "TAB": 8512,
      "XII": 8513,
      "XXX": 8514,
      "«+": 8515,
      "Ас": 8516,
      "Адап": 8517,
      "Вери": 8518,
      "Вид": 8519,
      "Гл": 8520,
      "До": 8521,
      "ДЕ": 8522,
      "Достаточ": 8523,
      "Его": 8524,
      "Ком": 8525,
      "Максималь": 8526,
      "Могут": 8527,
      "Ни": 8528,
      "НС": 8529,
      "Она": 8530,
      "ПЛ": 8531,
      "Ск": 8532,
      "Сок": 8533,
      "Способ": 8534,
      "Сбой": 8535,
      "Содержание": 8536,
      "То": 8537,
      "Треть": 8538,
      "Тестовая": 8539,
      "Уник": 8540,
      "Угрозы": 8541,
      "Хран": 8542,
      "бл": 8543,
      "браж": 8544,
      "благо": 8545,
      "баллов": 8546,
      "виру": 8547,
      "введение": 8548,
      "впл": 8549,
      "гут": 8550,
      "дует": 8551,
      "жет": 8552,
      "иное": 8553,
      "игра": 8554,
      "кли": 8555,
      "лей": 8556,
      "лении": 8557,
      "ложение": 8558,
      "лека": 8559,
      "мые": 8560,
      "нич": 8561,
      "пи": 8562,
      "пыт": 8563,
      "порт": 8564,
      "порта": 8565,
      "пяти": 8566,
      "ры": 8567,
      "рим": 8568,
      "риск": 8569,
      "росс": 8570,
      "сент": 8571,
      "слия": 8572,
      "сбору": 8573,
      "съем": 8574,
      "сточки": 8575,
      "тия": 8576,
      "там": 8577,
      "тентифик": 8578,
      "ун": 8579,
      "уплат": 8580,
      "фор": 8581,
      "цировать": 8582,
      "чик": 8583,
      "шения": 8584,
      "яд": 8585,
      "##до": 8586,
      "##дик": 8587,
      "##дется": 8588,
      "##вание": 8589,
      "##вог": 8590,
      "##аутентифик": 8591,
      "##иц": 8592,
      "##исти": 8593,
      "##ификация": 8594,
      "##тый": 8595,
      "##тые": 8596,
      "##турного": 8597,
      "##лат": 8598,
      "##нудит": 8599,
      "##оо": 8600,
      "##уются": 8601,
      "##ующих": 8602,
      "##ующие": 8603,
      "##улиров": 8604,
      "##ПФБ": 8605,
      "##Замечания": 8606,
      "##гр": 8607,
      "##гор": 8608,
      "##АС": 8609,
      "##АЧ": 8610,
      "##фес": 8611,
      "##фера": 8612,
      "##бого": 8613,
      "##Information": 8614,
      "##DD": 8615,
      "##33": 8616,
      "##31": 8617,
      "##3ГОСТР": 8618,
      "##сотруд": 8619,
      "##хо": 8620,
      "##цент": 8621,
      "##net": 8622,
      "##tro": 8623,
      "##ir": 8624,
      "##iz": 8625,
      "##ЕЕ": 8626,
      "##ЕС": 8627,
      "##Руковод": 8628,
      "##AV": 8629,
      "##шений": 8630,
      "##RA": 8631,
      "##min": 8632,
      "##ad": 8633,
      "##эксп": 8634,
[...]
