Действие
проблемой
##расп
##тиз
разделах
негосудар
руко
xFPR_UNO
##рис
компонентыСК
получает
изложениядля
##роена
жепсевдоним
##ension
недопустимость
завершении
кдокументации
##ости
ът
заключения
искажения
идентичностью
интерфейсы
предотвращению
Программное
хранящейся
процедур
материалы
рассмотрен
Архивирование
отмеченные
модулируемые
тодах
##PHP
понад
ххх
Профили
##честв
##_СТ
продолжительность
результатом
ФЕДЕРАЦИИПОСТАНОВЛЕНИЕ
абзацами
относящихсяк
##9AGD_OPE
однии
посыла
радиоактивных
1FPT_SSP
ѐ
ши
несоответств
режимах
##определяет
использованиепродукта
однозначности
аутентификационных
##шеств
Устанавливается
оце
общедоступные
##анкционирован
ДАН
1CСписок
дополнительныецели
операционных
##цо
##ITL
Хранение
##ТИЕ
##сегда
рактериз
##аля
характеристики
неизвестных
##АЦИЯ
Демонстриров
##пень
изучение
##крет
разделе
Перевод
заметен
удовлетворе
##уд
2008technology
МЕТОДЫ
телекоммуникационных
сохранения
отказе
робастность
чтение
ори
659
группыатрибутов
сформированный
Краткая
##росов
составляющих
структу
вающий
##ческая
##ТЕСТ
уб
выходящих
3AGD_OPE
##езаключение
Ника
1146
##оса
тестируются
идентич
выдачу
##SB
именованной
позволено
эколог
защищенные
появлению
Совокупность
доступно
интерпретация
model
выполнен
##обеспечить
ASE_TT
отличать
ификации
каталог
понизитьИсточник
довательности
действующим
пользователемЗамечания
задержки
решив
существующих
Аннот
_СК
рие
##I___________
криптографическими
доб
##лась
логина
определяемые
случится
ПЛГ
указ
Еслизаб
эфф
##ир
выборасовокуп
##uthorized
доступдля
оценку
компиляторов
циональном
##ecu
сохран
##рированные
##SSL
периметра
логическую
заявить
внутренние
##уданных
связывать
помим
услугами
##рект
большее
вызывающие
правильноефункционирование
поддерживаемым
веренные
предшествующего
микропрограмм
Оповещение
ASEJDBJ
##утствующие
связывается
поддержкес
фид
рекомендована
атрибутовпользователяFIA_SOS
финансовой
модифицирование
жер
##ogra
##71
##ленной
СВТ
element
##блем
вызовы
цент
##ике
Эквивалентный
Каталог
##анизм
инспекционный
специальностям
ЕРК
##личные
выделенному
программи
подразделений
рассматривают
числами
дификацию
затрат
зависящих
преобразованы
защитыперсональных
зафик
логической
реестре
##ано
##соответствия
упрощенный
теристи
Сред
##ngineering
##тия
##Рас
потоками
##ляр
##ерн
иного
показыва
##APE_
недостатков
приостанавливается
##оиг
##1ADV_FSP
других
##наруш
полезность
##тельное
выявленную
описаннойв
цировать
меньше
потребуютсяболее
уп
микро
##Разработ
dec
представляющим
приятия
Автом
мини
жиз
1ASEJNT
базовых
пресечению
##СКОЙ
Планов
##орой
BUCO
оснащены
обеспечила
баллов
хоз
##отипа
46
модель
дву
неразрешенных
синхронизация
указывающий
##агнит
сторонних
##ИЧЕ
##ентируясь
оценкуудовлетворения
которыеобеспеч
нед
полный
требуемую
##FIA_USB
##ническим
довод
свободного
рабочем
оформление
разби
##истан
кв
##Опреление
Уведом
ВНЕСЕН
##NR
открывать
уведомлениемадминистратора
общиххарактеристик
составные
##CS_
настройка
##овало
использованно
известных
##анических
держащегося
##осадах
доказательство
##20
4377
ака
НА
отображаются
радужной
подконтрольности
Int
##оем
##ACO_VUL
невозможность
##ательности
самой
51
неблаго
воисполнение
cam
коммуникаций
чтобыпользователи
##учное
целям
объемдоверия
единственными
большое
##енты
циклических
##лением
накопление
другиеуслуги
аппаратныес
##лее
выставить
слабые
исполнительными
Предопредел
сильное
кем
помещениях
##>
корректный
предусмотрены
знать
##НАР
Б
рованную
##лу
##CVV
показанных
преимущества
##СК
влияющем
разграничение
внесенными
переводит
трудозатраты
приемлемы
Выходные
FIA_SOS
Нек
требованийдля
##возможность
сохранялись
Процесс
##яты
Исследование
OOтребуется
Некоторые
относительные
бездок
##инства
##КОЙ
##йно
##х
рации
ский
совершенств
тролируемых
направл
##коев
##се
##............................
методологии
мировании
защищаемой
Пакеты
##нем
##емеся
##владельц
оFDP_IFC
##утермин
##язатель
ограничивающим
4921
установление
несоблюдение
исходнымкомпонентом
компонентутребование
Таблиц
неде
допустимые
полученияРисунок
нато
ФБОИФБОдля
категорированы
ADV_FSR1
использовали
учитывался
пошли
##рту
инициирован
терфейсов
РОР_1ТС
охарактериз
выпущены
деятельностидля
Единственное
СПО
реализацииФТБ
ходных
характеризуемая
##ци
##обязатель
геодезических
##ноту
##idence
##ерными
определяющую
возвращении
стор
биометрическим
явля
освобожденных
запрашивается
##ори
интегра
описаниям
иерархичнык
##Ж
реализованными
),
##DF
бесполезно
##ерез
ценностьдля
стад
##иили
Отказоустойчивость
##птов
неэффективным
кация
2CДля
объектах
прямо
управляемого
зарезервирован
##омедицин
центральный
предопределенные
##овательная
подобные
применено
##ACO_DEV
представлятьинте
##чанию
спечивают
идентифицируется
##ПЗ
безопасностипользователя
##ихтак
FMT_REV
обоснованности
диаграмма
регистрировать
##EE
распределениякриптографических
##SSPP
имеющемуся
##озных
форматзаписи
поте
функционированияобъекта
925
сист
##няя
снижающий
##енциальных
],
##_СС1
участием
Опосредованная
предполага
##Pd
возникновения
##o
##ТЕ
##продуктом
одни
безопасностиInformation
распространяется
Скры
эффекта
кратко
##ирными
2014Настоящий
##чном
беспрепят
сроке
3173
##мун
компетенции
обработ
8CПроцедуры
##d
учеб
разделенным
приобретением
способы
стандартамРоссийской
15408поз
стары
возникавших
##полнять
внедрению
указанных
Должен
103
описание
##INT
АнонимностьЗависимости
провож
##Е
статьи
подпись
соглашений
Аннотации
достигать
Контрмер
ошибкахЗависимости
услугубез
##исти
максимизации
02
одну
примит
##ясоздание
позици
пользуются
произошли
53
относящимся
доступомF
лок
читателю
разграничения
определенная
##цен
Демонст
подвергнуть
администраторам
##riteria
вень
могут
онные
проблемы
ональная
FPT_PHP
ФЕДЕРАЦИИИнформационная
геодез
Подсист
##ртой
приостановка
следует
Аттестаты
отвечающего
сооружение
##атичес
2DДля
помещениями
##+
субъектыне
5CКаждая
7CРуководство
раскрытиясво
предоставлению
подлеж
достоверность
##TF
##FMT_MSA
##ковская
##СТУ4
размножения
зависи
предназна
компоненту
СЛУЖБ
временную
##живанию
запрашивает
многоквартирными
##анкционированный
направлении
очевидный
исходную
##числа
##евое
Руководящий
вычислении
дис
подоз
##ательно
pre
Плохое
##овала
несертифицированных
дальнейшему
контекст
предотвращением
Oct
эксплуатацииAGD
добавленную
науч
##olator
тестирова
серийного
технологияМЕТОД
##луат
заказ
отличается
##VDP
##рующие
выполнении
выбраны
##ациик
исследованияхарактеристик
экспортиру
другом
внесения
##Утвержд
##STG
##ываемых
определяться
ЕОР_АСС
N3
толькоот
такиекак
финансовых
отведен
сигнатур
предписанные
оцениваться
мотив
эксплуатацииAGD_PRE
ТДБиз
UN
угроз
отрицания
создавшего
неверной
администратору
фла
##91
уполномоченномуадминистратору
много
интерфейсам
рассматриваемую
##лаг
зна
положениям
ВыборВРАЧ
технологией
принятую
инструкция
упоря
ознакомлению
подходящего
Одним
ОСВ
столбец
KnaccAGD
##енес
##GD1DV
получение
функционировании
##og
сопоставления
характерных
отраженных
значенияпо
адресованы
увеличивая
Компьютерная
деидентификация
ЛИЦЕНЗИРОВАНИИ
административной
##графов
##приним
Оформ
эксплуати
разработку
##O
интерфейсом
ФБОИФБО
истечение
##ровании
##ваются
##дерских
максимальные
релизе
запутанный
предварительного
сопоставляются
простейшие
##оваловой
акту
функцийпо
исходные
##70
dependency
##нов
##кицон
##разрешает
производится
зр
этотфон
##результат
##оятно
приравненная
нента
принципы
##ули
##TT
усло
рост
##раз
##ира
##ждений
Хор
введена
##оследует
доверии
частот
предпринимаемыми
вместовключения
##ещения
3616
1А
##нократ
ссылаются
подверга
Получательдоступа
управляет
Кре
5CРас
общих
подтвержде
зависимость
PTB
разгранич
технологического
##рные
последовательности
624
кно
##еле
болеенизкого
обе
нападению
делаться
ленными
существующим
pl
подходящую
некотором
распределенным
оценочных
35ГОСТР
видимого
возрастает
голосования
анализом
настоящийстандарт
сгенерированные
новление
безде
наци
FDP_SDI
важно
элементом
сторонними
точному
##ALC_LCD
запросах
компонентынеобходимы
сконфигурирован
дни
Максималь
##сточник
cer
использованию
ruОтпечатано
.,
OS
Ответственность
сохранности
касающей
обобщ
руководящих
случаевозможного
##мя
##ИЯ
Адаптеры
реп
##technology
актуальнуюопасность
учреждениях
чипов
журнала
оценено
##нонимность
прослушиванию
альности
отброшены
технологические
##ированные
применяемого
свидетель
##мещается
##говый
res
необходимой
..........................................................................................................
dat
сроков
ществляющие
смотренным
вым
задерживали
использовано
ФЕДЕРАЛЬНОЕ
обеспе
МАС
##опровод
признания
##.........................
желателен
GH
ск
##рах
поступлении
##окуп
478
телем
##боя
ФБОобеспеч
вила
четкую
щем
значимой
2013FDP_ITC
РЕГУЛИРОВАНИЮ
которая
##фикациик
169
FPT_TST
##DAU
КОН
Надеж
лаборатории
тивные
затем
ствия
дистанционную
ситуаций
общеприня
Гостехкомиссия
целевых
dem
следующееопределение
##удар
Важно
жес
##алей
браж
##гра
компоненты
контейнерах
службу
нималь
##твердить
сформулиров
снижает
дущем
##VICO
началь
требуемым
82Приложение
компенс
Что
##ще
##Оценщик
классу
Оценщикдолж
непосредственных
характериз
Типич
пр
испытательной
objecti
тестах
целямибезопасности
выделенного
7198
demonst
юридического
четность
вызываемых
пригодность
ставлять
неоцененных
##необходимо
поряд
регистрацию
Повышение
чтобысохранить
произошло
некоторомсмыс
отпечатка
уполномо
##кис
направленную
##шений
organis
##енаправление
##гранич
Регламентация
цикле
арифметические
предусматривается
избиратель
вмешательство
разрешен
либострого
атака
отсле
##имого
достигнутого
разно
спорных
заинтересов
увели
##окому
организованы
##деление
Затем
Избиратель
котораяможет
ненадлежащ
##ном
следующихобъектов
Исследования
##ранич
тор
Сбой
Другой
операцион
посколькупользоват
аналогичны
следующихтип
Каждому
##SOS
идентифик
размещ
психотропных
выполнил
затрагива
соответствияУтверждения
строчки
##даря
з
подразумеваемые
FPR_UNO
ЕМТ_ЗАЕ
FI
удостоверяющий
Сертификат
##арактеристи
Примечание
существующие
ющего
registration
демонстрации
вычислитель
достаточны
##енарушение
requirement
предпочтительная
##AIMRPC
##CE
либоиные
##ссыл
ЕТА
детализироваться
полненных
характерны
чение
зашифрованные
семействаУникальное
)................................................................
Операции
разрабатываемые
vi
сделал
будетнев
Комиссия
аспекты
(.
отклонения
##рируются
Разрешенными
поддержанного
##имостей
##сутствуют
##риру
пассив
спеч
изготовления
тельное
количеству
ровки
обязательством
планируемого
##уемую
##инанс
описанных
144
инфраструктурой
устройстве
##FTA_TAB
##назнач
арен
сомнения
запросе
Ско
применимую
Демонстриру
подлежащими
##шис
возвращаемых
количественный
разрешенного
ww
учетными
нении
топографических
параметрами
##ЕНТСТВО
структурированную
Критерии
##a
Независ
СвязьFIA_UID
противополож
##следу
выс
примененные
измененной
##скую
РЕГУЛИРОВАНИ
##новыс
уникальный
обозначены
автобусами
Свиде
подвергнуться
##альных
деленной
).
Co
аппаратны
суб
##орон
«+
писем
фикс
##ехничес
##1DV
##anis
использованиемФБО
спиртосодержащей
усмотреть
УВП
техник
Проект
зная
рискомпотери
##8
нахождения
##ВО
взаимодействующими
подойдет
частоту
раз
организацией
вход
Атрибут
Умень
Сообщения
FCS_
кондиционирования
##ователям
Свойством
ляет
докум
заставлять
генерировал
система
пятый
вышеуп
почтового
данному
разному
##опро
обеззара
несанкционированное
живот
прикладные
полуформальном
контактная
покрытияATE_DPT
спос
##трмер
одногособытия
отражена
ряд
задава
пользователяРас
переменные
неформальной
компьютерной
совершении
.................................
удовлетвор
подведомственных
надежного
семействоследует
автономном
зависимостью
++.
аудитора
##оставлена
##правления
Сокращенное
##2
блокирования
разбиением
неприменимость
##ожд
xFDP_
Подоб
уровняхдетализ
##нер
дополнение
однократ
##ятие
выполнялась
установленный
##ические
Оба
ментации
##тра
последств
##ТА
обновление
6CПроцедуры
соедин
ЧастьИСО
работчиками
удовлетворен
алгоритмам
выбираемых
физически
являющего
2FDP_ETC
сеть
Уровень
имеющие
##етев
##естирование
деком
частоты
француз
заявляют
тались
чае
котораязаверш
реапизованного
##азработ
правильная
##оспеци
бездействующим
прекурсоров
##ского
потенциальная
дарты
автоматическойреакци
охваченные
абсолютно
##СТестовая
пределовдействия
##is
однонаправленная
##ee
экспорта
Метки
операциц
наосуществление
##CTY
недатированных
ut
стандартизированной
мотивация
ими
1FCS_CKM
управления
comm
Очистка
встретиться
Класт
налам
ределение
каталога
парапле
кабельные
лицензирующими
предикатов
предложениях
расширяет
производству
##няться
предоставляющую
ожидаемых
досту
иденти
##art
подключенным
довольно
классифицировать
70
экспертизы
##арева
лучения
циклаALC_
неисправным
называются
формализованное
хотя
подходящей
ружить
объемом
##передаваемых
2011
межправительственных
периоди
оптовой
##дости
136
строгое
##резентатив
пассивных
FDP_RIP
неисправность
осуществлялись
введенное
881
безопасно
замок
истечении
тип
разря
напрямую
оперативной
ставлений
санкционированные
поданных
##оз
получателиэтой
пожарной
внутреннее
##ращ
можетсоответствовать
ариф
##ig
приспособ
##ритель
##СНОСТИ
медицинскими
чески
страховой
св
дающие
унаслед
определи
заведение
допустимой
BUC
подвержены
непредусмотренных
ложной
##VUL
схемой
третье
ров
взаимодействует
##слировано
##йной
возможнойподдержку
жы
присвоением
алгоритмического
##отность
разработан
##каться
##прав
удобный
сообщать
са
Функциональное
##VV3______
xFPR_PSE
оказывать
OVAL
##оритет
рискидля
непротиворечивы
коммуник
##есистем
ограниченному
идентификации40
сходную
присутствуютугрозы
метра
столбцов
Руководителю
равное
требуе
вычисляемые
отключен
цирках
итерациях
##oga
ВЕРК_РЗЕ
имеющуюся
целямбезопасности
бами
Обычнозадача
можетспецифицировать
точности
инициализация
присваивает
пяти
сбоев
подобных
капит
обеспечивать
##каз
интервалов
##КОМЕН
##DVV__AIMRPC
знакомить
произвел
пользова
осуществлять
##ведомствен
наркосодержащих
существу
приемлемых
зд
СЛУ
тенциально
обеспечит
ФТБна
ЕРТ_ТОС
методическим
стрирует
верифицировать
Подробное
портах
стоящ
##iformal
предоставленных
ловек
Конфиденциальность
##ѐ
рования
мат
##гер
иФБОкак
Росави
фактаее
Примеромметри
скопированы
ожидаемого
Замеч
нетривиальной
оформленного
L
##пе
Криптографичес
##мов
##ISO
T17
тривается
ме
таблице
существенно
описываемая
излишняя
МЕТОД
##разреш
пакета
ВыборBFTP_ITC
##оль
немедлен
газ
©
профессиональной
##Таблиц
риска
воспроиз
пассивным
##дающее
Испыт
действие
альтернатив
1CС
выявившего
даются
ванности
самостестирования
исходным
##ge
определит
однотипными
doc
9CСистема
заключается
бездеятельности
определенныев
специальным
псевдонимов
банковского
сравненияразличных
адаптиров
стандартном
микрофон
##юстом
вмеша
взаимосвяз
рушители
детализируются
##тип
застрой
тифицировать
##ADV_ARC
ролями
ограничена
представлениями
продолжаться
##ктоне
информационныхтехнологий
удаленныйдоверенный
оплачиваются
отправителей
Multilevel
контактных
Режимы
дип
ролям
активный
попытках
арифмет
функциях
##режда
##устимые
идентифицированныев
набором
Применительно
потреблено
##ОСКВА
подходящ
относящиесяк
##егСага
ADV_FSR5ADV_FSP
вынес
эф
116
информаци
##51
##ата
максимальной
заданногоинтер
крат
BFPR_PSE
polic
модулиру
ЯВ
являющейся
решают
характеризу
.................................................................................................................
планом
компьютерными
природных
охватыва
##оном
##устимо
идентифи
виртуализации
непримени
должныобеспечить
негосударственных
информационному
ЗС
сводного
структурированы
##ub
##евые
##шись
ставлении
encounter
нечитае
могутбыть
точным
целенаправленной
пользователяДанные
Требованиябезопасности
требуя
2FCO_NRR
##нымикриптографичес
предпочтитель
допускают
##льзо
крип
шителю
оцененного
Правил
##ЛОГ
довести
сировано
людьми
##cal
договора
оцененной
##C0V__3
##результатов
##ируют
##оте
предупреждению
восьмом
представляет
##равил
##осочет
рынка
##ким
line
уполномоченнымлицом
Архив
форумах
программистами
36
##характеристи
##ажиров
чения
контрме
Сетевой
2008Правила
##тернатив
consistent
большие
##ещениях
восстанавливаемое
техниче
##ТРО
##опера
циклом
##тег
оценивания
горит
обязанно
передаваемая
##РЕКТ
трудно
санкционированность
возникновениясобытий
заверше
существует
##ПР
рать
сокрытие
ответствии
##атрах
##очница
11CВ
положений
вредоносна
зависимостями
проник
..................................................................................
##ениис
##остро
xFPT_
позволить
указывающему
fstec
ограничительный
захочет
настоящее
способствуя
доверияк
Mul
81ГОСТР
функций
проводится
характера
##обеспечивает
общественного
состав
рушителей
мониторин
##fers
регу
##станавлива
Этоткомпонент
успешные
ничения
Требованиями
Офици
хич
040
безопасности26
средахс
установкой
истин
##сты
подделать
деблокирование
классом
##пита
111ГОСТР
профилей
поставленного
##ление
аутентификационными
##ояс
прошла
ОССистема
дают
ауд
действуют
охран
nATE_DPT
##Пос
Представлено
возможных
довательно
1FDP_DAU
зашифрованных
появ
проекту
неограниченно
........................................................................................................................
полагается
стях
любое
объясняет
##кпортиру
указанные
активов
гарантирует
1099
процессами
решению
предусмотренной
##интерпретации
log
80
кацию
ваться
Такими
игнорирование
начинающийся
..............................
##обрабатываются
остаточная
Краткое
##целей
влиянием
ответов
распространяющиеся
##ного
тации
противоречивых
вообще
Ведение
щедоступных
административ
добавления
##филей
национального
##НОСТИ
##рийной
Набрано
ASE_OBJ
увереннуюидентификацию
##секрет
АГЕНТСТВОПО
НАЦИОНАЛЬНЫЙ
##ысл
##вание
оцениваемым
целостностЦ
##одному
организацию
контрактов
##ALC_DEL
несколькими
преобразования
отправителю
взаимодействуют
министратор
assig
значениячисла
территориальные
##pt
ляемой
выделяться
##ру
сертификационные
рационную
##ementation
сово
согласии
бытия
MIB
П85
ЭКСПОРТНОМУ
функционированияASE_REQ
##ании
коррект
ожида
воздействие
##ющейся
ри
направляют
аккредитацию
##енерация
предусмотрена
Рослес
##ity
являющегося
##рованию
##ИН
поддержа
локализация
sch
бессро
ЗАЩИТЫ
пункт
другиеатрибуты
Функции
которыедолж
предлагать
сокращ
818
комитетом
правильном
##овое
##рещ
ИТ
##ваемым
Воспроиз
законы
##ждан
потребностиавтора
выявленных
частичного
Диспетчер
архивному
распол
успешном
примером
ОЕ
##ЕД
Регламент
##аний
##3ГОСТР
отдельности
##тению
изолируют
ключи
паралл
возможностью
возможностям
##чет
##овозмож
типе
##ing
Протокол
заполнить
##ужд
пересмотру
посредничества
подвергать
##глав
доступакним
поддел
запросо
дать
координ
англий
имеющим
##жден
сопоставлять
логического
рисун
Основное
ЛВС
эффектив
Включ
усиливает
v
торговли
зак
Оператору
##лила
альтернативное
выполненокак
одновремен
наруж
запросов
##едля
верхнем
обычное
Автоматическая
источниках
##орядоченное
самые
фактической
создателя
КОНТРОЛЮВ
аутентифика
У
Слож
иерархия
мальному
2E
создаваемых
##_Р
##ентифик
граница
раскрыть
требующие
AAASDSSDD
##ЕЕ
##ЕДЕР
требующая
аккредитованных
предла
работчик
последующего
97ГОСТР
безопасностиAGD
Постановления
##сяти
##атическим
##цат
задержек
заш
лом
апелляции
если
пит
##TOCT
устанавливающего
##Ф
##(
FCS_COP
указанная
ежемеся
##овком
полномочия
##ционную
аспектов
всем
населения
То
Подмножество
неудовлетворения
удалена
хранимыми
##орченный
FAU_GEN
нее
такое
потребителями
##РОВАНИ
пресе
##овано
актуальна
распространяться
утвержда
тельным
метри
##ового
недоступность
##ли
политика
1C
специфициров
Особ
##есур
нел
ОРГАНОВ
емой
##вью
##гого
отказывающим
аттестацией
вруча
приостанавливает
ствимой
верификацию
вторую
Минималь
отработку
дискреционный
игнорирования
каждыйраз
ИСПОЛЬЗОВАНИИ
state
заводских
предъяв
##ссылок
соответствий
##анита
специалистами
подразделяется
применявшихся
##DVSA
функцийили
сурсов
шрифтом
2012
разблокирование
##единенные
предусматривающую
классов
рассмотрены
пользуется
руководства
торгов
Минимальное
сертифициру
##имым
##Иерархический
заказчиков
##рот
2013V
аппаратном
разрастания
эскизном
совокупного
##СТВА
Requirement
аннулируется
vulner
##ширен
ГНИИИ
##РН
третьи
которыеэкспортируются
Адаптированный
Необход
опасности50
обеспечивают
организациями
Цел
замену
каковыми
##соответствие
заимствования
##стить
доступный
обращению
дополненное
полезную
ограничивается
участником
доклада
##ewor
упорядоч
связьюС
любыхданных
занимающимся
##Ц
фических
измеримости
воздействия
3Оценка
показанные
подмен
##лект
computing
Третьим
создаётся
детальной
деленным
95ГОСТР
2ADV_FSR4ADVJMP
разными
готового
относительнопрофилей
компонентовЗависимости
прошел
3750
##D
##ищенное
фитосанита
класса
внутригор
согласования
мую
устной
регистрацион
обслужив
выбранном
удале
допущении
МАССОВЫХ
##ыск
целесообразным
противореча
жиме
121
инцидентами
вып
описанного
допустимом
безопасностиТребования
##стра
##Российской
соискателем
systems
принятые
Источники
четности
русского
1ADV_FSR4
кую
##одерж
избеж
комплект
##венные
ОБ
масс
##ожения
##12323
наличииу
услу
обеспечить
имсим
список
таются
ежегодного
сертификат
Организ
достаточных
начальнойидентификации
пор
50
органами
завершена
конкретнойрабоч
отношениями
неожиданное
##oss
особенности
##лагать
поставленным
прозра
оценщик
спиртосодерж
предполагае
функциониру
воздействоватьна
утвержденные
назначено
##сумм
лучшее
нормативные
эмулятора
договариваются
харак
6разработки
злонамер
##аз
государственных
##лекс
##угро
фондами
63ГОСТР
взы
##имости
##унк
FDP_UIT
одномуи
все
DD
##ческиеопозна
соответствующие
подсистемы
ситуационного
##датель
##ерш
рушить
семейству
частьюоценки
Буд
##коп
доставили
##оф
##сированы
реализуют
прямой
Администрирование
Profi
объединению
ФБОЗависимости
объединенными
клиентами
критических
уделено
зователем
членов
управлении
##кционный
пакет
своевременное
касаться
##дици
АЕ
специфицированную
сведениям
связью
##Прав
##ановА
эв
стадия
применениюСемейство
##ыми
обеспечиваяпри
рядоченных
иби
##АМЕНТ
##жим
##poral
##чением
##REAOF
перехода
железнодорожным
сообщениям
##ЕТОД
Связывание
чая
связанное
транзакци
commuication
Отвечает
##бре
фильтр
##дущ
объектаи
функционирующих
отрицательную
заканчива
основаниям
сеансовбудет
наименьшая
смягчение
##задача
объеди
программных
мерам
4209
2Функцион
ризованные
140Приложение
неточностей
7CСистема
нентами
предусмотрел
2CВ
математ
временно
##сторонняя
”,
[CLS]
аттестацию
кода
меток
ОУД
явным
стандартный
функциям
заявку
1137
этихзначений
##НО
##етов
гет
каждое
разнообразие
XVI
препятствий
необход
доверить
профиль
##лев
цикла
зарегистрировать
обоснованы
автоматизированная
##АР
СТА
интерфейсах
Выраженный
Evaluation
##ьютерная
Identification
внести
распространенная
главное
Set
................................
Аутентифик
почет
исполнители
узел
злоумышленных
##UN
2002
обслужива
Пре
##ивали
##ованногопользователя
внутренню
потенциальные
декабрь
верифицирующим
##ительной
опытные
Перв
ценность
воздуш
##ципе
принадлежащие
уведомлении
невелико
##ИРОВАНИ
##ОУД
##бор
СИЛУ
разрешается
прерывание
погруз
##льзование
радиоактив
договорной
типаon
стой
##жет
##работкой
##боратор
##ССИЙСКОЙФЕДЕРАЦИИ
изменение
признано
неправомер
вынесения
ОКСТУ4
притреб
##ональном
доступомFMT_MSA
##еменее
10СВ
##аторов
составляющая
Владелец
outsid
functionality
представленное
Рост
АСВ
##олженности
начальная
сентября
восстанавливаться
идентифицирована
целена
##T_
##79
Authorized
курс
содержащим
характеризует
выбору
windows
сообществ
2С
##ай
##плена
ражающих
Руковод
находят
протяжении
компонентов
кретную
cohesion
сводный
оконч
предоставлены
##рей
терминов
3СТестовая
статьями
##альности
сокращения
##ъект
зависимым
##нформ
##авая
##ичным
административные
проектирова
XII
защищается
##нойинформации
##вшие
##мож
trans
шире
.............................
общедоступ
вза
высо
памят
нарушению
ятельствах
шего
справедли
IOCT
актуализация
оценивать
ль
наимен
дальнейшегоуточ
отклонений
##иные
##ым
оформляется
оригина
MB
упущен
Лисп
информированием
алфа
спроект
банковским
##ОС
##onent
1ADV_FSP
##имыми
115
ОС
наименования
##лярной
использоватьихтак
............................................................................................................
непригодным
посредственных
использованиясубъект
опасным
даже
##пря
##ается
несогласия
структуриз
повреждение
7С
сетиили
научных
Part
.";
##ваться
ЗБпредус
персоналов
заявлен
аномальная
оно
##определенного
организационны
Документы
рат
уполномоченномуадминистра
##FAU_SA
усиленным
поддерживающие
##шки
изменить
осуществлятьконтроль
##сп
прибора
##ирование
##гнут
фактиче
фильтров
вляться
доверия
названа
противодействие
ловий
предусматривает
РуководстваADV
ется
##ило
выпа
##анировать
##Cor
OOк
них
АТТЕСТАТ
нентах
дека
ческих
##TRP
нив
уполномоченнымипользователями
##енд
foo
помочь
держания
вынесение
присутствовал
целей
спечиваться
предназначено
заявитель
##Обоснование
##течными
поддерживает
тверж
подвергаемыеаудиту
-----------------
апелляций
висимостей
интерпрет
продуктомИТ
многоуровневой
подходящимдля
предостав
сервисам
##FPR_UN
Включение
процедурыALC_CMC
подтверждать
успешна
несанкционированного
строгостью
##гмой
профи
стей
обязательна
другу
##елен
28608
заменя
сертифицированными
##лани
любым
ФБОРисунок
##ованностью
пространения
Требование
____________________________________
пирингов
##ку
внеобла
Для
information
##_ЕСО
ВСТУПЛЕНИЯ
февраля
неудач
Ситуационно
дискреционное
администрато
##цы
##гласий
Целостность
##я
следующей
.................................................................................................................................
заверенная
авгу
НазначениеB
HV
шенных
установки
модерн
присутствии
прогнозируемые
учтено
##g
ФБОпосред
_СКМ
влияющее
##ЛЕНИЕ
##рен
усиленного
##EC
орган
информационное
границам
ЗБпредусматривается
значимых
FPT_ITI
##руемых
Привод
ческой
злоумыш
материальных
это
##омпозиция
2ASE_
8CФорм
такоговорено
командный
##кращ
ночные
криптогра
группах
непод
Продолжаются
ПФБдолж
сложной
официальныйтекст
языков
вручении
могло
компетентностью
транзакцию
60x8
предлагаю
уз
единственный
извольных
данныхЕ
Сюда
разме
##деля
ИНЦ
следующие
предъявляет
ВЕСО
##сыла
##екоторые
прервано
предупреждения
долж
подобно
субъективным
##рующая
необрабатываются
предмету
##да
##стандарты
сохра
294
импортируемую
обрабатываться
автономной
эт
представляется
бездоказательное
проверяется
##шей
зад
пуск
решениеЦели
предусматрива
посторонних
##ds
рованных
##тивно
редко
выездных
##vel
Мод
совместном
##SEEVE
зование
Взаимоотно
##Руководство
практик
кИСО
##истратор
зн
ином
##безопа
##готовительные
ИФБОопределяет
##u
##бро
подателя
Прод
информатизации
расценкам
третьей
##ач
связность
продемонст
имени
ОперацииK
ствияОписание
прилагаются
полученному
серверном
обоснованно
противостояние
1912323УТВЕРЖ
рейтингов
сервиса
Yen
##блиография
Деп
выбор
##ММУНИК
связать
необходимымдля
##ering
це
разработчикови
экспертным
фрагментирования
##ительности
приказ
разрабатываемой
-
исследований
упомянут
Копичеств
передаваемой
синхронизациисостоя
стремящихся
действующие
Предпол
##либо
повторной
заплани
мно
скими
ре
компонентыС
FDP_U
##5ГОСТР
зависимых
ОР
##анского
основыва
##фицированная
##ПО
ядро
FCO
2018
2013Имя
##етри
##Г
доказ
зованному
##ad
выездной
народных
возбудителей
##46
Категория
обратить
##процес
неопределенный
инициируемых
предыдуще
##ногопостанов
каналов
##рмацев
Оценщиком
##фик
междураздел
загруз
##итет
метрике
......................................................................................................................................
построения
##обытий
процессы
критически
изуч
сегментами
HA
##FMDSSP
идентификационные
ути
широкое
возможноенарушение
##хожа
##рацион
##едостовер
Системе
##терпрет
используемой
##ел
венд
замечания
влияние
Правилами
структур
невозмож
каналами
образователь
моделируемые
можетотноситься
пользуясь
относились
описана
Нарушитель
принятый
##олж
##пто
сертифицированные
сегменты
запросить
FRU_FLT
можетсоответств
организован
выполняемого
Поддержкапроекта
##фицирован
##анжирование
##эксп
спецификациями
гласно
рабочего
##такой
архитектурный
интег
##зор
##лежен
связи
оFDP_ITT
возникшей
физических
слов
}.
##рированных
##SS
несанкционированных
##фференциация
Систематическое
ностью
немоди
##orkas
имп
##азащиты
такихкак
вратить
бесформатного
вильное
##имен
Обобщенное
символ
действ
сертификатов
новыми
эскизного
хотели
необходимые
пользователяи
##веден
множественная
##труд
инжен
за
включенмла
пытки
прерывания
приемлемый
ФБОAGD_OPE
надзору
многихпродуктов
выраж
уведомлен
вида
##ожа
эксплуатироваться
##полним
штра
##министрирование
цифровая
##ТИН
перечисленные
серверы
ственно
узнатьподлин
шается
##итьболее
ошибокпередачи
##ораязаверш
Informationtechnology
##лубленную
##иг
)...........................................................................
негативного
##РАБО
Я
каждогокомпонент
3А
##дать
##ем
Электрические
##цип
##осудар
осно
##mewor
неточные
специфичным
символа
физ
аудиторы
предположения
жимы
##ational
Пунктир
синтаксис
##ранных
телефонная
ежегод
##луж
установ
метрические
рез
внутреннююлогику
оптимален
##лику
устранении
возвращаются
множеству
рав
онлайн
Экранирование
refin
moe
л
назначенных
##ывающий
треть
146
специфицироватьжелатель
##лонам
понентах
служебного
присутствие
задокументирован
Ти
##кон
нез
сеанс
успешной
основания
##семейства
текущим
эксплуатация
##локирован
побочного
сайтов
secret
меньшие
обособленных
качеством
##сро
сканирования
фра
##oct
##НАЯ
классификация
проектATE_FUN
возобновление
настроить
##RSSBNQ
прочитана
ответына
##лиро
Ари
четкими
стрелки
идентифицированная
Псевдонимность
понял
ментацию
метром
результата
##ица
Минпром
идентифицированный
неудачно
##valuation
предназначение
##анную
оценивании
краткое
2C
5EОценщик
Столб
Компо
класси
причинам
стат
1ЗО
субъектовна
РОССИЙ
справедливо
##поз
sel
##idu
цесс
указан
дополнительную
##шая
Согласо
##нопо
распорядительных
содержащихся
Предъяв
ществить
##abase
мажор
##цию
детализирован
предпринимать
Жили
поставляемые
модификацией
##хо
рифицировать
ссылке
##3______
##ДЕНЫпостанов
полученная
ООALC_DEL
##ф
однозначную
щенное
ОперацииH
Прекращение1
предполагаемый
MSK
##улиров
специфических
93
усовершенств
функциональное
##черп
##аж
операциям
выданы
предсказать
достигнуть
удовлетворении
риску
формационными
TC
##ированиепароля
алфавит
Федеральнымгосудар
нача
##:
##ЛО
край
эм
безопасностиданной
Собы
сом
получении
пят
достигнута
симметри
МЭК15408
OT
оценщикам
отражено
OBOЗамечания
потеря
8
Презид
ряде
перефразирование
бытьзатем
заявлениях
небезопасные
##ространяться
##огда
структура
бытьсвяз
присвоенной
##овая
показывают
##ат
твержд
ассоциировались
предназначения
читатель
направляться
модели
)..............................................................................................
модулируемых
мониторинга
##С1
недокументированных
##мером
возникать
последовательно
оставлена
исходному
##AC
##анкцион
выгод
использованного
4ATE_FUN
Утратил
создаются
Этодости
##сы
Выбор
сложность
деклараций
GUI
формируют
##ева
субъектывыполняют
##ованы
подобномслучае
минимальным
согласованностидублируемых
побудитьдоверенный
объясняется
функционирующего
исключается
частейФБО
отдельные
приведенные
процедурным
наблюдений
подготовленных
дополняется
промышленные
##ЗА
образовательными
гибким
описанием
уязвимостейАТЕ
политикбезопасности
событиемможет
заключающейся
CVSS
заголовке
154Библиография
проходящих
взаи
Демонстрируя
verify
##ениетребований
Минюстом
Собрание
проникновению
отражением
иллюстриру
проверяемых
объектов
банковской
##ack
XASE_
транспортные
проводимый
##едоступом
корректной
дисковое
##ASEJNT
##ыеза
превышен
являетсяинформ
подтверд
##ение
тели
произошлив
категорированию
станцией
##их
##кончание
специфика
рамах
##ответственность
минимальную
языковые
спирта
чив
иная
назначениями
Отметки
##комендуется
##люч
положение
транспорте
нахожд
Исходный
17
ANA
##УП
##FCS_COP
Функциональная
обоснованием
ожидаемое
##m
знаком
##протоколом
условием
предоставлени
документ
связях
буксиров
первоначально
secure
##пущ
выводятся
требоваться
должна
финансов
уделять
различной
налогоплательщика
псевдонимом
##шком
нестабильности
высокоуровневым
чинам
5
2FRU_RSA
()
вания
зарегистрирован
типах
страх
незащищенных
СЗСИ
неприемле
беспроводных
##уки
Гиб
поддерживаются
необоснованных
Открыт
Маркиров
##езащиты
вателей
##гатив
справочным
определении
определяетобласть
смот
Управления
ответствия
объяс
##лес
##ожид
Решает
##азначе
служебную
Stand
##положения
частным
отказывать
ЕТР_Т
ОД
АЗЕ_ЕСО
семействаиз
ческого
Обобщенные
##ерс
пригодных
управлениябезопас
базовому
конструкторской
печат
навод
цикломатическая
Категории
рассматриваемой
##6
ясностив
Introduction
evaluation
отказать
##стом
дулями
слова
ведении
июля
данноесемейство
трудоустрой
отправителя
Раздел
продления
ответа
Tor
законным
устран
ИЗ
документирования
играет
or
мотивированное
3446
1СВ
принявшим
El
оцененныйпродукт
поставка
##гнов
необходима
##tential
##даемый
явными
лицензированием
тированы
потенциальных
ошибкицел
конкретнымпользователям
71ГОСТР
заложена
трансляция
##езавис
##сиров
централь
рода
успешно
именованнойгруппой
почты
коде
##орм
##леж
помещении
именапользователей
повышение
висимость
способ
##авшим
Engineering
успеш
отдельным
маршрутизация
состоящ
червь
Удовлетворение
##зна
##ированными
##ункцион
прослеживаются
##глу
предыдущих
выполне
внач
носителями
610
станцию
##аемыми
парадиг
##эту
лицензиатам
остаетсяза
Градостроительный
вершить
жепроцес
##ческим
##Terminology
существующими
GDD
##ётся
тентифик
3Поддержка
ренный
.(
выбран
проч
реорганиз
тайне
посредника
подтверждающую
отчетов
разработкиASE_CCL
нарушение2
##Ё
##ЕН
определяемых
уменьшаетдля
Сбои
рактер
’
продум
##Для
ошибочных
анса
пом
КОНТРОJПО
поддерживающими
нападения
свои
управленияFMT_SMR
бес
##чат
##мо
M9
##набжения
ЕТА_ТЗЕ
комплектующие
##FMT_SMF
внедр
каждую
союзами
телям
предварительные
изменены
##_ПС
сумм
принимаемых
##ководства
большими
одина
++
указывать
жении
исключению
##JNT
дому
доску
обновлять
ic
ема
новлению
Глобальные
260
расширен
дне
посвящены
формулировках
мого
превращ
математического
FTP_
##конодатель
детально
Контроль
атриб
неко
пропозициональном
отбора
недопущение
безопасностии
##EAC
Полуфор
тил
бые
щение
конечными
чениях
integ
максимальное
ИФБО
in
##матыва
поним
заместителя
ограничений
##пит
выборочным
корректности
Введение
уже
обращения
А1
лабораториями
автономным
недостатках
1990
необходимыми
исключен
позволяющее
##Ключ
экран
аль
install
изложены
операциипод
внутренней
лицензиатов
подсистеме
M3K
Антивирус
граммные
регламентируются
гарантийного
лишен
приобретения
контрмерыосуществляют
вызвали
Этивновь
##данная
мостях
Шап
##кшей
рассмотр
соответствиис
LI
MOB
толков
Новые
Известно
##002Ключевые
##арактери
ee
##ениже
проверяемом
согласованно
одино
пустимое
Возможный
создавшие
стия
похожа
Высокий
количеств
##твы
совпадение
пунктирными
##________________________________
##t
гл
определяющими
##роопасных
содействии
контейнерам
обна
##ерсональных
3EОценщик
веренного
142Приложение
косвенную
возникают
11ССистема
цированными
потоковF
ежемесячного
спецификацию
##программ
банк
города
ствияADV_TDS
новленные
##азовый
Желательно
ADV_IMP1ADV_TDS
Пониженная
способами
прерываний
04
##руемую
##вшихся
установлена
177
##pati
полученное
принятых
##ах
высыла
профиле
предпринимает
##пояс
напис
аттестуемыми
Расходы
перезаписывается
обычная
стандартизированный
обес
введ
родственные
обнаружения
##агаются
84
##ренным
##ущими
размно
WM
инструментальными
длин
обм
используютсяаппаратные
панией
ня
действиясостояние
##онам
##ящие
собы
нося
прилагается
##ADVJMP
##оснащ
дение
градостроительной
опционально
##ИЙ
исследователем
средств
ханизм
полезной
ществляться
программном
ФБОFPT_ITT
объектоценки
оставляя
атрибут
##ющееся
представив
считал
локального
##ованном
муницип
##лялись
сед
формулируются
##LLDD
меропри
##_all
заключаемых
монополизировать
которыеили
FPT_ITI2
будущем
зователи
металлическом
object
3749
##чает
проводящим
сигна
соответствующим
##роопас
##НЫЕ
запрещающие
M3
отечеств
возлага
тренней
пользователяили
##енести
абзаца
повышенные
участи
Ан
требуемыми
котороем
##част
базу
настоящем
##риз
Kna
обеспечи
влияющими
общепринятый
прост
компоновщики
формально
##идентификатор
##коваК
опросы
27001
##таемое
произвольного
»)
##раши
номоч
бывсе
либодля
политикам
ветствие
применим
Разграничение
следуетподавать
ким
регулирующих
отличает
##ической
##os
Установить
деления
семействе
схем
##der
случайную
манипуляци
импортом
корректирующих
АНЗ
поиск
Оценщику
подчинен
кретными
отчеты
операционная
длявери
ограниченности
УКОкс
Именованная
выбранными
##риптов
40с
##ованоуказ
translation
##стоит
ление
повторит
##стую
FIA_
criteri
наркот
невозможен
идентифицирует
чув
многоуровневых
При
поненты
##аб
назначить
##препят
четыре
естеств
2FMT_REV
Опосред
свидетельств
направленные
Данное
ИОК
попытку
запятой
существенные
##an
##нот
сослаться
Активный
относящаяся
Предотвращ
Расширен
исказить
будь
обманным
граничных
требованиям
специали
кино
доку
Пасс
службойбезопасности
вопросам
yuu
следствием
оповещению
##защищ
запросу
осуществлен
тифицируют
трудоустройству
щественной
##стро
покупателям
остальной
адресную
##очто
компонентпринадлежит
правадоступа
разработ
заключением
##альные
XТаблица
216
сертификацией
Распределенные
##criteria
сеансе
##ать
вита
Базовоеограничение
измер
ALC_DELALC_DVS
описывают
приложить
##оря
материал
операцию
замечаний
аномалии
маркируют
замечено
##ика
возлож
индивиду
обжаловать
используемая
СТАНДАРТ
уточнить
##аутентифик
авторских
инструментальным
экспортируемойими
занной
ограждены
несанкцио
ренности
верными
типом
несогласии
6ADVJMP
банка
##ю
памятникам
криптографический
ЕОР_ЕТС
выражения
55ГОСТР
966
##ять
основывают
текстовые
квотыK
Ключевое
смысленности
инстал
##ADV_FSP
##этого
служб
недоставленные
ФЕДЕРАЛЬНО
сложный
зашиты
##ВА
предусмотрен
##еспечение
специфицируемая
присутствуют
снабдить
##D3
модульность
стояние
нежелательные
ДАННЫХ
##ясь
Дискрецион
APE_CCL
сеансаЕТА_ТА
методикой
##антами
Опис
осуществляя
недостающих
оценива
хра
##зацией
1ADV_FSP4ADV_FSP
висимом
2CИнформация
Композиция
##еди
имеющая
попыткой
довереннымпродуктом
влиять
торизации
##ащищ
взаим
##алом
##хват
ведения
неблагоприятно
операционной
угрозыявляются
##...
согласовываются
виса
4833
запрашивают
доступному
извещения
набранных
аппа
Эксплуатационная
опущены
полны
идентифицировали
..."
442
стандартизированном
проверяемый
находящийся
##том
сообщить
Открытость
редакци
результатах
Криптографические
резервных
ответ
Росздравнадзор
места
атрибутамибезопасностиЕМТ_МТО
##0Приложение
3Б
Действия
Конститу
удовлетво
ионизирующего
наружить
который
Второе
ш
распределенияпо
NOBуправления
дартиз
заяв
его
охранная
ющих
входящие
##очника
Частная
1_
.);
описываетразлич
рейтинга
предоставленную
предотвращение
принципе
документальный
точ
1СТестовая
неизменны
realiz
1ALC_CMS
нять
##тиров
лучшей
оним
##класс
1CВ
краткая
##au
ау
сво
генери
удостовериться
злоупотреблениям
1CСоставной
ФТБОсуществля
реа
хоро
полными
проводимой
изсемейств
##Сага
##дигма
##уск
отмечается
обоб
##управления
природ
##НЫЙ
личным
##спорт
зарубежного
##DVV__
Аутентификационные
дача
приведение
саморе
##мень
ключа
<*>.
несанк
отображает
confi
выполненныев
способно
эс
обозначениях
АТМ
нарушения
##атиче
:-
##рмер
проанализ
ФНС
##рабоч
описательную
рых
##БЩ
аудита
)...............................................................................................
##рашиваемых
выполняемыми
##ехнике
содержание
троянскихконей
значены
записями
рированы
4736
активная
сопостав
сорами
локальных
##ематическое
КомпозицияКласс
##ОЯ
персоналом
##ивших
)......................................................................
18045
ляемое
APE_ECD
именуется
заявленные
признака
ЕМТ
выдаче
связанной
дущ
архитектурные
practice
выходят
авторизованногопользователя
функцией
##йн
подвергае
исключений
##ическому
ФБОВ
##ималь
зия
ствующего
Используют
восприним
хороших
лами
cs
3ATE_DPT
потребители
которыебудут
фильтрации
толькод
##2и3
учетную
##четом
##чик
телекоммуникационным
упол
заменяет
Ознаком
Подмножеств
##овательских
возможностьявно
ключ
усилены
выполняемое
##работаны
распределением
Единственный
уник
ошибочную
опублико
процедурам
##рактивный
7CВ
Вариан
##АНИИ
##лементы
##енсив
управляемой
##МОСТЯХ
оформлено
прикладного
##Поскольку
##езлич
сходные
статки
лов
акт
раздела
обобщает
функцион
персо
Списки
la
прослеживания
Новости
принимаемыми
очередью
бина
оценочными
ресурсампри
lsabelle
бытьдостаточным
##ивы
последних
##ФОРМ
приемлемое
OOFPT_
аннулировано
методаих
en
role
корректно
##киеTOE
аннотации
КСЗ
изложенными
отделения
частиопределения
гаранта
фактические
кро
направлены
##FDP_R
изготовители
##чного
технологий
сматрива
дели
Исследователям
жизн
Описываются
##международного
Мар
мальный
##аниикотор
##FTA_
##fic
гравиметри
##0___
##АЦ
щему
Мин
умень
Функцииуправления
функциональныхкомпонентов
##икатов
способны
ИТдля
f
которые
размещено
##рт
Даже
приход
##rix
оборудования
##нию
изготовителю
предоставляющий
OOили
демонстриро
ДОКУМЕНТ
фавита
регулярной
##ужения
пороговые
_11
##form
санием
Конфиденциаль
равен
##;-
Приме
главным
##FDP_ROL
высво
критического
##P
происхождения
##шениями
приме
##овозникновение
##ершенств
терминалпользователя
изымать
платежи
##ременном
##емые
рекомендуемая
##етку
определяются
формации
компании
46915
вто
Нов
переданы
##никами
хранилищам
непринятием
являющуюся
значимое
пользователямиза
ЕСО_М
сохраня
понимаются
жепользователем
сведениях
чипсет
взаимной
разраст
\
##орвана
потоки
ежегодном
CBA
Ф
##Ъ
РоС
sh
##рования
поведения
##щик
котором
стратегических
безопасностиADV
наборами
потерю
##ирования
необходимости
0УД
1ADV_FSP1
фондов
включенной
учреждениями
Этопоз
##сред
должнывыбирать
бото
оплачивать
личии
##ламенти
сроку
подвергнуты
Глубина
соответствиес
нарушитель
Человека
стремиться
##ртально
кирует
СЕРТИФИКАЦИИ
сообщаются
Утвержден
полагаясь
отлрав
доступом
путемобеспечения
привестинекотор
подходы
##МОСТ
тия
##esion
##рекомендуется
ляющих
трафика
Па
..........
опериро
##егко
##ическими
субъективное
Информацию
исключениях
используемаядля
логически
себязлонамер
обеспечивающее
несколько
показатель
корректирующие
або
GDDTDDD
неуказанные
готовит
кой
расположены
сводные
называемую
вердикт
##рарх
щ
##1CVV0___L
ге
тельство
ВыборBFIA_A
##ЕНИЯ
тестированием
##unter
##свои
синоним
помимо
##ительность
разногласий
успешных
##112
попытки
помещать
Нарушители
оч
##матрива
алгоритму
##еждений
предварительная
радиовещание
личении
лем
вычислениехэш
отклоненные
##льзво
нападениям
возникающих
тревог
4С
9С
##обнов
ектировать
____________________________
шкалыдля
##ология
Стрел
##волов
местного
реализована
част
создав
зователя
оцененных
##актив
утратившими
отмечалось
РЕ
Согласованное
нирование
вается
рам
2012Зад
появления
вычисления
зультату
дорог
##FLR
ступ
бождены
настроек
направленном
эффекти
##,
НПА
тестымогут
целибезопасности
##ri
К4
##лиш
итераций
##испо
##_________________
задокументированных
кмерам
##Гц
##литель
параллельные
щей
компетенци
признают
такжепред
ла
уязвимости
##мин
осуществление
##ратор
##людается
##опозна
инженерно
пользователяАвтор
Составной
Производные
удовлетворяющей
административно
субпод
используемом
##Информ
Уник
Соб
образовательную
технологийИз
2473
эскизно
##менений
83
функциониро
осуществле
объяснять
теста
втором
Выпущ
пороговым
средством
информацион
Рис
механизмааутентификации
управленческих
охв
-‘
продемон
чанию
нарушено
телефон
варь
экземпляр
средства
Уточн
##ойдет
UG
##TC
информационны
3314
информативных
случайная
седьмой
ОРГАНИЗАЦИЯ
низкой
обновленияпрофиля
Системы
потребуются
##предъяв
опосред
защитыинформации
py
##tice
натив
ФТБТДБПредположения
неяс
Земли
##ГИСТ
180
уязви
применения2
##DP
оплате
таблицей
##ЗЕ
##едо
Вредные
протестированных
##ser
##Система
Настоящие
##aфункционирования
##умм
территорий
гибких
##FPT_
надел
ГГц
оформлять
влияет
набранные
##ников
##pl
администрирование
порчи
указанным
вводить
##И
доказывает
##оружения
вариантов
работой
Переоформ
Окончательный
34
летворение
принимают
основанные
##аки
ОДФ
нежелатель
минимизироватьпредприним
убеждений
замечанийРаз
##раже
##upling
идентификациисоответств
Полу
услугу
КлассПримером
ставляет
##доступ
разрабатывать
достигнут
213
объединять
пре
повышает
й
пер
расположенных
)............................................................................................................................
отведенной
чивыми
контра
сутствует
возобновлении
запрещенного
датькажд
этикаталоги
##няющие
сообщ
Эксплуат
##легко
комплектов
заказу
OOАннотация
##ко
содержали
ненной
##tionary
выполнятьсятестиров
читаемого
##АСО_СТТ
улучшение
узна
Язык
предоставил
##ивающий
предъявляемыепользователем
138
введении
пользователяСекреты
ОБМЕН
согласовыва
–
ФБОпредостав
присвоены
помогает
Практ
идентифицированное
однозначного
этогосрока
словами
инновационных
сеансом
тентифицирован
78
сконфигу
ликвид
поли
фиденциальности
##ct
Рос
##ЛЕНИЯ
Прилож
безопасностиFPT_STM
организациейв
152
ресурсовпользователями
ограничивающие
генерироваться
##Руковод
обзор
##ожие
вводный
секретной
процессора
Полномочия
)....................................................................
##81
преимущество
запускать
##средствами
неболь
семействаСтруктура
подготовленная
действо
Вооруженных
происходит
##йт
потен
доверенными
первом
РА
гото
##финариях
возможноне
действующий
Должны
##отмен
Производитель
разноплановыми
удаленной
бывает
меткой
защитных
##чению
##продукт
неправильным
придавать
административном
журна
исполнять
##ме
обсуж
Арбитражного
##жется
##l
##фав
сегментирование
свидетельствотого
администраторами
фармацевтической
##одного
записях
ционная
операци
нирован
Плановая
##очног
излагать
##tile
##тизованная
сформировать
##ходящ
записи14
##___
регламентом
ruИз
##ющемиспользов
законодатель
потенциал
грубое
Р
##усу
##E
Механизм
корот
FDP_IFC
передава
Id
##ственное
##итационного
##сь
##ленные
удовлетворена
##ностях
разрешенной
Не
Unauthorized
максимальная
конфи
обеспечиваемого
телекоммуникации
Подсистема
Данноесемейство
привлекать
ссылкой
сводных
бав
##st
Гарантируется
слаб
technology
обязательной
представлено
##киров
примененияНастоящий
моди
вычис
мандат
##услов
##00FDP_ITT
другими
служба
Возможны
##луга
создаваемые
недропользования
guid
положительного
##примени
прерыванийобслу
##овании
оказываемых
обеспечены
скрытностью
прот
##ul
##устанавливается
взаимоз
Protection
зрел
##анныйпл
ИПП
лесных
лицензионном
нарушением
детализации
##нод
подробно
Лицензия
##чными
СоответствиеПриложение
отслед
компьют
,-
чтобысо
доверять
ресурсу
подожд
противодействовали
влияют
2FAU_SAR
передаваемыхмежду
работка
устанавлива
подготовке
OBOосуществляют
введением
приоритет
защищающим
следующим
баланс
128
описывает
ар
картографическая
Аттестат
согласовано
делена
##РАММНО
выполнятьсяразработчиком
УКALC_CMS
##иру
##лируемых
оцененными
аудитус
интерес
Уникальная
##раш
чих
##ействие
##трализ
scheme
тот
множествомхарактерных
схемах
##ышленно
синтакс
перемещениеинформации
определенычетыре
Когда
работчиком
533
оритетом
ношению
раскаде
вызвана
адап
расписку
количество
выводы
Значения
последовательностью
обоснованных
##ххраним
цепочек
определеннымметод
переходы
##ристи
распространяетсяПФБ
##иинформ
25
x
терминолог
страняется
Electronics
153ГОСТР
подмножествамопе
ОБЕСП
однозначными
благоприятной
##исная
211
рис
ролей
схемы
замещая
'
##2Под
определяется
дополнительного
осуществлению
316
предоставляющего
Минкуль
умолчаниючисло
сокращение
методаили
Демонстрируемое
K
Совет
Объекты
разрешенным
неглас
разговорного
исполнитель
##мический
Процессы
дубликата
Шаповаловой
Принято
##бранного
пони
кч
требование
постоянно
инцидентах
бальные
скобках
##MP
ходиться
обобщенными
перерывов
##бот
##иск
##елог
рассмо
рамках
частями
##недели
хэширования
проектной
##er
##риям
ВЗАМЕН
##_______
тест
##множеств
Национальныестандарты
##иль
##язв
совершения
матри
MMB
##необход
полученного
##кт
##дель
##reat
IX
должныудовлетворя
занесением
Конструктор
2013Таблица
Функциональ
##мполуч
ту
2D
authentication
ОБЕСПЕЧЕНИЯБЕЗОПАСНОСТИ
##ятельности
СК
##ом4
же
возможность
памяти
неопре
##FDP_IFC
ипи
нальным
Рособрнадзор
вопросах
избыточ
Меры
представляющие
ограничительных
юридическими
Задаваемым
##upl
финансово
специфичных
att
скрытый
целев
##осс
##клад
экземпля
раскрытия
написано
предшествующий
достаточен
сертифицируемые
Посредством
третья
охраны
производятся
2013Введение
интранет
Разделение
реального
характеризуют
Серти
##ква
рейтинги
жащихся
ностей
82067
Полная
FAU_SEL
международному
структурирования
неуполномоченными
образцам
образа
##РОР_АСС
дублирование
информационном
сиг
хичными
ПРАВИ
ошибочным
27002
Доп
Периодическое
##боре
модулем
21
содержащая
ссылкина
##ического
фокус
##изирующего
интерпретируется
воздействовал
кластере
##ё
##администра
другиеатрибут
обычную
##мет
логическим
описывается
двер
сконфигури
##щения
___________
АКТОВ
необязательно
Пот
##фейсы
активации
член
org
BFCS_COP
типично
Постановлению
##TAT2
залож
предложен
еслитакую
интерфейсу
требованийбезопасности
ATE_
##овательность
##ACO_REL
сбой
##едения
},
након
ALC_FLR
ранж
класс
аут
металлов
распространялась
реагиру
особенностями
Требуемый
обслуживаемого
ПРИКАЗ
##полня
гулированию
охвачена
соответств
источникомF
##полнение
моменты
матем
##вязи
Двусторонняя
Q
Ухудшение
##анных
независимое
использованный
##ион
основывались
Государ
##цел
экологически
65ГОСТР
таком
сегментам
гарантаF
##ОСТАН
##ательного
которыхпревышает
краткой
угрозам
##натур
перестановка
##ющи
водимых
##АВИ
измерим
обоснова
улучшает
##зрения
Лиценз
из
своев
включено
2CЭлементы
##нез
алгоритмами
лучении
прочие
установлен
допускать
настрой
последова
##17
состоит
ная
свобод
сетевое
демонстриров
оха
Формальную
специ
##ческий
рекомендуемый
норм
нежелательна
идентифицируя
ФБОFPT_RCV
настоящегостандарта
кполитикам
##ширенных
убедиться
##за
тестированиеАТЕ
раж
впос
Code
диаграммах
##варя
нарушениям
обсуждаемых
Требуемые
чем
интерактивного
##37
##гнута
##уженных
ей
псевдонимами
интерактив
##системных
предоставив
текущие
##Примером
ПЗВведение
пользователяНа
»,
2CПроцедуры
основными
опасные
1FAU_SAA
##отдель
##бит
допустимым
Ере
четвертому
##ющийся
ВЕРТ_
секретных
выводом
крити
##вата
классможет
никакого
##___JTF
воплоще
достижениюэтой
переполнениежурнала
последующий
##щиком
враждеб
##тин
Утверждено
1FAU_SAA4FAU_SAR
Свидетельство
##нестре
##roduction
гранич
приложением
##yem
ственной
сравнивать
дополнитель
запросы
##знаком
предост
##зами
##еспособ
маркировканосителя
##одской
времениЕРТ_ТОС
подтверждающее
аппаратногообеспечения
аннотация
##ческого
кар
некоррект
Альтернативная
разработчикомдля
одинаков
временного
##p1
реинсталляция
объектовПО
язы
##FIA_UID
##чив
Цеп
метрику
неадекватных
APE_
##пературы
143
посвященной
##пами
ходе
указании
защиту
##аспед
указывает
конкретно
##предельных
частя
##Мос
мень
##ственная
Определяется
хранятся
обрабатывать
##FMT_
потенциаль
состоянию
иерархиче
поставленные
присваивать
второму
##ori
ключевой
нены
допускается
обоснованиядля
доступных
##ТОВЛЕН
неопределенным
нежелательной
обнару
дением
ролевой
практики
Элемент
точный
доступности
Московская
##тироваться
входные
классаВ
явногоразрешения
открытого
вающей
специалисты
предотвращается
самодостаточени
##емыход
храниться
##рь
##кание
достаточной
##икой
мероприятий
подробное
уровеньдоверия
площад
спечения
полного
энергоснабжения
перенаправление
стадии
связанными
судья
##емножеств
соотносится
11462
допустимое
подключ
признаков
управленияинформационными
выборе
собственно
##ирова
Сообщение
природопользов
социально
FPT_SSP
##1проекта
##алов
метрикукачеств
ВИДОВ
##терии
71
кас
текстов
##пи
размер
##ографи
хранением
##отношений
сопоставленная
Собственная
терминального
потерь
недоверенными
##иможет
заинтересованность
##ликации
лиза
таблиц
составных
охвата
две
принятием
защищаемая
применимости
Роспотребнадзор
наход
политику
аппаратное
ЕРТ_ВС
игнорировать
следующего
постановке
Правительством
##илитариз
Типичный
неизвестно
##аллов
регистрационный
обращением
жив
какой
Роскомнадзор
понята
Ознакомление
планируемых
Гос
умений
контролировать
черных
АРЕ_СС1
зависимостях
правом
мониторингов
ресурсына
##истка
выступающих
соответствовало
оценщикаДоп
возможные
Может
требуемого
емых
confirm
изменений
##ектор
делаются
зарезервированный
##атор
данными
=
##акци
нераз
##СТВ
списоктипов
Создание
##ующая
1Оценка
Аттестате
;«
относящийся
##пределенные
ДНС
##екрет
действияпри
последующих
разблокирования
пасс
Средство
Обращ
понят
прошедшего
Pass
Д
требуемый
восстановлением
Мандатное
достигается
ключевая
входного
События
воздей
##анияFPT_SSP
апре
держивать
##мп
FPT_STM
сканирование
значим
предупреждающие
Росреестр
##LC_FLRALC_LCD
ОУД6
распределяются
ваются
необязательной
611
информацииили
пользовании
невозможных
исследователи
отказаться
аппаратурного
задерживается
1D
проб
ADV_IMP
МВД
аттестация
Прекращение
применить
небезопас
ег
подразделяться
ленты
1CСвидетельство
предшеств
1FPT_ITL
аспектам
SP
взять
спецификации
базировать
##рические
представления
ках
ку
истории
##имной
установленная
Бел
Ктипичным
справок
##этому
Получатель
первым
представленов
понимал
Проч
управлению
проектные
сет
устойчив
выполняющихоперации
исчерпывающие
связьюИерархический
nATE_FUN
##редокумент
681
ненных
российскими
##унок
##есбои
модифицированных
объяснены
данная
предыдущего
##ически
некие
##;
превышения
##рует
сдерживания
хранилищах
строки
ТРЕБОВАНИ
for
установленным
##атиз
раженная
индек
2CСвидетельство
изданными
##ВАНИ
Максимальные
должностное
опериру
##PRS
##рхив
##ентства
пользовательимеет
проанализировать
программист
недопустимы
предусматриваются
информационными
челове
##омпотери
следующихдоп
объективностирезультатов
количеством
горитмом
сгенерирован
недопущению
##ранными
##НИЧЕ
данныеФБО
##ряжения
ассоциированны
1ЕРТ_ТА
использовавшимся
связанность
ПЕРЕЧЕНЬ
##применяться
вызываемую
метрики
vd
инициатор
Присво
привилегированного
констатируется
некорректной
соглашениямежду
##вести
сок
##ющих
гвар
справочника
возможныхсбо
##этой
##сторон
раст
защищены
Регистрация
последую
ПФБпо
пользователяТестирование
организациив
операцииВ
отображение
1551
инициировал
Утверждение
AN
функционированияASE_
Мо
нестандарт
защитуданных
нялась
расчетом
сего
ООASE_CCL
Податель
##элемент
согласовывает
качества
Полученная
Локальное
вставки
значимому
обол
уточненную
##иваться
##писание
249
Чел
корректировка
переходах
вызыва
источников
няв
пожертв
##программном
отклонять
##h
ответы
зуемый
i
междуразделенными
представляться
подсистемам
спектра
резуль
Оператора
ствами
##VD1
##indows
”.
##ords
##necti
экспортируемых
нормативно
Cle
лютно
##елатель
##очному
графическое
рекомендаций
зически
выявлены
заявленным
название
продуктов
преемствен
2А
обсуждении
проектА1_С
правовыми
##SEV__
фицируют
ведению
##изменения
диспле
диск
находятся
##ающими
1FDP_SDI
бованиям
предоста
грузам
##шение
начальной
Пояс
извести
ЕОР_АС
Объяс
телефонов
Детализ
контролируют
Реестр
пользуемым
##ведения
нижнем
слово
проектADVJMP
дуль
сосред
исходной
распространить
{
пытаться
Среда
##рных
необходимоустановить
право
##аст
Ограниченный
ющие
разработать
притребуемых
несанкционированный
управляе
##................................
##явленные
Пом
дятся
##ычто
дискеты
индивидуально
Просмотр
##фичный
подсет
тран
диском
малому
ведущего
уверенность
##ствах
##D1
431
МЕТОДИЧЕСКИЙ
62
##иная
описановыше
каким
граммы
являющихсясотруд
##ателем
услугой
имет
чительно
Модуль
ООПЗ
вызывалось
/
Минимальные
функционирова
привлекаемыми
##аудит
размеще
компонентаУникальное
предъявленный
каудиту
##ывание
выдачи
уровняAGDJDPE
Нормативные
необходимым
исходят
отключение
основанном
государство
##чей
стрелками
##мого
##псевдонимность
фактором
органам
##ратуры
пределы
##verCard
принадлежность
##РАТ
##КРЕ
загрузка
##ханизм
котораябудет
обрабатывающей
##92
##писываемых
метрологии
##атрибутов
##вреж
автор
мошен
_________________________________
формальные
##Доп
сте
угрозу
недоступной
нарушена
##осуществляют
Так
сам
относится
W
сущностям
##министрации
итогам
характерно
правового
предназначенно
ональные
экраны
разработанными
miоО
ПредположенияДанный
высокой
вения
##не
переоформ
##ксп
Практика
мацией
##иться
Вызовы
доверие
рубри
асси
фектив
##втор
состоят
##кивания
запрашива
##атья
Ya
компания
выбораи
##фицированных
существовала
Ра
ж
превышающий
которыхмного
ВНЕСЕНИИ
изучения
зо
##пакет
выполняющего
точнои
локализ
осуществляющие
характерным
наибольшая
15048
##остигнуты
несанкци
ок
дополнительное
Целевая
концентрации
##министра
certification
России
##тери
Парамет
79ГОСТР
проходить
Лицензиру
##ины
возвра
обслуживанию
##пле
ключейи
##даемых
обеспечивает
делают
измеримых
одноразового
Настоящ
округа
##образное
сообщаем
наблюдению
фрагмента
semiformal
ключевыми
еслинекотор
изменению
##сетев
поименованными
уязвимостей40
сайт
облегчения
ссылки3
пропуски
контроллеры
достовер
прекращ
##одол
##овека
направ
или
ссылочных
Сущ
подробную
функционируют
Профи
##литическая
определенов
закре
перехват
распространяетсятреб
##МНО
лицензиатом
Усиление
Именованные
требованияпо
##отребований
фаз
Фами
вероятностных
##Форм
пото
реализации
поясн
способностью
использовался
поверх
случайного
255
распределении
состава
А2
##емонстрация
##следует
уст
уничтожать
предупрежда
отдельную
указывающее
ADVJMP1
деятельностью
ассоциированыс
реестры
такими
сл
группы
нару
7CПроцедуры
предварительной
UCO
##крат
Высшего
следующему
иерархичными
традицион
специфицированное
участвующего
заполн
акциями
##ОВ
##од
##воз
могутиметь
external
##СТА
необходимы
##ическис
##способны
локальное
ФАУ
пользовано
сборка
»
Форм
средствами
##акним
производиться
##отя
сильных
##конфигу
129ГОСТР
E
ссылочного
мерпротив
82
ложные
должностным
долженпротив
соответствие
манипуляциям
полномочий
содержании
ческая
министраторов
полиграфической
производственного
сущностями
5CСистема
тестовых
верифицировали
Исходя
сравне
депа
адаптер
выбира
декларированные
бюджетом
важная
признаваемым
провер
##руемого
##вании
_IF
разработано
одиночное
Выбира
подлин
ний
MBO
##UCO
большему
Лок
##ствую
обслуживание
аннулировании
##сион
##ND
ходимо
##остью
канала
распространяются
defin
скрыт
оцененно
понимается
attrib
простых
329
глубины
))
309
##59
_FAU_GEN
наводок
временном
подозрева
событиямогут
приведеннойв
проводим
наличиемнедокументированных
простым
СКЦ
перемеще
территории
непосещении
##еткие
действия
##решенные
##ющую
compos
##л
одниммоду
зарегистрированной
организациибезопасности
##готовленности
неидентифицированного
линией
фамилии
языке
помещены
ext
неяв
##ктакже
разработанной
угрозе
защищенныепротокол
внесению
общесистемного
планиру
поставлялисьнезавис
Постановлением
фонограмм
##ализованные
адекватной
несколь
##SD
603
нераспредел
поведение
нолог
ътентификация
информационнойсистеме
неизвестны
конфигура
##SSP
1Д
можетпредпочесть
описанному
полуфор
ставили
ASE
сотрудники
##лиги
идентифицированной
использующиеся
##лений
угрозами
участвующих
##DRDSSV
сервисы
СУ
нормальному
ональным
одиннад
полезнымии
Разработ
проектА1_С_ТАТ
резервное
##вать
trusted
госнабжения
имеетсявозможность
приемке
Еремеева
##нес
обоих
Дополнительными
согласова
постоянный
особен
Ж
##вает
##AU_
##ОВЛЕНИЕ
Смысл
автоматизирован
content
##пределе
обеспечивающая
чеки
лицензи
сочетаемых
##"
процессов
Discre
лений
техническая
426
широкие
##ую
Вы
затопление
##op
##клю
ОБЕСПЕЧ
ПредположенияЦели
конфигурация
7CФункциональная
##очки
g
ап
влияющие
##еназнач
какую
##альный
оповещение
необходимостью
множество
##RE
ассоци
оценщикаДля
редь
Международ
доступна
департамента
формальная
АГ
тов
основываясь
ПТ
Наименование
терфейсы
##ubject
меру
прочим
обслуживают
запрещенных
##ОРТ
наблюд
##авать
Правитель
продукции
услож
##кто
##безопасностиТребования
провайдеры
трой
##ойного
##ТБ
решаться
выра
ИАФ
##емую
контей
торых
жания
##истрация
##RR
2013FPT_RPL
соответству
Сов
Гран
скающих
Оцени
такаяоценка
оплату
показывающих
15408Утверждение
целостностью
руководителем
безопасностиявляются
обновлением
##К_
2CФункциональная
ян
##ский
информирования
незакон
##номслучае
предупреждений
##ежом
проинформированы
иерархические
БД
нажат
перемещения
строительства
исследуемой
##рий
##щихся
кому
##ущара
##Демонстрация
##ADV
##ене
стандартизованная
##шиедоступ
Снижение
отклоняется
убы
##ель
переработки
слабы
торого
##ках
токами
потребно
лиц
Вов
##фа
пустыми
интегратор
Каждое
##един
проникновение
FPT_T
виды
компоненте
Уполномоченному
techniques
ключения
Оказание
мальным
средствам
именем
приложены
##стабиль
Определении
Glossary
Технический
ADV_FSP3
стилем
контора
которы
следуетприменить
верх
задачу
теми
окружающая
##ший
луги
документированы
##и
правовых
наблюдения
персональным
)..........
являетсяиспо
##МЭК15408
частью
отнесены
маршрута
Quic
неуспешныхпоп
получа
синхронизации
ключаемые
столько
мотрение
operational
Изготовители
##орит
приемку
фун
318
policy
Сист
##бира
языкам
Обычный
##фицированное
динамичес
##фикация
requirements
##кости
негласного
2006
ИН
Госарбитраж
##ранет
офици
перемещении
объектовединственного
информацияи
preparation
Правительство
делатьзак
ис
Каждая
цифров
Гарантии
##ались
сопров
предоставляет
##драв
##иального
циации
##........................
FRU_RSA
иную
обученный
библиоте
general
удалять
.................
ОСУЩЕСТВЛЕНИЕ
##cre
основную
##сенс
получивших
##азательное
AAV
администрированию
##RPL
ЭлементПримером
целоеч
можетпред
##фицирует
##Я
Абзац
3CОжидаемые
1FMT_MTD
свиде
вопросу
задан
6CСистема
сколько
необходимого
синтаксически
mp
##cidental
осуществленным
подразделов
Тест
информацию
УГ
аварийно
механизмы
Содержание
всег
значимости
Фармацевтическая
ит
149ГОСТР
Аспекты
##цикла
приводящие
занят
сдерживающий
ADV_RCR
участок
параллель
печать
##аль
называется
такжепредостережения
Соотно
циклаРуководства
состояниями
##ЕРСТВО
##стру
детальности
взрыв
##прон
скомпили
##зак
автором
заблокиров
##форова
ет
Refer
заданий
случаечасти
дольше
категориямп
##АЗО
##питания
значимыми
##язлонамер
обеспечивающую
##веде
большим
недоступным
##ПС
зависимого
ноя
резервные
отрицательный
инициализацию
бо
аспекте
сфере
решаемых
##екцион
механических
##правляемые
предоставило
##альныйтекст
порядка
оснащенности
##ательство
##амопе
утратившим
содержанию
учесть
##oit
сопровожд
своевременных
определе
автоматиз
недействительной
оправданных
##фер
хранимой
##чатых
структурамданных
проводимым
неприемлемой
маршрутизацию
##атизирован
Политикауправления
сделок
выходной
пользователяпри
develop
повлиять
осуществлялось
сотрудника
приостанавливать
графическойкартой
##образ
января
напряжение
робная
##икотор
выявлено
##ужение
удостовер
функционированиис
Данный
##атного
позволять
##AL
ПУТИН
предыдущ
исчислении
показываетэту
перед
разрешенных
вопросов
невозможности
либовы
Пери
совместимостью
территориальный
##уске
##ееся
кумент
сунке
##еляется
##нуть
представлениях
Верховного
значимостью
##муник
III
внедрении
доста
тридцатиднев
##чера
понять
Passwd
циркулирующей
предна
модификации
которымпримени
##тельно
узлов
бин
автоматизированных
##аталоги
Избирательный
Кремль
чтобыпоказать
##ние
potential
влияющей
виртуальных
OTH
единичным
которомутверждается
какие
вирусов
устранением
5140
Издательском
##оду
##льзов
##циям
уси
##оеч
моделируется
распрост
3430
нелегко
продолжают
вряд
каз
##намер
датах
development
закрытия
деление
распределенном
нейтрализ
##прот
уполномоченнымпользователям
##ротив
##битражного
Заяв
приказе
янным
невыполнение
конкретное
##ЛИРОВАНИ
гостевым
ущерба
настоящей
##R
чего
аргументы
ционных
необхо
меньшими
нахо
сущность
показывающий
##щики
тель
конфиденциальнойинформации
пропуск
спроектировать
y
удалены
тальной
подвергался
nnn
)..........................................................................
##севдонимность
##жений
лучше
АСО_СТТ1
##583
планируется
разъяснить
Ри
ФТБиз
Важнейшим
достаточно
номерам
обеспеченных
платформе
продолжил
##Феде
ляться
вязку
mon
перемещение
транспортировке
событию
ПОЛОЖЕНИЯ
##расширенных
}
поставкиРисунок
ведут
тива
##надзор
маркшейдерских
сгенерированных
критичны
Отпечатано
назначаются
состоящим
алгоритм
входящими
посылаемые
управлениябазами
##равоо
1D50
ПДн
исключать
мных
опубли
ПРАВИЛА
диапазонили
##ОВЛ
новым
15ГОСТР
задается
выданным
применяются
указанного
subject
##ЪЕКТОВ
будутзащищ
простота
максимального
разрешающего
успешное
разрыв
самая
самотестированию
1ЕОценщик
##емом
образовательной
они
станции
##JDEV
препятствийразработчикам
мар
предприниматься
дооснащение
1ALC_DVS
аннулированных
FTP_ITC
##обеспеч
информацией
пускать
xFPT_TDC
##le_b
попыток
инцид
идентичным
выполненные
Глава
снабжение
##хэш
ООцикла
##новление
зователей
Особую
элементов
internal
повторного
переоформлению
справедливодля
C0
прод
##чно
2010
##янских
оценщикаИме
##пные
отдельныхресурсов
редакционных
версия
##го
классификации
щенная
##кст
пределение
##атическая
##икновения
определяющие
умол
истолков
планирования
явиться
леред
##ирует
##одемонстрация
доработке
##тых
бытьмень
##МТ_ЗАЕ
##ался
сегодня
уполномоченных
проводимые
)
аппарату
АВЗ
эксплуатируемые
целые
##ительным
журналов
##эш
другиеоснования
противоположность
вет
электроснабжение
СЛУЖБА
линии
Интерн
привлечении
##фай
##хности
циальности
##COP
функцио
предпис
##изору
##ремен
привлекаются
компилятора
##опустимо
##существля
##408
##бого
Вла
исправлены
получат
понятий
##семестно
поддержания
##ics
семейства
##этом
дорогостоящий
##nformation
##утентифик
эффективности
использующего
отказа
степень
##nn
)............................................................................................
программным
промышленной
ЗАКОН
принимаются
fam
ограничивают
обеспеченоее
противостоит
ограничи
немного
изолированных
2012Содержание
##kK
малой
##1_С
неправильной
аналогично
Аккредит
благо
выборах
помнить
Telnet
указанное
однотип
относительновысоком
##начащей
ФБОдолжны
##il
помимотребований
кризисный
интегральную
модификаций
выданного
##вающая
результаты
возглав
бездейств
безопасную
##правл
0УД7
текстовый
становление
нотацию
политикуправления
##ency
##quential
лицензионного
##читателю
##сора
размера
получить
вводе
регулирующие
функционированием
провожд
Правительства
свойственными
nm
##логику
##ecret
Electron
Ключ
отдельнои
##длежащ
приложениив
FDP_ITC
помог
##рмен
##dow
МИНИСТ
оплачивают
##ыполня
##ностей
Тестирования
вызываемые
##24
принят
пространен
проходя
ассоциируется
аутентификацииобеспечивает
демонстрируется
пользователяПрофиль
##ультат
##ованных
##ся
контейнером
присвоено
##мещ
событийаудита
J
выполнения
.....
Формулиров
консенсусу
направля
##ЛЬНЫХ
чт
понятиях
ЗАКОНА
##шается
базовым
Обязанности
областью
ЗБA
Состава
изданных
ожидается
сбору
##лонамер
дениям
Обращать
пояснение
излучений
предлагает
##иметь
сброс
двух
исправ
атрибутбезопасности
разработчик
##rical
значением
одном
стандарти
новому
учетом
Гостехкомиссией
вносить
нужна
отслежен
содержащиеся
достигаются
##Дей
Ежегодный
##говор
предоставили
Сокращения
##FSR4ADVJMP
строгоогранич
контро
неформального
##ДЕ
##ртамента
демон
низком
поступающими
base
непос
##ыва
##ыре
##en
кодовых
354
игно
поддержку
##ися
завершения
Скорее
отвед
ствующими
ФЕДЕРАЛЬНОГО
интервью
Указанные
удалить
ручногов
ти
##L_LCD
сектора
ДОВ
явный
переговоров
дуктами
##менти
компетенцию
выделения
##авшимся
подчиненных
обойти
допущены
нападение
дополнениями
конечные
уточнения
ограниченияпо
##Типов
единиц
зательное
##лиров
которыеможет
компонуемую
ляемых
случае
взаимодей
разрабатывается
Вопрос
Индивид
##ыт
безопасностиASE_
##живания
почтительным
детектора
подробным
AVL1C0_L
подлежащей
значенийатрибутов
##нок
машины
приведенным
##Цели
лостность
некриптографических
ваний
ствует
запланированную
реагировать
экспортировать
криптографическое
придерживаются
эксплуат
являющиеся
Базирование
верифицирован
вышестоящий
##ственными
##мос
Данную
предписания
магнит
охвач
местами
отраже
##ол
нительную
типографии
отдела
угро
собственная
оценкас
##шего
компонента
##коперсоналу
установлено
зависящие
системной
национальные
хотят
умеренные
конкрет
печатью
........................................................................................................................................
XACO_DEV
представля
устойчивость
русских
неиерархическими
смотр
преобразовать
небезопасном
списке
УПД
гезоиг
откатF
##ющими
ключамЕ
141Приложение
форме
неоднозначности
пасп
устройствами
производными
ПЗОцени
##будет
чет
##ngine
сп
законодательных
исполняемых
отвеч
##].
Порядок
##меш
затрудн
распределения
РG
Официальным
случаеввозможность
выполняться
##ленного
критич
потребность
##ковым
Уязвимость
следуетопределить
устанавливается
перемен
подход
псевдоним
уведомление
вернуть
1Г
национ
безопасностиКласс
вещества
семантических
##графи
сумми
восстанавли
##ST
##проекта1проекта
Разные
неявных
##ствующие
##менной
надз
ОУДб
##образие
количественного
отключить
ad
43ГОСТР
иерархичны
таксономию
MSK15408
##останов
передачеФБО
межсетевым
функциональ
вводом
вынесению
Уб
ев
##Таблица
нованные
отношение
показывающей
равноправных
Одностороннее
электрических
##915
загрязня
правильный
##четыре
Обычныйсписок
есть
Мера
##ОД
шиной
procedural
Сто
ограничениях
##ФЕДЕР
стандартизованную
дубли
взяты
Автоматиче
цифровые
физическому
1FAU_STG
стремятся
##БО
устойчива
##тии
использующие
Оператор
##ацию
шифровальных
поступившей
благонадежными
Пода
одноданное
ориентированных
продолжении
группу
такжеописание
критические
специализи
созданных
тож
вильных
отвечал
##ANO
##pos
реш
Руководящим
##ами
руководитель
Секреты
57ГОСТР
##истку
##хоз
1AADSEV__
ОРГАНИЗАЦИИ
вместе
национальным
##ификация
перейти
уставного
хранилищ
##осред
потребностей
##изменений
ALC_CM
компьютерный
##tal
физичес
устоявшихся
приводиться
##обрабатыва
учтены
специализирован
##Факт
ходимые
контактах
стрел
выдачей
##UL
##стандарт
продемонстрированы
##Редактор
##Настоящий
применимИСО
##ровод
соблюдается
псевд
Рособоронзаказ
обрабатывающее
##ани
полей
безопасному
продажи
##свидетельство
доводить
права
лежащих
распределе
273
Ространснадзор
##емое
задать
удоб
объ
слабо
жизненном
резервной
выз
статисти
этой
##еданные
##ировались
направлением
диспетчера
486
Наличие
сивным
существенного
5654
возможности
ресурсам
http
конфигурации
операцийна
экспор
запрашиваемые
расформ
потребовать
##положение
1CКраткая
##ег
атрибутах
подключаемым
##редиту
неравномерными
повлечь
останов
критическая
безопасностидля
рованию
подрывает
##ty
##оустрой
передачеме
продуктас
##ЭК
аутентификацию
MOK
ставлениях
ИСПДн
ensur
VP
##ее
Следовательно
##вид
анонимной
неподходящими
выходу
квоты
##ационную
зах
самостоя
терминала
детализированную
3B
framewor
процедура
серве
лицам
ЗБопис
ванного
Завис
Редактор
правопорядка
Человек
атрибутамF
Подробные
используемых
Эквивалентные
ненужной
компьютеризованная
)....................................................................................
злоупо
ПФ
чива
автоматического
2FDP_IFF4
предъявляемые
ню
возможностьчитать
включенными
мендуется
ВыборВЕТА_ТА
сообщение
препятствующие
ЮFPT_ITA
послед
подходящие
допускающих
физическими
добные
совершенствовании
напряжениями
среде
Toro
Внести
перес
специалистов
Глуб
источник
##вают
соответствиизад
самостестирование
##аны
примера
ведется
межд
##казанные
менную
Нес
описанными
##ущие
владельцев
##oT
##обство
FAU_SAA
Лесного
обученными
описано
детализацию
вает
соглашению
##льзуют
FPR_ANO
самодостаточным
одинаковые
##ccess
домена
569
жащее
поправ
##отреб
##шру
преде
##осток
Организационно
обнаружено
##ютВладельц
FIA_AFL
предъявляются
##ЕРТ_ТОС
.*
Информации
Источник
минимуму
информацииЗависимости
предпринятьв
содержащимися
аптечными
сложностями
##ТЕЛЬНОЙ
слу
можностей
Они
FPT_ITL1
особого
##ящими
##34
открытым
##остережения
МЭ
потенциалом
названы
FPT_
хищ
лицензиях
функциональному
ЕРТ_11
черезустрой
требую
##ничто
аппаратного
Автоматическое
порядке
экспорт
режимом
используемую
когдаПФБ
сценариевпрон
появле
##данными
импорт
Хран
уязвимостям
можен
инфор
Опе
упущены
##ентификация
Много
Методология
##работки
control
##ектора
взрывопожароопасных
извещается
месте
микросх
функцию
может150
##ара
ADV_
##ОК
##Анализ
соответствующими
Догов
Формальные
сокра
изложеночто
относящимися
создает
законодательными
налоговая
наимень
2038
масштаба
фон
способству
неправильных
обсто
##пки
своевременного
могутвключать
вос
##ЗАЦИЯ
РАЦ
гими
##артамента
изложенному
модульному
совместимости
основанными
##4ADV_FSP
сканер
##че
lif
FIA_A
сравнение
приводить
пользовательской
включению
дооснащ
исследу
источника
##раций
первых
ЕСО
автоматизированное
известить
Заклю
20ХХ
подробный
4ADV_TDS
##uthori
осво
авиационной
ванность
компонентынеобход
.........................................................................................................................................
$
2293
Функцион
быть
масшта
инновационного
........
остав
Уточнѐнные
##КТ
предоставляя
вект
полномочиями
Конкретный
недекларированных
признает
атрибуту
КС
Документация
##биратель
потребовалось
чены
##ча
сбоями
стандартом
143ГОСТР
ветственными
деленная
1
ботчика
##иче
необходимо
уязвимост
объединенные
вателями
модействие
влением
##мешательства
своими
обретении
ятной
##ующего
полезная
руководящими
запрашиваемых
вместеименуются
##тал
конфли
получившиедоступ
вним
описаны
деидентифик
Статья
направленных
УЯЗВИМОСТЯХ
##ршру
новить
соображениях
демонст
телеконсуль
нормальным
Получив
де
потреб
безопасностивладельца
адресу
фонд
безопасностью
##ческие
АЗ
ежегодных
мотивированного
цене
восстанавливается
структурированные
нажатия
##ненный
ОБРАБО
634
##илась
управлениядоступ
показать
##кая
##ница
##гать
серверакаталогов
непреднамеренной
информационная
ЗБASE_0BJ
Из
становится
чьи
данныхФБО
##ворение
##ап
##W
##ФБ
использованным
осуществляющим
онированное
Факт
1CИзложение
бой
следуетпредусмотреть
##рат
производственных
распространяетсятребование
типы
поддерживающий
Понятия
АА
##атический
##ющимследует
раздел
уязвимость
aъ
вносились
подходов
технологическим
ООВто
стоверяется
запрошены
##очно
семействам
выплат
доступное
##уемый
##езд
рабочую
ветствует
сетей
предъ
формулироваться
ЕОР
выписок
##вяз
увеличивающийся
высоком
##ыражение
чувствительныхвнутрен
Ограниченная
##писку
##ентами
процессе
используемое
внешнюю
##рушение
получательне
##ительных
выбирать
ресурса
##прочих
пс
272
##кла
другого
исполнительные
Категор
избыточной
недоступно
Антивирусная
модифицированными
чить
Желательным
•
непротиворечивостью
радиационное
criteria
##FTA_T
оперативное
256
возникающие
одно
Примерами
полезными
ранжировании
наукоемкого
##ны
##ейся
каждому
включающая
##или
ограничить
объектом
нейтрализацию
отоб
лают
лицензиата
вычислительная
безопасные
##ОАЧ
любо
интерфейсовACO_DEV
##езнод
прежде
уменьшаются
##ант
ствием
8С
##LC_
ПРЕЗИДЕН
циями
##спользоваться
филиалов
потери
связывание
А1_С
часть
тог
задаются
возникновение
безопасноесостояние
замещ
члену
##леживание
аудитория
##прод
##VEP1
конкретном
низкая
коэффици
заверена
вынесениясуждения
вой
ошибку
2009Information
##uteGa
##ермин
свидетельства
содержащ
Самый
суток
##алог
инфраструктуре
представленные
##ресы
ленным
##заключения
предыстории
##................
приостановления
верифициров
реальный
неадекват
##ование
всякий
##OBJ
Принудительное
##ЯТЕЛЬ
##ненного
беспроводного
##23
поддержки
##показ
оборот
реорганизованных
разрабатывают
##]}
kK
##физ
восстановлениеЗависимости
предлагается
маршрутиз
##спе
operation
сложная
интегрируются
##гро
рассматривающегося
приведенный
ФМС
agent
FTA_SSL
рекомендациями
ФБОM
внешними
единообразное
табличная
нагрузку
ВыборB
избыточных
уполномоченный
подтверждение
углубленную
расходы
уменьшилась
trace
верифицирует
##раб
круг
циклаADV
иност
заключивших
нечет
Активная
требовани
администратораКом
##Руководства
адресам
##ас
внешних
недрами
раскрытие
##ermine
2013ADVJMP
##агностики
тивный
здравоохранения
##метод
Введения
иерархии
стандартами
##ОВСКИЙ
осуществляет
частямиОО
реализацииугрозы
##имом
SPD
##олнительных
Умер
краткому
доказательством
##одоверия
9C
##пед
перенести
понятности
##нять
понадоб
##TOE
несоблюд
опове
##есть
реконструкцию
предъявления
Многие
формул
88
вниматель
че
##FPR_PSE
криптографическимиключами
проведенного
##потребителей
руководящим
##orm
##ованием
регистрационной
тентификации
ЕТР_ТРК
передачиЗависимости
##исход
pea
##ема
межгосударственных
публикацию
ограничивать
Межсетевые
соче
анализировать
Участниками
именоваться
фраг
Элект
Завершение
обеспечиваемый
family
исполнительной
установленного
которым
соиск
XV
подлинность
распознаются
иера
корректное
Условное
обычные
предъявляе
##РОЗ
Software
Team
хорошим
маршрутизаторов
Криптографическая
##оспособ
связаннойс
07
получаемые
Ручное
примеров
выполненное
параметр
занятий
##дамент
проектным
приложениине
Оцененныйоценки
копия
Ито
AIM
предусматривающими
нового
тиражированиепароля
##установить
коп
принадлеж
шагов
с
лицензирующие
фикации
##сов
спама
503
2013ких
заинтересованных
будто
##фицировать
BO
отчуж
выделение
технике
отслеживание
##отруд
##ng
yu
##имеющиеся
метках
приори
такжерассмотреть
функциональная
заявителем
Предварительные
изолиров
взаимных
отражены
данныхпользователя
действующих
обоими
##алиинте
программами
нику
17ГОСТР
1AAD
нованную
напряжения
ремонту
##дав
слишкомдля
календарный
получателю
специфи
конкретную
остановке
началом
иерархично
19__
серти
##фицированы
СР
##объектам
большой
приоритетном
##FPR_
логические
копиям
пакетах
самостоятельные
приоритета
участника
##кту
измерительная
##нев
получены
компрометации
privilege
103ГОСТР
методу
##еном
мун
составным
Межведомственной
3ACO_REL
##_b
##FCO_NRR
распознаваемым
Госстандартом
##DVVVV
##пото
##аниз
шрифт
наследуют
буются
выбирают
арифметических
##нализацию
совместим
предложений
отрицать
Смеш
Жиз
опубликования
2ADV_FSP
идентифицированные
##олож
пакетной
##nform
##ользов
Перед
Pb
##выполнения
формализованности
пользователь
соответствоватьиме
##лик
стойко
подделки
шающих
OOFTA_TAH
##бора
прилагаться
Краткой
ближайшем
сообщенийнез
настоящ
вступившего
многократ
взимание
соотнос
проблеме
национальногостандартаUCO
##14
отве
различают
##ion
предотвращать
поддержание
описательные
следовали
Полуформальный
pack
официального
mo
уточн
зош
наделенных
важное
##ционного
достаточная
нетривиальный
заключении
.[
##НИК
относя
предприниматель
первые
##менее
активных
##РО
Mav
лении
XAVA_VAN
спечивающая
прописывается
X
Защищенное
разработкиALC_DEL
##ec
обусловленные
Результатом
устанавливаются
##р
ВведениеВ
Центральный
понимание
ограничениям
завод
Ожидается
##чины
отсутствием
привод
™
экземплярах
##аниии
непротиворечивым
противопоставлены
щищенности
имеющий
управлениябаз
действием
Гаран
животным
ориентировано
##овиз
альтернативныема
латин
##нут
шифров
77
БиблиографияГОСТР
подлежат
ставном
однонаправл
ремон
4СБазовый
##оров
дая
точнее
##ADV_
##ивалент
Упорядоченное
прослеживать
характеристик
##рактив
Федераль
вводимых
информация
сопоставленияОбоснование
ги
присутствовавших
1и
деленными
почтовый
состоянииопределить
транспортного
потребитель
2013РОР_АСС
ранее
Лю
спецификациит
эту
окажется
374
устойчивая
соеди
##бран
вы
ИСО
отношениям
Док
##ованной
него
Погрузочно
Продукт
Режим
количества
Независимое
СЛУЖБЫ
информирование
аутентификацииадминистратора
гражданской
##лет
жизнен
этимтребования
##еждународного
##ныема
категориро
здоровью
Руководства
строгой
Наиболее
исправления
экспортируются
ым
);»;
##СКИЕ
##обходимо
некое
дверьми
Причин
##аци
##cy
ВЕРТ_РНР3
2013Окончание
##дах
...»;
исправлению
сегмента
активизированного
ограничению
анализ
возникнуть
Ба
кперсон
администраторов
синтаксисом
##врат
##нос
##ца
пониманию
прогнозируемых
обязатель
действительный
##ийская
##огласованности
неотъемлемая
недопустимой
Setextaddr
резервирование
атакиЗависимости
детель
атакже
иден
цес
перегруж
Функциональные
неуточ
раскрывали
всесторонний
##мотра
пичности
##ТОД
СРЕДСТВ
звеном
##rit
##является
занимающегося
75ГОСТР
доступа
соизмерим
мошенническим
[SEP]
функциональныхкомпонент
ношении
заместит
напад
всестороннего
519
51ГОСТР
делается
##тинформ20
ЛФБ
ально
##A_VAN
##АМ
злоупотребления
однород
совокупностицелей
заменить
G
##урна
Выборочное
безопасностиИСО
разделены
Поддержка
устройства
ляют
фондах
одноразовые
##position
используемому
безопасном
едино
##луждение
3D
такжерас
остаточнойинформации
Рабочая
определяютсякак
последствиях
оказатьсяполез
посредниче
проверенного
семейством
##льные
нужно
фигуры
списками
отклоненийв
получателемF
описывающие
Guid
целесообразности
обрат
##тельствах
110
ООЗБ
XAPE_ECD
можно
можноот
контролируемом
ресурсовFPT_
меньшеймере
OOЦели
реестрах
1ADV_TDS
докладов
железнодорожного
существующий
подразделы
432
исключает
состоянии
опыт
инициирующего
различными
назначенныелица
Пон
,°
##чении
хранитель
##стал
флаж
назв
##защ
типовые
применениеэлект
прямое
##ерж
129
торыми
взаимосвязанные
незначимым
ПР
цессами
руемых
клав
##окак
цир
документация
обеспечении
Специфичный
оказании
сервер
уменьшает
реализованы
предлагаемые
сообществом
семей
исключительно
требующиеся
оглас
головком
##ценен
руковод
##ависимость
##ценз
##поддержку
присвоенные
состояниюданных
ществление
находиться
854
распространение
##Ссыл
предпринято
##ивал
фундамент
чья
##ству
условно
##ЕРИИ
сорти
возраст
Другим
нать
заказчиками
4603
высокоуровневых
##птографи
##аров
модифик
доказательствам
списком
заявители
Кост
обновлений
руководителю
единичных
согласованностидуб
ЛМЭК
новано
Стадия
нях
неразделенной
безопасностиAA
платформах
3690
ЕСО_
Политикибезопасностиорганиз
##CO
конфигураци
ан
##СТ
линиями
отправ
обработку
началу
цветных
отнес
политикой
источники
незап
возникающая
переполнения
##цатый
шлю
основном
##ныена
Осуществляю
##лед
сущностью
неиз
общей
Центр
вторым
взятыиз
##кируют
такаяметод
особых
итерации
недоступные
проектировании
применяться
##624
тотализатора
##Разработка
одини
ALC_DELALC_DVSA
условными
Дифференциация
ложных
причинения
##ARP
Производ
__
документа
##рора
отпечат
##Тестовая
гру
##как
обнаружению
Его
почтовым
высвоб
##ЩЕГО
##отех
refinement
последнему
утвержденных
рый
верификацией
содержанием
##ab
полнотуЗБ
##овещание
communication
##мену
чтобыдать
объема
основой
Приемочные
##TSS
целевая
Логические
АС
переработке
##Владельц
нормативными
воздействует
жан
возврату
контролируе
прочиедействия
путей
сетевым
первоначальные
проведениеаудита
6C
чению
беспроводным
пользователяв
##лиз
describe
СМ
работе
вступает
безопасностиФТБ
характерному
сама
рисунке
обну
##тими
головок
ствам
ВК
перемещением
требованием
##сировал
даннойчасти
приведенными
аттестационные
инициироватьпере
assets
##ызовы
...............................................................................................................................................
##adaudit
временной
конфигурацией
отклонением
аутентификацией
соответстви
производимые
Под
энергет
##_СЕМ
кредитной
котороеможет
##рываться
прогно
посколькунекоторые
проектная
безопасностиASE_TSS
ЕРК_
3614
описывающая
пределовoo
08
необоснованной
Начальник
##04
вн
Пров
##ней
предлага
##ножеств
));-
##12
своему
гипотез
внутрен
Compati
ТС
НАЦИОНАЛЬНЫЙСТАН
дополни
##del
конкретныеОО
##вели
##кот
C
скрыть
ко
##пят
##примен
ставляются
противостояния
нию
разработчиках
архитектуре
осуществляемойФБО
изменяться
##независ
ATECOV
размещается
##ETC
надежно
образование
аспектом
##ационная
практиках
##итный
##quir
7
глагола
##анное
компилируется
подтвержден
функционирование
определяютсяв
модификация
##ока
##сти
операцина
##рушева
прис
подразумевается
предотвращении
литики
рейтинговые
техническом
детальная
защитить
1999
доступность
терминах
официаль
ao
Инвента
подразумевает
##ветств
способств
разноплановы
Открытие
Отказ
реорганизации
плановые
илиFCS_CKM
##невным
прервать
дополняющие
пользователюFTP_TRP
документами
успешного
сан
Ссылка
ДЕ
мониторингу
обозначенные
соединяется
документировать
Иерархические
ступных
strict
##Две
гов
насел
1CОО
технология
защищенных
личеств
доброволь
регулирование
продлении
##язанности
пользователяВыражение
a2
обнаружить
##вента
ОСУЩЕСТВЛЯЮЩИХ
КАМ
##ч
исключением
проце
недостаточность
2FDP_UIT
меняет
включенных
##Разработчик
вопро
лаборатор
by
умолча
##JN
##Рисунок
##мог
GHz
##FTP_ITC
внесены
195
ренность
неуправляемые
##ЛЯЮ
дуктов
непри
##убли
##ающихся
цессе
сопровождают
Успешно
экрана
NPSESPP1
отличительных
страниц
зависят
серверов
защищают
воздействиепользователей
Оценочные
вычислений
##ron
участники
подразделению
##урс
сделаны
##луч
##яз
ФБОFMT_REV
зователь
кодирования
потребоваться
подмножества
строках
допу
организационную
##диг
атаковать
внедренных
книги
осуществляющими
##ущих
##имому
##может
изо
##женная
выполнимо
Учитывая
Определяются
##пропуск
практически
##AIO
##оруженных
передпредостав
пожар
бытьиспользов
федеральный
водителей
оказываются
дискового
##?
неа
принципов
##PRE
международной
Эту
международными
полнительное
закупить
назначенный
транзакциям
модельInformation
##альной
Высок
правопреемнике
Разрешение
периодом
##окол
доводов
вательский
рейтингом
AV
Первыетри
Маркирование
восьмидесяти
FF1CSSVDP
раскрытияидентификатора
сопоставленные
стандартам
##пос
##ничес
Подтверждение
атрибутовпользователя
тривает
##НИКОВ
fsb
ADV_SMP
##аниис
реаг
##мотреть
детальное
модуле
вызванных
##зы
формальном
##de
специальными
мошенничать
минимум
сторона
##мое
Еслитакой
основанную
связностью
##чевой
особ
окт
обслуживания
методик
Анализ
Обнаруж
авторизация
ото
предсказ
создают
альтернативного
Coupling
источникиугроз
##ao
Ск
##есообраз
банков
приостановке
нал
отдельныхФБ
##_Е
Внешние
неформально
101ГОСТР
корпорацией
версию
предусматривал
Задачами
ски
сообществам
##GD_
##онированная
офф
откатЗависимости
ADV_TDS
онипревыш
предпочитает
Конкретные
target
заявления
сравнения
заказам
незави
Обобщ
пичных
неразрешенного
Сложная
автоматических
вводимые
проверкинеобходимо
обусловлена
утверждении
обработкес
соответствующей
данныхЗависимости
картографи
предложенным
обеспечивающего
ATE_COV
нирования
запускается
##лан
событиям
операционным
##ущественно
##эк
различа
Юридическое
процессу
##енери
Представ
ментирование
##КА
контек
сущно
компонентовдоверия
связанным
##ТВ
нормативным
счет
допустившие
##ться
предоставить
испытаниям
сценарии
##ходным
лабораторных
##ала
3455
кументацией
важные
Органы
##вопро
жек
домами
Путем
разведок
направлено
дляобъектов
контекстах
причина
вательностей
действительносоответств
сеан
рубрикой
внешнего
сопровождению
##чита
семействFDP_UCT
обманывать
Controls
##очек
##te
Длина
специфицировать
илиFDP_ITC
4328
тальное
Тестирование
метр
##остоя
применена
категориям
МЕР
многопользователь
##ениия
##оО
ЕРТ_ТВС
связана
локальные
FDP
я
ФБОпри
монтажу
приват
##кв
утвержден
Установка
приостановлении
non
##компоненты
2433
##елять
зарезерв
разъясн
##уждении
##утсяработающими
антивирус
concept
##едительным
оборонному
препятствующег
лабораторией
предотвращатьподделку
##FIA_ATD
иное
платформа
связаны
строгости
##нике
##if
судебногопостанов
носителей
сованность
1804
эквивалент
119ГОСТР
гут
соображ
данныхB
включенияили
##ла
##odel
123
Вза
инвари
сравнению
формального
контейн
Необходимость
потокамиFDP_IFF
Востальных
##ночита
3ГОСТР
Данныйтермин
##она
##тьс
##лон
такихопредел
##ПАСНОСТИ
истинного
Сбор
сервера
Экономический
предо
41
...
##сотруд
пуст
типами
ООО
_________________________________________________________________
сн
1340
генератор
##ума
данногоОО
FMT_SMF
АТТЕСТАЦИИ
1FDP_ITC
общений
станут
##мотря
опасается
##атизированные
сматривается
повторяемым
выезд
создан
употребимости
приведению
29ГОСТР
Решение
списокфункций
дальнейшие
деленного
##ма
частыми
encrypt
иерар
разъяс
отключениюпитания
специфицированным
неуспешное
МЧ
##срока
осуществленияOTB
секреты
смотреть
распростра
techniqu
лена
доме
О12
поставкии
предусматривающей
тестами
Регламенту
##18
##омин
##ена
предприяти
ди
значение
Крат
5ALC_DEL
Вах
чей
##рти
авторам
Сх
##отсутствие
тяжкого
##опа
Is
engineering
##отно
таккак
гол
дал
секретный
ссы
выпадающее
посы
##ров
##DEL
##стриру
##x8
высокоуровневое
стандарте
Метка
##недокументированных
уничтожение
Орг
##мой
выбранные
подготовка
##ага
инстру
заго
отвечающий
обрабатываемая
неис
охватывать
##umentation
несогласованность
дель
##VAN
4DРазработчик
парадигме
являютсяполез
ранжирование
подлежащих
логическое
Про
Строгий
свободном
##оть
вед
договор
составляющую
федеральном
диап
##ноло
##аю
пальца
обеспечением
арбитр
оцениваемые
утвержденной
##ениив
специфицируют
осведом
##альны
выданных
ПБОрос
##essment
бытьспеци
дого
уровниз
диапаз
135
##терн
техническую
вынужден
статично
ЮFPT_
3CПроцедуры
подчер
инструкциям
##ценкам
зарегистрированный
143Библиография
##ложенное
дажепереза
##ических
##ложные
съемных
##отов
##нийFPT_STM
##глубо
исключая
EDVVVV
________
##еляя
240
дулем
ствие
КомпонентПримером
техническо
бытьиспользован
значениями
Дове
возникшим
применением
##ранов
нотационным
Росатома
IКомпонент
администриров
подключать
храним
##pres
техногенного
подделаны
информационным
уверен
заданиипо
таксо
зировать
gostinfo
19Федераль
Независимо
кодов
ло
»,«
удовлетворяющих
заготовки
устанавливаемыми
мест
расходов
622
акционерным
ИСПОЛНИ
приступить
##готов
##ласть
фальсифицированных
разрабатываемых
согласованность
гошаг
ации
уникальных
незнач
##рному
выполняютсяиденти
##раниц
объяснении
методом
Зна
##еза
##1
ЕТР
представителями
неявным
увеличение
переоформление
##ропользов
организационного
действительно
потому
правилв
зать
Предупреждение
висит
Днем
которомув
отличаться
избирательного
##дывает
зированный
всееще
демонстрируемого
архив
уровнепользователя
веществах
файлов
косв
Директивах
1Е
##взаим
добав
Интернету
терминологии
##анд
хранимые
скомпилиров
предоставленные
стовериться
лями
явноразрешает
потребуетсядля
сбросами
будутсвяз
животных
испытательных
МЧС
##чена
выходная
могутпрерываться
реестра
представит
выразить
рассма
дляустановления
ot
##косодерж
усиление
тестированиеATEJND
пользователяПоскольку
определятся
составляющего
работке
величины
требовании
##нести
составляют
оставлен
1020
анализапоказателей
декомпозиция
выявление
ос
##ласт
##--------
##держка
безопасностисубъектов
##клон
принял
фонового
Эк
серьез
терминахпользователей
бланке
размещают
##енти
алгоритмическая
аза
констру
касающаяся
предоставляет54
Постанов
3ASE_CCL
базиру
нанести
##событий
подраздела
нарушителей
становятся
СЗИ
однозначной
___________________
номоченным
стандартасоответствующего
возникнов
DV
выраженное
работчика
Централизованное
выполняются
консо
OOЕРТ_
изэлементов
вклю
предшествует
передаваемых
##отестирования
##равление
можетне
изолированно
##льного
содержаться
екты
mi
финансирует
начинается
##COV
событий
отнош
5554
заблокированного
##90
обоснование
указано
персональных
Выявление
поступающей
бытьдо
##abil
временем
ознаком
субподрядчиков
Реализованные
##ficate
накладыва
уровнями
стративные
##грамм
TCP
2004
повествовательной
будетзащищ
детализа
алфавитные
поврежд
Минкомсвязью
прийти
сы
МЕТОДИЧЕ
огранич
каж
четкое
##-
69ГОСТР
ТЕХНОЛОГИЙЧасть
наборы
последствиям
возложенной
старыххраним
##матривается
атрибутабезопасностиFMT_SMF
##естированию
Недели
##остовер
76
1ФБО
сх
преобразовании
действующая
160
##опотратить
сертификата
##численные
##воб
представленияреализации
2ADV_FSP1ADV_TDS
невыполним
614
##квартально
Криптографическиеперемен
архитекту
мационных
Медведе
авторов
эксплуатационную
отраслевых
1ГГц
называемые
канального
группа
##функции
пытается
знак
тридцати
статках
циальной
преимущественно
леж
инструмента
ассо
аутенти
носителя
Обществ
##уточ
гран
##ици
вивают
этих
Санкционированный
треннюю
относящейся
освобождением
также
##ервизору
бездействие
описа
удовлетворяются
строгие
Эквивалент
ИНФОРМАЦИОННОГО
тами
сфокусировать
Исчерп
такой
РазработкаADV_FSP2
рия
практику
криптографическим
Выполнение
жанию
хэширование
ynpaene
00ASE
##qu
##анирование
##емпля
внедрения
правило
##Требования
##станавливается
OOОО
##жением
должныбыть
кполитик
Геодезическая
Guide
перечни
акты
оценках
##СТОЯ
вопросы
деблокирующей
2017
протоколам
Причины
##СКИЙ
бытьсостоя
127ГОСТР
операторамидля
##удита
Однозначная
инф
невыполненной
##кую
ngs
127
внося
##ители
##енного
##ечает
структурному
ряду
остальнымаспект
этимпродукт
период
меры
Аудит
Возможна
фильтруемых
формальный
пасности
##ено
поддержкаALC_CMS
требует
##стандарту
##ункт
зультаты
личность
недоверенного
аттестуемого
самыеили
государственной
##проблемы
непротив
предотвратить
привлекаться
Обрат
Высо
данноготипа
##са
обязательном
164
прошелаутентификацию
оценкой
2013кто
##ированию
реагируя
Встро
линейной
сохранность
##нее
описанное
Федеральным
необязатель
корректного
включение
потенциала
категориях
неуспешных
Формальная
пи
ADV_FSP2
паспорт
##ная
эксплуатиру
Прос
фициров
предпринимателей
перекрест
ключать
продукте
декомпозици
акцион
##енность
##XX
соискателей
Мос
подчин
пол
Могут
веществами
дипломатическими
такимобразом
служат
Упол
содерж
дерево
##овок
пл
сетевом
экономически
##ев
Политическая
выбора
криптографические
##al
основана
нежелательного
Например
бытьменьше
##об
Глу
конта
компонентыбезопасности
изым
либо
лицензиату
##LDD
профессиональных
ряет
##онадежными
Транспорт
посетить
Подроб
передаваемые
полученную
Интернет
4FMT_MTD
шриф
Назнач
1ALC_FLR
##ЛЮЧЕНИЯ
##ЗБ
##стер
э
непре
опережающего
последующему
##ерских
определя
2FRU_PRS
##рой
спо
двояко
##ентиров
realization
Поч
предыдущим
ког
##реб
##EL
Terminology
ЕОР_
Наруш
узлу
иту
отражать
Дальнейш
##елевизионное
распространя
придержива
предоставляе
риев
циональных
accept
технологической
токолу
измерение
чрезвычайных
##разу
заключа
регламентирующих
зданий
чел
исчерпыва
макс
Engineers
различны
ОтказоустойчивостьFRU_PRS
дублируемые
строиться
файлам
).......................................................................................
Огранич
среду
поступления
|,
##жение
варя
жесами
ями
цеду
Восстановление
##степень
##чаются
6CВ
методологическом
производственное
ATE_C0
некоторыевызовы
registr
##ection
##нется
##снадзор
проверяются
обрабатываемым
последнюю
##hau
подлежащий
готовность
правила
##орти
##оной
умолчанию
формация
чать
ПД
карты
##лическом
##Информация
##Утверждения
БЕЗОПАСНОСТИ
Белов
##альность
согласно
1ALC_CMC
следующи
потре
##йного
информациине
Основ
Ранжирование
аппаратно
лицензируемых
РТА_МС
##CK
ОЗ
несет
шине
кажется
1xxFRU_FLT
Profiles
выражен
##иваемых
ожидает
##ля
shall
изданные
инициированной
##ур
Чем
здание
профессиональными
##АЗ
##ич
сещения
неоцен
ауди
администраторы
дооснащению
идентифицирующую
неявные
квалификацией
##рующего
##обнаруж
териз
поставля
идентифицированную
попытка
##есо
планы
Пунктирными
Технические
дии
##емонстриров
Частичное
95
Проведение
отображают
предоставлялся
комп
код
того
организацион
представленному
обычно
различнымуровням
ПРОГРАММНОГО
Москва
официальноеМоскваСтандартинформ20
подтверждающего
##ениям
разрешаетсязап
ним
выдавать
##мер
атри
та
внеплановой
##новных
##5ADV_FSP
значениям
нечными
##новаж
детельствами
прашивает
гораз
воспринимаемое
идентифика
продукту
гласящей
##раздел
переч
просмотре
ие
Spec
безопасностиЗависимости
прекратить
назначаемый
циональной
заявлении
Переоформленные
те
авторизованный
утверждением
бот
приобрет
усилением
243
присвоению
##ованный
спечили
позволяющим
уровню
ВЕМТ_
Пос
комиссий
______
)......................................................................................
прежнему
привязку
переходят
m_ELо
##FRU_PRS
##риваются
прибавляется
скорее
##жат
обнаруживаемых
ЦБ
##ении
документов
поиском
оритет
проведение
1СОО
##чем
821
нформ
реагирующая
мандатного
параллельно
секретысоответств
монополизациюресурсов
Эшел
##енств
##фера
244
ставленного
ЛИ
рациональный
включают
обращениям
утверждается
соотношение
##cle
функциональным
фор
##ющ
##ющемся
Такие
назад
ул
сервису
##08
распространении
зоваться
##ляемую
##EACRDC
подлежит
##ветственность
Модификация
потехническому
##ol
ОЦЛ
базируется
логики
опции
достижении
внешним
##емой
специфицирует
##изион
сящиеся
##ствуют
проекта
врат
запутыванию
ФБОдля
##АЦИ
##54
учреждением
машиночитаемая
conformance
определеннымправилам
##аясь
##нил
s
ОперацииС
Can
CW
##фли
исправле
##eby
способна
уникальную
предупреждающих
приказу
ADV_RC
оставаясь
ложении
Обосновании
.;
стриру
##стат
экологическому
значению
2атак
сбое
##ЩИХ
уточненного
Подача
сбо
раскрывается
временивыполнения
##140
##ентатив
FDP_
отменять
Password
модифицированы
последовательностейсистемных
способностьобеспечивается
доказатель
FIA_U
Зак
Модули
квартал
последовательная
определеныкри
расширяетFTA_MCS
людей
информативный
инструментарием
качественной
ассоциации
мандатный
##_МС
наряд
ПФЬБ
##итетом
##Библиография
подвергнут
неожид
№
Сеан
ступа
##нанс
инструктаж
соким
прямая
отслеживае
##ована
соответство
аккредит
проблемными
Государственной
пам
##епение
способныпредоставить
отметить
834
сочет
экз
мак
готов
последователь
##лями
Интернета
применимо
рами
Составом
функицон
##ациейALC_CMS
информационныхтехнолог
##лича
расши
##тацией
руководителями
досто
защиты140
##естиро
иерархиюкомпонентов
фактора
##Функцион
применены
здесь
вреда
##tint
быстрот
заключительный
транзакции
местно
следую
##информ
СОО
##ог
создании
зователям
искажены
вызванные
соотнести
оборота
функционировать
спир
##аблиц
утверждаемой
##кес
Заключительные
случаеоперацию
##оступ
модулю
##аваемых
централизованного
руженных
##уляр
получила
ОК
тельством
##бо
##жеб
закупки
##лических
ВНЕС
работающие
форматом
пассажиров
##мод
3DРазработчик
показателей
станет
подбору
доставляемых
147ГОСТР
##идентификатора
##лю
связьможет
каком
##одостаточ
однораз
##цели
верия
имело
сообщениях
наруше
##ительновыс
сохраненная
парамет
Стат
которомразмещается
умеренный
содержатся
SB
отсутствия
чувств
заключить
первоначаль
##простран
##ерсоналу
обла
внеш
##DVVV
##ют
обнаружениефиз
слож
оформляются
##дик
##части
##асатель
12112
вызовафункций
выгоды
выполненной
внешней
алгорит
компонентам2и3
высокую
массовых
##одействия
##роки
былпримен
##сокого
адекватность
заинтересованы
руководству
##ымот
общеепредставление
установке
переоформляет
6247
задерж
логическими
оф
Рослесхоз
класт
таблицахдля
83ГОСТР
содер
##FRU
дейтаграмм
имениэтого
##замечания
сем
переполн
освобождение
назначены
характ
цифровых
исслед
подпункт
##з
госбюджет
периодический
обрабатывают
актуальной
OBO
ост
значные
##оточ
6450
##ходимо
категорировать
##R_
гибкого
цепей
##тивирус
охарактеризованы
##MDSS
##гаемых
интеграции
второй
отдельнымифункциями
предъявляемого
хакер
заключенного
команд
запрещения
##компонентный
##ационными
конечных
кое
отключ
##нуюопасность
,"
идентификат
самодостаточ
##илось
щиком
подделано
гонки
1Т
proof
злонамеренного
##/
разделяются
ошиб
удовлетворять
характеристиках
чтобыописать
негативно
модейств
##ируются
ограничено
медицинской
Объектовый
происходят
целостности
увеличении
##ИНФОРМАЦИОННЫХ
##епри
##иат
заявителям
активной
реализующиеили
##ированных
##кат
ОКС
software
облачных
приложении
следующий
сборку
монополиз
переводаих
Неделимое
xFPT_PHP
мо
вставка
рактеристик
аккредитации
MauveRAM
##ующие
___________________________________________________
##летвор
006
служебным
синхронизацию
Экономическая
уведомлять
глав
ясное
продуктом
оцениваемого
##еляться
свидетельство
($
Данным
роятностью
изменениях
##циализация
дитор
Опл
##функций
желательны
##атическими
абстра
##олб
аккредитуются
аудиовиз
этомтребуется
средыфункционированияОбоснование
1ADV_ARC
##ированы
##акет
2ASE_REQ
##ден
специфицировано
полезен
гмент
determine
Нацио
стека
конеч
алкогольной
##ностями
##нота
организационным
однозначное
##Име
Обратная
10C
Довер
верифицирована
отраслевые
«,
значениествия
уникально
спецификаций
out
привлек
##фикацией
верхней
конкретные
123995
принадлежит
неза
##фиденциаль
Исход
выборас
##ТС
менить
Вх
предоставленными
электрон
FTA_TAH
ALC_DEL
##рашивать
данных1
характеризуется
Свойство
Доверенная
фи
FMT_MOF
ЕРТ_Т
##ратить
перестанов
раций
8CПлан
доп
##ноним
##лек
граммно
Краткий
Взаимное
actions
сов
Примером
упоминается
перераспределение
##C0
специфицирована
##воляет
аутентифицированный
убедить
имелись
машинные
##V__
документарные
изменена
Рассматрива
##ностя
парольной
обосновано
прервет
##имся
1996
УЗ
оружия
##вол
тщательно
помет
входящим
Блокировка
2012НАЦИОНАЛЬНЫЙ
102
Управляемые
указываются
ответственное
соот
##роме
##против
программируемую
онад
##rm
##отлаг
ФЕДЕРАЦИЯ
задана
##аудиту
Иерархическое
процентов
состояниюна
##зара
производственным
зовали
сматривались
действийФБО
проход
##миться
используемыев
ЧЕР
Стек
организациям
нарушают
исходя
ную
Изготов
заданной
физическая
прочит
нимание
опла
##ux
тинг
##применения
##мтруд
неоднократно
образований
].
преобраз
защищать
неуспешной
обращать
контрольных
иметьв
очистку
отработ
обусловленное
безотлагательно
обработки
имели
##озможность
привлекается
идентифицированных
##ета
выпускаемых
какого
ЗБТипов
FCO_NRR
##TEE
Федеральная
каждые
событие
специфицированные
Требуется
Резервное
учитывается
исо
##Окс
##IND
разработанным
мым
контролировались
муниципальные
демонстрирующим
вопросами
##прият
##фект
достиженияили
Минимальная
тиводействие
нацио
идентична
предуп
МЕТРОЛОГ
m_
##ед
пользователи
##очное
##FLT
тех
реализовываться
незапрашиваемых
догов
функциональныевозможности
Почему
##раль
совокупной
направленное
применении
странялась
СЕ
выполнениипроцедуры
состоянияв
технической
усиления
##ыкание
способам
неподготовленности
испанского
##политик
переоценка
два
##ставление
Факти
пользователяСемейство
видеоинформации
23
Никифорова
предназначен
##СДокументация
разре
##уществля
ALC_LCD
однопользо
Компоненты
импорте
номера
отсутствуют
маркировку
Верх
экранирующая
ремонта
Еще
##tute
)],
консуль
былуспешно
##гно
литература
##ничеств
предоставля
точке
##космос
##анав
введен
информационную
пло
идентификаторапользователя
иг
составляются
01O
болееслож
483
Оформление
изготов
ктому
указанному
отменяют
Дальнейшее
вызывающим
компонентыбезопасностиISO
кры
нечита
внешнейсущ
областям
fun
mpeby
нештатных
располагает
привести
взаимодействие
недостаток
Пользователям
давать
должно
распоряжение
уязв
частной
этихуязв
должнарасп
##чая
##еготестирования
ДОК
противоречат
атакам
сопровод
1атак
репликации
включается
##ываются
утверждает
##амедлитель
##риним
требованияк
##дельные
приемлемым
##грузок
недоверенной
переданной
прошедшим
156
продукцией
##едактор
тем
##model
Указанный
базового
проводившими
ошибокперед
FDP_IT
Предостав
систематизации
аудите
##V
##опред
мониторинг
недостаточ
com
3CОжи
испол
распределяется
##уальных
отражала
заданного
IP
Выраж
Сет
безопасностиЦели
15446
Организационная
исполнению
измерений
FPR_
##ота
##работ
доступомFDP_
проникнов
det
Базовым
добавлены
непротиворечивый
##устим
разделенны
##мерим
htt
интерфейсами
##аг
значима
##c
опытной
робно
выхода
согласия
##предприним
угроза
поступ
предыдущем
MauveCorp
пущенного
достоверные
ЕМТ_МТО
##ДОВ
Метод
##раты
композицииAGD_OPE
близкимик
соединенные
263
пускается
Рей
двойное
##меня
УД
использующихправила
удаленному
оборонного
##купользоват
чество
осуществляемые
распредел
##альныетребования
побочных
оператором
развед
тай
авари
концептуальные
выполнением
защиты
##ТР
выделенной
реакции
Реагирование
определяющее
....
любому
средней
121ГОСТР
##кому
юрис
должны
дана
мом
2FIA_UAU
побуд
##але
использовавшееся
Значение
завершится
просмотрааудита
предупреждение
явные
##83
схеме
базе
стандарты
Президента
прикладной
поставляемым
Скрытность
APE
##авному
In
блокировки
увеличением
последующими
регистрируемого
ФБОлибо
такую
охваченной
ватель
cy
de
устранению
рующим
##ГЛ
##-,
зависитот
Их
##еля
безопасностиFMT_SMR
настро
циклы
##дер
##Ч
##эта
словосочетаний
наступления
устойчивыми
модификацию
аннотациейADV
##чить
расстоянии
улучшить
первоначальное
3FMT_REV
транспортированию
2FCS_CKM
незаверш
##итывать
2700
ях
международных
содержащегося
восстановле
FPT_ITT
Недоступ
Планирование
##оценки
изменяют
входит
##подлин
чита
списка
емому
недели
)).
безопасностиинформационных
пакетом
саморегулирования
Отдельные
достижениявзаим
раметров
##УТВЕРЖ
сертифицирован
AC
описановыш
применяет
##чится
Принят
##Ожи
##ритор
##тию
время11
наихудшие
заключ
оттого
менедж
монтаж
иэксп
##зац
BFDP_ITC
ОТДЕ
##устимое
установленных
пересечения
допустимого
избирательности
неоднократногоприменения
базовыми
соответствуют
должныудовлетворять
нов
FDP_ACC
программные
кодом
прямую
Ассоциация
##ава
приниматься
подходит
3448
навыков
)»,
купности
одобрена
##еде
##jecti
довери
навы
строгоесоответствиеОО
intemally
разруш
содержащего
геофиз
##ителем
дублиру
##ьют
критери
разделяемых
##имостью
упрощенного
TS
культуры
САПР
##аК
почтов
1119МОСКВА
3CВ
##разить
незначительные
##сные
модействующих
следующее
телекоммуникационные
применен
ства
оценкасостоит
делать
##стракт
ИА
выполнены
составному
оружием
маркировать
учрежд
пункта
Ё
сеансас
акционерными
содержащих
The
управляемые
..............
интерпретации
идентичный
цвет
повлекшего
##автора
##ускать
использованияэтих
сгенери
Обмен
начала
отдельная
от27
##атай
паев
##ится
предполагает
правовой
МОСКВА
предъявление
даннымиF
кперсональным
упустить
приоб
Си
приведении
Ког
менеджер
еслицепь
осуществлялась
##со
предоставлялась
одновременно
узнаваемости
персонала
произведены
содейств
Пог
екту
##остере
приобретаемое
документацию
идентификацииС
естественного
классифицируемых
атрибуты
Ди
Рассматриваемые
##ню
Журнал
каждомслучае
##иональный
индекс
концент
данные
которуючитать
##and
##CM
115Приложение
правильно
обозначено
Примеры
уплачива
сопровождать
изложена
FDP_ACF
содержится
##оваться
##ничать
##лицом
столбца
принятьво
ному
##криптографических
##ировать
актуальны
безопасностид
относитьсяк
юридическом
4969
fs
энерг
##AAAA
получаемой
##ав
##имальная
поддерживаемые
access
семействеопред
таких
шаблону
информ
защита
посыл
##11
обычными
адреса
ЗАЯВКА
##RC
ВРОР_
АСО_СТТ
хране
соответствующего
##ывается
2ADV_TDS
мет
принципа
выдач
ЛЕС
небезопасное
проведена
Проблем
продолжение
исходящих
сторонний
распреде
разбит
носительно
отражающее
тров
##област
##JПО
FPR_UN
переполнениеили
взаимо
##комендуемый
содержания
##uation
ху
трат
##утверждается
осуществляется
коопера
Возможности
разработчика
Событие
упоминаемым
замаскиров
разового
##тв
субъективность
использо
##J
обходимыми
##точки
избирательностьаудита
##новь
подтвержденный
##ласс
!----------------
множества
_______
Ролибезопасности
2013Приложение
выполнялся
##едейств
поставки
дистанционного
[(
связанс
AGDJDPE
настройкой
жирным
##ляются
вра
подделок
стремились
абзац
##ениях
программный
будутподвер
##атив
проектирования
##одействие
стойким
терминалов
вариантах
риода
##лемент
повторения
рекурсивным
объемным
оправ
унаспед
ограниченным
случаи
най
избы
##ози
о
защитную
Восстанов
аномальном
масок
вызываемого
##ационные
имеющей
##этими
зрениия
предписании
184
основывается
Предупрежд
носится
Последняя
публику
персоналу
потоков
Минимизация
интегральной
ществляющих
дигмой
конструкции
разработчикомПЗ
ЕМТ_МТЬ
сочетатьсяс
##олково
добавление
CC
помеч
внесенных
доверенногопродукта
##налог
пары
туру
покуп
##номочия
элемент
никак
устанав
plan
##ТРОЛОГ
компонуемуюи
перекрывать
##НС
ЕТР_ПС
ФА
вызову
ДА5
всеми
охраняемую
sem
##_СМС
невысокого
Потен
##овного
распространяясь
допускающие
ПРАВИТЕЛЬСТВА
посредствомп
модулей
индивидуальном
##тпечатано
##нит
АППАРАТ
освобожденном
computer
ДЕЯТЕЛЬ
##субъектов
##ставлять
вре
регулирования
безопас
выявлятьмодификацию
##9ГОСТР
находящиеся
ченных
мен
##ЕРТ_Т
интерфейсовАСО
нас
аутентификационным
илиFCS_COP
##способ
территори
##оррект
пользов
некоторая
согласованноинтерпретироваться
Ста
ОБЕСПЕЧЕНИЯ
максимальную
##отобра
291
состоять
вести
инфраструктуры
##тора
le
Данная
взаимодейств
##гля
Std
показана
эскпортиру
соответствоватьданному
целевыхгрупп
профилю
планируемый
15292
криптографическимиключамиFCS_COP
были
каждогоиз
биометрических
длинных
повторяемости
##_
программы
эксплуа
СВсе
адапт
дежных
прогнозных
обучения
латински
знакомиться
хитектуры
прилагаетсясвидетельство
эксплуатирующих
##ониторин
задавать
сущности
##ивание
Поэтом
доверенномумаршру
ТЕХНОЛОГ
пес
тестирования
FDP_R
##исполнение
коммерческой
основного
4590
разрешение
##ошо
осуществляемую
##контролиру
ФБОпредоставили
разделением
##подделку
вопреки
одному
##имый
уполномоченным
1CДокументация
предлагающие
##чит
жда
подразделЗБ
##отвращ
библиография
##Автор
тельность
##ичес
предотвращения
Журна
рамет
специфицированными
произведенный
Tak
активам
Здесь
сроки
недавно
##лось
##до
Составные
конкретны
аттестующие
##ет
##гий
АР
##дов
изложе
указывающих
##жкого
изменениям
оТОО
\.
##АМЕН
модернизацию
242
членами
совокупностьатрибутов
##ываний
итоговым
деляет
##ментарии
##ющая
сетев
Сре
суммы
3CДля
справочное
Показатели
отработка
##ADV_CMC
местах
##вижения
делающего
аппаратуру
##фес
выполнено
Лицензирование
наступ
Испо
Бан
##мми
использованияи
перегов
##следующему
##терфейсы
w
подлежащего
ВИ
программиро
Шаблоны
##SDI
карточки
тд
посколькуFDP_UCT
возможнойситу
РС
вме
ром
Форма
информатики
##емым
##уда
##ув
реап
##ффектив
глубокого
управлен
последующем
итоге
метка
уровни
входящих
шина
управляются
Объясняется
надежному
степенями
люд
##ГО
spec
помещений
подходе
охрана
другихобласт
доведенном
##воспользоваться
_
нераспределенные
быбыло
негативные
одного
ответственности
dacперсональных
тверждения
тираж
пузырь
Указа
уместных
границы
##формулировании
предел
списоксо
фрагментировать
соответствия
Ар
##ЛЬЗОВАНИИ
Внеш
дукт
образ
##ояко
актами
»;]}
прозрачность
просматривающих
Институт
##Угрозы
##Card
составно
терных
criterion
информации
гра
риалов
среднед
единственного
фильтруемые
просто
##анк
создавал
аспектами
##етребования
приведенных
##уска
##вая
##езак
описание112
Каких
службыпо
отчества
обслуживаниии
точкизрения
основные
отрицаются
независимого
OTBв
поясняются
Пункты
отношениюк
этомне
допустимо
накопителя
юстиции
##состояние
индик
##озмож
Национальные
аутентифицирующую
Пред
полуформальную
Обращение
государственного
порте
ставляют
проектиро
##ностьаутентификации
кредитные
Президенте
##фор
постоян
2ALC_FLR
комуразрешено
##бочая
Ha
Комиссию
регист
гарантийной
ут
##лежива
редакция
члена
новый
##Прослеживание
5481
##он
##имое
OOможет
##ытная
активны
промыш
задание
допущенных
материа
расовой
##осодерж
attacks
присутств
точками
вредоносным
использова
целевым
больший
знакомые
стандартовссылочным
еслинекоторую
охва
подготовительные
оболочки
гибкую
...».
283
удостоверения
Отметим
последовательность
Зача
отмененных
Перекрестные
##няется
РД
держащуюся
торое
##изложено
Тип
средничестве
соискатель
ознакомления
выполняемых
которымтребуется
предоставлен
новая
абстракт
сопровождающих
Феде
инсталляцией
исчерп
предоставляемой
ектно
##ждеч
личными
##ек
основании
последующее
ЕСО_МКО
подключить
ликвидируются
##получает
##омянутое
оповещать
##аниями
указанием
##желательна
произведенной
параллельныхсеансов
ресурсами
физического
явлен
архитектура
УК
##очник
обнаруженные
стрируемое
одноти
СВ
5CДемонстрация
доступную
микросхему
соответственно
частиопределенной
informal
упорядочивания
определенным
##стандар
##entification
разделы
нечеткой
##FMT_SM
42
теоре
поддерживающего
Подписано
##CCVV
пониманиепричины
владельц
аналогичные
##набжении
##оправ
иностранными
государственныхинформационных
##етом
направляются
(«
##ву
конкретному
излагается
типу
##пных
##оры
системами
лии
ветствовать
международный
нехватки
работающим
ничение
Фар
управленияконфигу
обши
приемов
Аутентифика
DBOспособны
возложено
item
объяснение
постоянным
требованиямбезопасности
раторов
содержащими
кодекс
подры
подписанной
гу
CCRA
Росгидромет
##б
##предположение
957
нормально
##луги
буквенно
100000
аутентифицирующей
##мацев
292
##вольных
IB
взаимодействию
распределен
касающиеся
##ителям
разрабат
##кустанов
сотрудников
появление
поступление
мобиль
##Крат
##комсвяз
пользователюв
##age
Взаимосвязи
следовательно
ционального
типовых
число
2или
Есть
приемлемой
качеству
СОВ
Роском
решающих
Об
ниж
выездные
##RPC
персоналомдля
проходит
9
##-------
отвечала
некоторомуактив
вающих
##SM
##льше
толькоодин
полученных
ОТДЕЛЬНЫХ
##постанов
осуществлены
Какую
##реализации
РАСКРЫ
452
##енныхнекотор
надежных
вынесе
##лом
##йным
важныхмом
стороной
##мотру
буд
##..........
антивирусной
регуляр
выписки
тестовые
##елирных
##раля
##функционирования
выпуска
##лрав
своих
смежных
неуполномоч
просит
модулируемым
точки
пользователем
стандартизации
архивирование
формализ
россий
руководствоваться
##ствами
##аваемым
монстрирующим
достаточность
протоколом
проявиться
коммуникатив
автоматизированными
##решений
потенциальную
МИНИСТЕРСТВО
назначили
ассоциированного
изданного
принадлежащ
Setint
##кованных
уточняет
##com
зависимыми
всевозмож
применеию
##ЛУ
##MU
изложенным
политикдля
Ограничение
ям
##сл
сетчат
##мно
административнуюфункци
Суть
);
обращении
##МЫ
Гостехкомиссии
Действителен
отправкой
ду
влияющего
форматировании
FTA_
метрикапсевдоним
Системой
особенноваж
сделан
cycle
выпол
применимые
произ
##лизованное
используется
соединение
##СКАЯ
Настоящее
##оначально
##ностных
Криптографическими
ц
прослежива
беспрепятственное
указанный
процедуре
He
юсти
##анде
верных
SB2067
protection
подписанных
##ортиров
культивирование
самом
##сыFTA_SSL
_FDP_IFF2
псевдонимпользователя
##48
зависимостяхACO_VUL
применив
подтверждении
подробному
трех
ОперацииM
замены
охватить
постепенно
выдается
расширение
гипот
gen
##ртирными
входящей
6079
ОПО
декла
##фикацию
##ремя
Поиск
Подготовительные
##тием
тверждением
##atory
ЛИЦЕНЗИРОВАНИЯ
##ьше
требованийк
относятся
сбоем
профинанс
##ывая
ВКЛЮЧЕНИЯ
причинно
быдо
усилий
##ичность
формесоответствовать
изложениена
Оцененный
00
##значение
переменную
Вовремя
соб
выбирает
приемка
обществом4
можностях
Медведев
##ствующего
ПЗили
рас
ством
СЕРТИФ
##нуюроль
##гна
предусмотрено
детективная
C0V__
##изации
эксплой
##филь
;№
стояний
функциональные
Объект
качествеисход
зова
##обрнадзор
оТ
созданные
IEC
602
реальныхнаруш
ядерной
три
##wor
лицензированию
##итаконфиденциальности
отраж
##Границ
процессах
владельцу
державший
##ОСТАНОВЛЕНИЕ
слеживаемость
##AGD_OPE
классификацию
конте
##ИК
##ГОСТ
##дельным
125
небезопасным
нападении
узлах
ограничивает
обменивается
провождением
Требованийо
coin
##упреждения
зависящим
заверш
обнаружение
серв
##ладельц
Избирательное
Неформ
##ка
ЕМТ_М
##entation
платежной
ФСТЭК
реквиз
демонстрация
часов
должностного
##альник
xFPT_RCV
экономической
можетбыть
##нет
режимаварийной
осуществляют
послекоторых
##ад
ASE_CCL
передаваться
##ослу
98На
##abel
##читать
Издатель
##омпьютерная
Сигналы
техническими
оборудованным
бом
##информационных
значительного
##дин
программ
помощьюкоторой
секретом
недействительными
пузырьковым
МодулиМодуль
##ключение
разъедин
EngineeringTerminology
контрольным
руководствам
порогов
должность
функциональностью
утратив
Простые
##ecti
надзорных
ментах
верс
поднимающимся
##личество
последнее
##РИ
обезвреживанию
##шиб
неотказуемость
веренным
безопасностифилей
основаны
Сведения
тестовую
ТМ
дей
назначается
##енааутентифик
установленномув
##RS
##тут
противоположны
Межведомственную
обязательных
ассоциируемые
основа
восстанавлива
упоминания
компо
какое
fmnet
следовало
удо
##пользователям
Зад
базируясь
реализованного
security
серия
Политики
состоян
ACO
фаль
FAU_STG
specify
##Данный
рой
##уч
стоимостью
##убъект
эмуляция
FPT_TRC
##анному
принята
FS
FPT_TEE
##ивать
взаимодействия
##TDDD
специфицируются
профиляявляются
+
сохраняется
повтора
немедленная
обосновывает
идентифици
несравним
взаимоотношения
ремонт
гидрометеор
##067
обмена
стар
сценариям
моглабыть
ynpae
Информационнаятехнология
безопасност
Ка
Желатель
4902
автоматизацию
сери
ЗАРЕГИСТ
##ации
Федеральных
бюджете
399
##ard
ALCJ
приводила
экспер
проверяющих
безопасностиASE_SPD
обеспечивали
Ы
программирования
уд
ционирования
##сет
реагирования
возника
теоретиками
Кодекс
##ектив
дн
доклады
условий
составе
имеют
##евая
переназначена
принимает
внешняя
пользователяПро
##ЕЧЕНЬ
распознавания
оцениваемое
обрабатываемых
Архитектура
достав
еговероят
ченное
##4
identi
##uication
санкционированной
54
##AGD_
интервала
плана
абсол
особая
дооснащения
вовле
произвести
##ино
допустимому
##распредел
##провод
##шин
Библиография
Роли
##вор
генериров
функциямибезопасности
государ
обосновывающие
неформализованное
##менить
принад
используемого
незаконной
188
уточненному
капита
подсистемами
бытьсистема
5918
Нач
подгруппам
##обеспечения
земель
доверенному
конкретная
сводящие
.................................................................................................................................................
оплачива
междураспредел
##ъем
##на
отображения
Формирование
организмов
Таким
предоставляемые
обоснования
единую
##ATE_COV
месту
Ресурсы
Испытания
##ордин
##енных
синтаксиса
защищаются
".
зафиксированы
##por
##_МКО
неурочное
тив
##иболее
##атный
илифи
становочных
оплатить
режим
уязвимые
выбирая
заявлено
Этопред
служатили
компрометировать
территориальными
##ощ
актуальность
##иях
Сложность
соответствует
наличие
другомудоверенному
##КОММУНИК
##ASE
значено
используются
пользователях
чувствительности
степеней
поруч
лежащ
предпочтительнее
пользователясоглас
##кновения
еще
протестиров
секунд
передачу
состоящие
эскиз
этихпом
абст
##фикат
FCS
представительству
FMT_MSA
осущест
своем
частях
экспортируемые
##ПДн
Крометого
идентифицирующие
упорядоченный
функционального
##еансыFTA_SSL
заявке
оказыва
техническим
основных
опубликовано
останутсяработающими
характеристикам
документировании
ненужного
аналогичен
Точность
требованиями
лицензировании
##iz
формировании
законодательство
##ical
decrypt
XATE_DPT
проводимых
##ивно
Росавиация
ске
Доверие
постановлением
____________
06
фактами
Применяя
стаж
активы
получают
##таж
приписывать
работоспособности
##ованную
несанкционированно
##ляции
экологии
СоПД
обнаруживали
диаграмм
РGР
Сдано
##опис
новой
изложенных
##спределенным
наз
Гранатный
вынесены
издан
гигагер
дальнейшая
##ойное
трактовок
многих
требованийдругих
##тверд
наказание
фами
чувствительную
##частую
системными
преднамер
описывающих
субъектаметка
связан
противоречащее
договоры
##ication
неуспешный
##РАЧ
ВВЕДЕН
##face
достигнуты
ненадлежащими
территор
##стирует
разведки
##эффектив
скоординированы
##фицированный
главной
##at
посредством
нариям
IEEE
##рин
Inux
##ag
cop1
##ASE_CCL
ческие
возвращались
остаточной
##УДК
##осанита
##руемые
изложено
нестиответственность
капитального
##ст
календарных
допусти
Службе
выполненная
##К
конкретныеуслов
output
структурированного
Приводимый
##action
недовер
##ve
##мль
##вар
обобщенных
ответные
бованиями
спроектирован
газо
фармацевтическая
С
носители
изложить
руш
тин
##19
##ex
распоряжения
связыва
запрашивали
внедренного
##чинами
пересылают
определить
сценари
##остности
проще
атрибутовL
)?
требуемое
органе
M3KРОССИЙСКОЙФЕДЕРАЦИИ
ответственными
регламентов
известен
использованием
вызывает
альтер
положениями
отказом
##лируются
##фицированной
сочетания
2019
##руга
вредным
междудву
10
эксплуатирующим
##име
##_СТТ
ЕС
механизмами
мотестирование
конечном
цировано
разом
объек
приоритетное
преобразование
нимания
наименованиямеждународного
108
накладываются
последовательностями
пометками
тогда
фейс
45ГОСТР
разры
##тое
медицинского
получателя
межсетевойэк
сохранением
УТВЕРЖДЁН
жел
ющейся
##перед
##РАМ
аттестуемом
одномуразу
значительной
Отв
известное
предварительному
74
заявителя
##ыетри
достоверности
полуформальных
##чи
##справочного
желатель
ADVJNT
механизмыаутентификации
предъявляемымkK
лучшему
##виатур
##альностям
аутентификационные
называемых
##й
высоких
портами
прило
Замечания
недоверенный
прилага
использованы
определенными
ноз
прекращаются
2007г
2013другие
простой
GU
основу
##реакци
средеприменения
удовлетворяет
шкалу
##Иерарх
##ленно
ное
##уетсявопро
номоченный
)»
##nfo
##ятия
рассмотрена
вычислительные
##жин
2FPT_
##гмент
объедин
##ях
судом
прекращением
злоуп
сай
обратная
пользователяЗамечания
целесообразно
##енедели
реализует
управлениюнеразрешенными
##____CDFFMVSS
уровне
производительностью
##мери
Она
членамицелевой
вании
науко
Ответ
градостро
инвестиционными
вить
FAU_SAR
##uic
метки
цепи
Стандартный
386
Постановлений
принимать
##сиоматическим
означ
предписаний
##tent
Стадии
неприемлемым
актом
результирующей
##ЩИЕ
Sens
##егнуть
Раскрытие
Пассивная
##ина
##опар
##выш
одногои
совокупностьпотреб
ACO_VUL
СЕРТ
##овпо
##ЕРЖ
ответственно
##ускается
восстановление
##ss
КРИТЕРИИ
импортируемыми
юстировка
##ктаж
нарушителем
связей
вопрос
##строй
наоборот
##потреб
идентифицированнойПФБ
междуразработчиком
отраслевым
правил
основанным
ЗБДве
Действующие
Таблица
##оздействие
##тов
##duction
категорирование
значимым
Указ
Предположим
занов
проблема
передачимежду
полноценность
процедурная
сопоставлено
##ваемые
крытия
##ryptogra
вильным
Полностью
завершается
контрмеры
защи
Наслед
соблюдением
дежурный
деталиприсво
компьютер
pe
заполненные
Re
аудиту
автоматическое
au
##дивидуальных
налагаемые
##сказ
прекращение
ЛИЦЕН
##ительствен
##данным
достижение
добавлении
##ба
ASE_Утверждения
независимых
противоречивые
передобработкой
ЭК
интервалом
##eb
227
дита
##альныйпользователем
низким
версия3
прослежив
##6b
подождать
завер
нуж
ev
##ТСЯобеспечивает
##techn
]-
##стрировано
передавать
##даз
счит
Мест
##ПА
одной
платежей
##FDP_IF
##вязанных
privile
##елями
##атика
полосапропускания
мощности
определенные
вызывается
безопасностидостигнуты
согласованностью
запрашиваемая
когдас
ISO
копиями
конфиден
структуры
Проще
приводят
IC
расширяется
страны
компьютерах
предоставленная
подкачки
ущербРисунок
отведена
верд
##ованная
Орган
внешнихсущ
отклонение
независимую
ATE_DPT
##ести
аспек
подобному
торая
использующая
УВВ
##блению
впоследствиииспользован
анонимныхвы
набор
приемлемости
<*>
плава
##AAD
##имизация
разгрузочная
конкретными
журнале
##ес
тождеств
##ос
##кина
##ЖБ
Z
спис
предназнач
условных
Шаб
переменная
Шка
тики
##РД
остальные
##информация
ожидаемый
потер
##аторы
xxxxx
первому
##дии
степ
симости
##FCO_NR
пересматривается
линейно
##ядля
был
##ическая
Вводится
##записи
O
контроли
Конкрет
произойти
##информации
дем
ущерб
аутентификацииотобраз
установленном
инициировались
прочих
99
предшеству
##ари
Банка
даты
штатно
егозначение
биометрия
потокамиF
Гру
отсутствии
инсталляция
Th
Россельхознадзор
ведом
внешние
предпос
изменениями
вспомогательных
доверенного
##ипов
отношения
открыть
##нудит
субъектак
криптографических
461
станов
исполняющему
Лис
##При
техничес
отражают
генера
консульскими
ловека
##автом
##_ТЗЕ
ФБОADV_TDS
демонтировать
утверждены
возможностьвери
Предполагается
##ELо
##лин
предоставляю
неконтролиру
Ли
обновления
угрозамДалее
предшествующему
##уров
уникальные
осуществлении
выходящие
подмноже
##ывать
управляемыхэтой
запуске
семейство
модействует
##ущенный
...........................................................................................................
Лог
минимальный
ТестированиеALC
FCO_NRO
Сочет
419
примененияUCO
##криптографического
но
одним
вателям
##ят
##Зависимости
199
Защитаданных
другую
Эт
набору
##только
##ских
разрешающими
контроляизменений
##разъяс
человеческим
Однос
спект
б
непрерывной
термину
средахможет
гласуется
Никаких
отказано
внедрение
опера
ся
52
##аудита
##CMC
утверж
держит
Вери
журнал
6CДокументация
##чих
ведомственных
ПБО
относящихся
допустимы
##ихотро
##рафи
coh
guidance
##ний
##остей
виртуальная
##ислов
фигурацией
удаленное
дарт
независимый
потенци
Основной
отражает
единым
третьем
##тариз
правильных
##етовой
иерархически
зависимостьот
##отор
FPT_FLS
Список
исходными
большого
предварительных
##ITC
3Fes
атомной
##ром
##пуск
уникальными
восстановленияпри
всестороннее
Требования
2FPT_ITT
оборон
##ыш
инструментальное
остан
прочего
наб
экземпляра
##ходят
рынок
признать
инструмен
Потреб
планировании
атмос
печатные
Защ
объективность
FPT_PHP3FPT_
conform
принести
##ящих
гласованность
внес
117ГОСТР
сопровожда
##__
##...........
##чных
параметре
Программа
##МЕТОД
способныобнаруж
##пект
семь
26
Standard
##хождения
tree
##в
разрешаетсяспецифицировать
##SO
цик
обобщенная
##ацион
##став
##огопл
нежелательное
##логов
функционированияОбоснование
сценариев
Таблицу
тате
механизмов
непротиворечивость
##олкновения
ay
отправля
часа
явной
риски
Предполага
14
##ленным
Фактически
сравнимости
заданиемпо
129Приложение
##есоответствие
букву
детализациипере
an
полнялись
##уш
непринятия
тальные
Дум
##сум
поп
##амента
Пассивное
правильной
##инимальная
##писи
остальным
28
##дач
Состояние
##ТКА
##ющегося
ведет
##авление
##онитор
нанесениятакого
##пре
работниками
охаракте
несвязанных
потоковЗависимости
##естно
бытьвосстановлены
незлонамер
диторов
##омя
00Границ
качество
моглиопределить
используя
2872
выборочного
однозначным
сгруппировать
обеспечивая
##ster
доработки
ней
Electrical
##лег
изменяется
FMT_MTD
##Окончание
соотно
негативных
##AN
посторон
списокте
задачами
переменныев
выразительных
компилятор
сожалению
демонстрируемое
общепринятых
##нариях
разрешены
наименьшим
##разрешено
оригинальная
такжеуказ
списков
##Свой
##фров
ном
народ
предопределенному
взаимодействиях
представ
безопасностиASE_REQ
##орож
меся
Устранение
уча
допущ
##Со
##ТДБ
целиком
ADV_FSR6
##ММУНИКАЦИЙ
Выполня
2СВ
оповещен
##то
предотвратит
вступают
негатив
скрытности
фиксация
##ологические
##ие
детализированном
##таграммы
Эффективная
подробные
владельцем
предусмотренное
ответственность
FP
техног
сокращен
h
внутренняя
Второй
Ники
слиянии
##нением
санкционирован
вз
##боль
$)...
однозначно
телекоммуникационной
##обрен
##ппарат
Хотя
спецификациейADVJMP
##упользоват
реакцию
возможногопере
определена
##сорами
обра
ь
AGD_
означать
чаются
Охват
прямоуголь
числе
единствен
отс
могли
оставить
##ТО
обновлениями
##Р
##2Ключ
которыеопределены
болеенизким
сортировку
прибор
утвержденными
обслу
##ВКА
ADV_INT
полуформального
##аяся
ской
Присвоение
специфицированной
добиться
участие
нируют
терминалом
получил
превыш
##_ОР
условия
Ад
бытьсоглас
##днее
коммуникационной
псевдонимы
##редненного
2CМодель
ждаются
заявлений
нижняя
заблуж
##Класс
охранной
эксплуатационная
##ственную
200
ВЕСО_МК
##LC_FLR
предшествующих
модифика
ассоциирована
##зырь
##стран
Утратили
опред
##тый
BFCO_NRO
обмен
виртуальной
индивидуальным
ожид
добровольной
##удовлетворения
методологиями
преобразований
##ательщик
программногообеспечения
значительное
поле
угрозой
component
адекват
фильтрацию
Документ
стационарных
Спецификация
множествавсе
механизмова
куязвимост
определенияогранич
быбы
может
включ
рейтинг
атрибутом
##ленному
данного
ванные
внешнихсущностей
циф
##°
To
##IO
Федеральному
##пек
наследу
первоначальном
##blem
##Изложение
2719
Дополнительный
##оляция
##............
3820
ражены
##руд
NOB
##разработки
испытаниях
съемные
##ho
утилиз
несогласованными
которойнеразреш
инициировано
аутентификационныхданных
нуждаются
BFDP_IFF
##ОН
##та
ограничение
4196
методическую
контейнера
остается
программсам
Элементы
минов
_________________________________________________________
методическими
1С
##едли
реализованные
слабых
строгую
##nauthorized
проектиру
нераздел
##es
технологии
ван
важность
небезопасных
впол
нельзя
администратора
Различные
##рами
психотро
—
сбора
способных
##»
##ЕРИЯ
Приложения
независимой
Применя
око
Одного
FRU_
всеOTB
нацелен
поиска
нормальной
##есостояние
макете
##обственная
##типам
подраз
обычным
)...................................................................................................
Точнее
адекватное
Заданиепо
целевую
предпринятые
##графической
поддерживающая
компетентности
тарифу
матери
предопределить
##авшему
##ции
конт
##вари
##ъяс
строя
уничтожения
предлагаемых
различного
дения
объективности
сформулировать
882
действиях
дополнительный
управляемойинформации
M
commoncriteria
информациии
##ЗАЕ
человека
поис
Обоснов
##направл
##ает
ошибочно
железнодорож
совершенствованию
реализуемые
точка
,».
##нии
##ствии
илиFTP_TRP
105
##анды
обеспечат
приостановки
неправильно
Собрания
##ре
##отом
циклов
предотвра
общедоступный
4002Ключевые
сфокус
вильны
сут
взгля
OTE
попытоксо
смысла
Относ
показателя
стить
##акт
ассоции
счита
аттестованных
содержит
руч
аудитунеразрешенные
передано
2525
заголов
нена
выходящ
ВЕ
6CФункциональная
другимидовер
се
недопустимых
программсамотестирования
##ело
пользуемых
критериев
management
перечисляя
##сами
правопреемник
##рева
extension
тифицированных
##тил
псевдонимовподлин
зируются
подающая
1024
ПЗ
_____________I___________
##ус
##B
##ственного
##текст
четкий
принадлежащих
исполняемые
документированных
исключают
модифицировать
10CВ
понятия
хотяи
Абстрактное
гментация
выполняемая
егоидентификатор
##ow
машинный
ошибкам
ОЦЕНОЧ
убедительный
Процес
обоснованным
##при
##енциал
имеющиеся
Идентифицирует
Этоуказ
решетку
записей
отката
##гист
##фрование
связный
возглавляет
##ылкой
Unix
##val
ного
правовым
квотыЗависимости
##мичес
##OCT
надлежащимобразом
ленной
Инициализация
Базовое
следующую
журналааудита
##тительным
##рел
взаимосвязи
оговор
ставших
использовани
формесо
готовятся
переходных
работу
пожаров
ххххх
базданных
ЗБТиповое
исполнении
которыхутверждается
обрабатываемой
##0___L
примерно
##ляю
доступу
производной
дате
##действия
##get
неу
ношениями
выбрать
##авно
приобретении
##озможен
Аб
6С
заголовка
##фицированные
явного
тестом
относят
значимо
##осигна
следств
##res
##ованным
сотрудничество
монстрируемым
правовому
использво
совокуп
такжеидентификатор
Операцион
буется
Ктип
##тается
уплаты
tools
##СТАН
предоставляло
ширенный
Директивы
##ужений
Председ
инициаторы
130
Повтор
буквальным
##особ
дует
обстоятельствах
противоп
системечерез
Условия
планирование
тификатора
##смыс
которыене
3FAU_SEL
приема
общая
назначению
действу
верифицироваться
##шинство
подходом
##очными
эвристи
##опоз
##ими
щения
контейнере
врата
ра
2007
непосредственного
этоправ
безопасностиН
многоква
двумисходным
дополнительныеугрозы
Импорт
генерация
редакцию
ограничительными
сучетом
##зам
защища
подписей
организованных
операцией
полноте
##логового
висимого
transfer
##Аннотация
основывать
##граничение
излучения
санкционированную
Доступные
##мена
конфиденциальных
доказывающих
";
FDP_IF
третьему
##удиту
простыми
2DРазработчик
стадию
вязывается
определенв
одноразовой
##род
максим
77ГОСТР
условие
##значений
ориентированный
объясняются
SF
Mau
свойства
отличаетсяот
некот
##EОценщик
AALD1C0V__3
именно
неявный
Министер
##ор
##шает
несут
выделять
средство
государственными
##ene
испыт
совпадает
метрика
псевдонимность
##продукта
лицензионных
мыми
ока
недостатками
ФЕДЕРАЦИИИнформ
целях
##овер
направить
##erminology
усредненного
ОперацииL
па
##ированным
##ту
средничеств
##по
основанный
Полуформ
одинили
тоже
высвобождение
utexas
##закци
аутентификационной
несанкционированную
потребовал
статических
##ничества
demonstrable
##рас
ответственные
суть
начальные
##СКОМУ
центральных
мани
Шкала
экспортного
невыявленному
технических
устранение
мени
Диск
возвращаемые
композицией
лицу
безопасностиОО
такоговор
примитив
повлия
сертификаты
FAU_
##DPT
ясно
сохранять
ставлена
признаки
##ной
существования
блемы
проанализирован
##ечание
##in
реализован
подразделя
непрот
технический
стировании
модифициров
для
участниками
рассматри
действиям
##ыбора
данныеаудита
##оник
обязательно
сосредоточить
##ментальные
стоимость
разъяснение
##OPE
##ло
представлять
##FCS_
61ГОСТР
остановки
П
посредничает
академ
надзора
##печатано
бумаг
мощ
##етель
##FDP_RIP
безопасностиДАННЫЕ
Tr
заказы
поверхностных
ПК
сохранить
##ия
обрабат
тыс
Следователь
побес
служебной
##спроиз
##ированном
.».
Обор
Общий
требуют
специфициро
##аких
задокументирована
которой
устав
##vebster
владельцы
##нология
автономного
передачи
операционные
еже
максимизировать
страхованию
сопроводительной
описан
системных
разблокиров
сер
вышения
фокусирования
услуге
входящего
webmaster
предпосылкой
актуально
мобильных
##ляя
рованные
1EОценщик
##зад
множествами
нижней
приложе
разрабатывались
EAL
сеансов
##ничество
сокращении
чрезвычайно
улучшенные
##Модель
заново
##доверия
Федерации
ячей
FDP_AC
переоформленной
непереза
##атики
сопоставимы
##севдоним
описыва
временная
>
символы
Сег
последовательностей
сится
ФБОFMT_SMR
сматривать
##АЯ
специального
дог
ставится
ющихся
##пка
Изоляция
информационные
упомин
ячейке
реквизитов
объяснением
инициировать
##RP
##упрежд
идентифициро
область
этап
##15
##}
выполненного
нап
##ью
Межведомствен
500
определенной
приемлемо
уполномоченногопользователя
именованный
##ированиис
методологической
##РК
##ыв
неясности
дв
вначале
седьмого
адресное
commoncriteriaportal
##ивным
CWE
данныхРОР_
тивостоять
которыеимпортируются
экранирующих
Два
верифицированаоценщиком
91Приложение
поставляются
оффлайн
##рати
взаимосвязей
профессиональный
##ковремен
проектуACO_REL
секрет
МЗ
Спи
вор
введение
реализуются
сочетании
практике
многом
inform
Разработка
глубокому
услов
41ГОСТР
вредоносных
тернета
##код
##оцен
модельISO
##полненной
причинение
независимым
компоновку
сделанные
спечить
третьего
гидрометеорологические
аудитабезопасности
##тах
##еене
##АТЕЛЕ
Окон
13С
дает
##обка
Ес
оказывают
##УД
##оци
##аном
269
либопри
9CИзложение
Кри
ПТЗИ
опасности1
ниями
##II
значени
##НОМЫ
снижающие
##ИИ
человеком
оценкиASE_CCL
типичных
ТЕХНИЧЕСКОМУ
санкционировано
##коговор
федеральные
применяемой
ПОРЯДОК
согласование
).................................................................................................
категория
##атива
сосредоточ
аппаратных
529
Росприрод
сбою
производство
##лемым
компонентом
вынесении
опубликованных
водиться
8CВ
использвоать
##шен
РазработчикПЗ
##А1_С
307
конкретного
мействе
предпо
ACO_CT
Каждый
##реж
##киз
ассоциированными
банке
приватную
зарегистриров
ОЗР
отслеживается
чрезмер
осуществляю
кодекса
структурирован
коопе
сборанедоступных
6070
выработке
производят
##анная
двумя
данном
##оглас
неожиданные
##FTA_TAH
##сшего
Демонстрировать
дочения
инструмент
участка
лизации
выполняющее
##мест
квар
масштабе
делятся
большую
распределенного
разъяснению
System
ты
кото
редакционное
##льз
результатам
проблемам
##SPM
пропускного
##исунок
##подвер
##ВЫ
##тель
потенциальный
особый
##азначение
##uid
держ
1ASE_
приобрести
минимиз
Зем
сложнее
AAAAAAA
##ти
Кажд
списки
включения
являлось
передаваемыхданных
включаемыми
Составе
традиционного
##г
ресурсом
решение
1ATE_COV
проек
##F1
диться
поход
action
ограниченное
расширенного
базовые
зер
6943
##торг
реализацией
игнорируя
##Engineering
запускаемых
подвер
словом
микропрограммного
длине
пределами
##чание
зователями
профес
Информирование
суждений
APE_REQ
предположениям
анализа
управле
##3__
##ателен
повреждены
ТСР
Pony
требуемых
unauthorized
нерабоч
применительно
описы
полнот
понятном
параллельныес
P
составными
конфигурирования
подмененными
##ССИЙ
перечнем
мерой
зависимостей
абзаце
номию
Типичнымикриптографичес
##АЛЬНЫЙ
##ационном
качеств
оценке
заказчиком
3FDP_ITT
общаямод
##l2
сделанных
непредсказ
Основаниями
межсетевые
излу
предусматривать
вредных
некой
посредничествеФБО
готовая
PoC
##FDP_
централиз
тестированию
кон
##аслуж
человеко
корректировке
защ
формировать
регламент
##кнут
должнывы
##ИФБО
инструментари
требующем
руководств
операцийнад
Необязательный
графические
главу
события
##SPD
##_ТА
научно
транзакций
##шет
ставляющую
Координацию
разделенными
сайта
принятом
зем
требующегося
истолкована
Дополнение
технико
получатели
моделирования
утверждений
};®
веденные
ссылочным
the
_____
обор
расположен
автомобильной
содержи
Необходимые
такимикак
многократно
зависим
следуетсоблюдать
ранжированы
Щ
активизировать
общедоступных
контентный
правилу
опыте
программными
перерас
лог
нехват
##аниюне
##оздание
конфиденциальную
перечислить
условные
##еспеч
512
выборки
вери
придание
заказчику
124
##ist
категорирования
##опе
отсут
отрицательного
чик
переда
соглас
циированных
FDP_ITT
Сопоставления
утверждаемыми
Более
нарушающую
През
оцененный
Производство
смену
уникальным
значительный
##блиографи
потенциальноподвер
подразделения
сервисов
прямоугольники
управляющая
##DD
соответствием
применяемый
проявление
рацию
2013перед
аппаратным
##ЕСП
##ограничения
потенциальныхпотребителей
##ош
слия
PH
культивированием
очевидными
перечнями
##андар
лям
ектов
##раст
##ований
Подраздел
На
указывающую
заданийпо
тентифицированные
подлежащем
свидетельствуют
предусмотренная
доступном
удовлетворя
Треть
Эффективность
угодно
среды
##инан
очистка
объяснений
базам
ракт
автоматизация
бан
методов
идентифицировавшим
##извест
компонентовв
##ротокол
##бое
идентифицированд
сла
исполняющих
надзор
согласованный
##ential
почему
элементFDP_IFF
сформ
Формальный
несанкционирован
проверяли
безопасностиADV_TDS
распределенной
реализу
высокое
протестировать
связанных
67TOCT
слабостей
использоватьразличную
Конфиденциальностьэкспортируемых
##евызовы
##ковод
насл
##Структура
устанавли
формулярах
##eme
VII
МБ
прово
противоречащие
управляемый
##рытие
ФБ
мате
##ающего
базовая
результатголос
размещаться
прошедшей
классаи
доходов
позволяет
Profilesand
раскры
##уж
##рабатываемые
использована
fac
##камер
##ляется
воз
егоцели
##НЫ
ФБОдолж
наблюдением
целостность
подоб
признается
безопасными
1FPT_ITC
Ссыл
Dat
содействия
разреша
##очная
##CВ
of
статочной
Перечень
ВИРК
безопасности107ГОСТР
спецификацииADV_TDS
этитребования
предоставления
включает
коммерции
аудитС
стандартаи
##бречь
##ренный
##емейств
заключе
##владельца
актуальными
представивших
понадобиться
расширить
Принятое
причинойдействий
Дис
равным
букмекерских
подведомственными
##син
последо
значимого
нозначного
проил
образованиях
##оначальный
конструкция
##v
##ящ
ввода
потенциальными
заданное
domain
2637
римечание
##ob
следующе
предъявляется
##PR
преодол
##цуз
автоматизированыи
срав
Оценочный
уменьшению
%
услуг
ADV
хода
последующей
версиями
запоминающие
судебном
лента
выдать
зарезервированном
ПЛ
вступ
идентификаторами
##ministr
межправитель
Воспроизведение
ков
относиться
почта
помогло
Запрет
##AGD
представляются
филиалу
использоватьразлич
##уно
снимок
классам
##кунекоторые
016
##н
##ets
выб
##мит
##le
глас
##правила
важ
iteration
сортировки
##аппаратные
##.
Св
ПОСТАНОВЛЕНИЕ
assessment
##АС
удовлетворить
выде
детальные
сможет
агентству
удачным
##обра
унич
следующиесбои
противоречив
##ЕРТ
##овариваются
##69
##контрольную
событиями
пределенной
##ась
атрибутовН
статьей
контролировали
полноты
2ADVJNT
патча
##ника
краткими
собственные
РТА
отдельныхчаст
_IFF
##едение
проанализированы
гарантии
теле
обязаны
штатных
требоватьсоответствие
##етализ
сопровождаемая
прибли
##ущены
свидетельством
сокры
1Б
137
без
персонал
##пу
47
##ентов
начале
##рованием
противодейств
определенном
злонамеренных
##аждая
нарушители
достаточными
интервале
структураADV_TDS
.*.
безопасностидругого
разграничению
##стиров
седь
уточнении
133
расформированию
обменивают
цать
ровка
##тив
распространению

работыобор
1510
разрядах
подмножестве
оформляет
м
##Вся
##ренных
Лесной
##ок
уточненной
филь
вис
послуж
2015
приобретать
восстановления
Эта
аномальных
несертифицированной
затруд
являлись
сброса
экземпляров
##ARC
Y
##олнение
неблагоприятной
внешнихсущностейЕРТ_ТВС
применениюРаз
публи
##следствие
коммуникационными
компонентовASEJNT
Вто
##lem
ограничения
экспортируемыми
Корректность
нарушенияскрытности
продолжит
итд
подключенная
##дивиду
удалении
чувствительной
Сил
снятия
получ
совершенствованием
##ируемые
##ларировать
транспортных
зов
интенсивности
конфиденциальностью
свойств
##хронизации
бытьпродуктом
##ATEJND
##дельцы
##ix
зволяет
фактов
оцен
формальным
##блиц
величин
непосредствен
посто
обеспече
зависимостиотсутствуют
жела
z
обрабатывает
##trol
Политик
создаватьи
иин
Вследствие
ментариями
года
##pen
предполо
стые
военная
Методологияоценки
ЗАК
дол
ченные
Проверка
##оре
внимание
реали
##туры
##будут
##PH
подвергаемыхаудиту
жительства
рассмотрим
требованиябезопасности
##her
рассматривается
##ЕТА_ТА
Zh
средыЦели
##Оцени
##представить
причину
верификация
боль
обеспечивающих
##LC
##остав
##CO_NR
применимое
компонентавключены
Является
рамки
столб
клюбому
объясн
возвращ
##отобраз
1FMT_SMR
должностные
которыем
прослежена
##ФОРОВ
##sz
заболев
низкие
##руют
Национ
жен
##умах
внутреннего
подать
##семейств
identifier
Недействительность
прослеживание
создаваемый
##put
применяемыми
рован
вспомог
##ставления
1FRU_RSA
59ГОСТР
##рены
порта
сопоставляется
рассматриваться
оптим
ТДЕ
##спешно
пользоват
##итарной
Межведомственная
##аракте
получателями
Пок
##ужной
##Секреты
секретно
дополнения
диапазоне
Увеличение
карантинному
##теч
либ
Федерация
oT
##пароля
друг
ссылаться
огласке
сказываний
##arget
Соглас
предполагаемого
категорию
субъектG
руководящие
Гл
##фе
электромагнитное
##лированная
давая
27
работы
аппаратными
уточнено
##стандартом
переводят
##хран
##льзу
вызвавшего
Ото
важный
нагруз
##жды
##овлетворение
умест
территорию
останова
автоном
выбираемая
началось
описываетсяниже
запут
##ification
разработанного
##сбо
косвенные
дом
------------------,
##ом
##ПБОр
поддерживая
##аварийной
создал
Ta
автомобильных
знания
Защита
среднего
разб
аргументами
толькоперсоналу
Устанавлива
продук
желательно
хэш
Sensitive
созданы
ЕОР_АСЕ1
достаточнодля
представление
СА
##гласным
окончательное
##ктор
попыт
Взаимосвязь
##известных
услугах
проанализирована
##КО
отказоустойчивостьK
размещения
вызывать
отдельному
OC
должного
1C46
противостоять
встро
ГИ
заведения
этиданные
атрибутовпользователей
обучение
безопасности
глубине
отличаются
тайны
##щ
расширенным
компенсирующих
_______________________________________________________________
##голос
##чение
крайнем
Поскольку
ками
теряет
аг
зарегистрированы
гип
хранить
##дастров
регистрироваться
ADV_FSP1
предназначенную
фейсыНазначениеинтерфейсы
утвержденного
заключение
иногда
##ине
стойкости
собов
документам
Практическое
аудитабезопасностиFAU_STG
чер
##тированный
##жны
облегчает
усиленной
неразрешенными
сцепления
подключения
##Уникальное
##аза
##lNT
2013УДК
егосрока
##U
открытый
искажению
##анным
пользователями
относительновыс
##интерпретироваться
см
фици
МЕЖДУ
производстве
15408
дебло
индексации
Участи
Рее
Базовая
дистан
инициировавшего
высвобожд
Безопасность
воспользоваться
субъектов
Аль
##JF
производителю
возможном
##yering
пользователям
##гающихся
регистрируются
чтобы
зависеть
##ЕТСТВ
Пояснения
данный
безопасности10
печатным
Ценность
отказы
ющ
##НИСТ
организационно
Обоснование
образцов
рамками
свидетельстве
приемника
рабочей
ствий
##ADV_TDS
новываются
Исп
Принимаемые
глобальных
идентификаторе
информационныепото
##пункт
дельных
включительно
показателифункционирования
##стр
фицированных
систематический
достижения
специфические
анализируют
сить
6728
##крест
обладала
усилия
##рукту
повсеместно
узле
сание
16
методы
##ья
##EVE
##ребованных
проводящими
причины
выдает
имено
перехвата
отображено
##ышение
ЗИС
\],
ИНФОРМАЦИОН
##ОО
доверияКласс
Поддерж
4453
состоя
приложений
аттестуем
состояниябез
повышают
нено
информационный
тическими
##ительную
возобновления
channel
зашифрованиеи
внебюджет
разговор
##али
требующего
инцидентов
удовлет
стро
безопасным
##моди
Можно
специфицированы
Части
##ляет
традиционных
обследования
##определены
разрешеноспеци
комиссию
гражданского
вычислительным
##водля
мотивированным
возможностями
разным
##яс
сервисах
##пользов
Пл
Действ
Пу
созданииобъекта
сунок
##ваемости
##iqu
##делец
оснований
Друг
подлежащ
##pass
которыесделаны
АТ
режимы
конструкцию
объединения
сгруппированы
русском
недостаточно
нормой
потокам
608
деньги
напримерсубъектов
касающееся
аналогичными
##компонентом
морским
##ательная
Macca
тизированного
Централь
Да
автоматически
##пуса
своей
краткий
3862
повествователь
оказывающее
##отъем
сокраще
физическом
Удобство
приравн
единить
стратор
плат
##овек
##си
следствие
##овани
мейство
модифицированыиденти
functionalcom
Положениями
направлениям
объясняющие
сообщается
при
пропис
методах
стандартаОб
FMT_SAE
баллы
допол
вар
Инстру
УРОВЕНЬ
неразреш
честно
69
Федерацииот
Цели
позиция
замкнут
культурного
модействовать
гидротехнических
инспекционного
|.
##ному
АВГУ
OISS
пленном
отнесен
обжаловано
ссылках
представлении
значении
обознач
ФБОобеспечили
применятьсяпсевдонимность
кратким
##оят
##овал
приватной
защищаемых
.......................
##жения
Conf
рованы
зап
опасность
##сутствие
соискателе
ОцененныйЗБ
%.
емые
недоп
98
719
даных
##усостоя
##ЗАЦИИ
облик
национальнымстандарт
a0
рактери
типографи
УТВЕРЖД
Администра
##уем
прослу
##FDP_ITC
которыхпревыш
квалификация
ресурсах
##претации
Discretionary
##аемого
изготовителей
онимогут
сигналы
ФБО
никаким
согласовываться
источникаи
стижение
vers
##ционально
Тестиро
такиедействия
Переходным
##FDP_UCT
##рной
Сок
ох
микросхемы
Рассматриваемый
обработка
##ран
содействие
##еляются
досрочном
платеж
Возможность
блокируются
пошлина
базировались
Доб
ничений
избыточности
зультатом
##Л
##шими
##DSSP
операндов
##НОСТ
##овероят
Иными
наложить
расширенные
ответственным
менед
»:
ществляемые
##полн
оставивих
ил
off
вводятся
высило
наличию
отста
идентифицированы
бутов
полня
##АЮ
собира
##предостав
##теры
Pe
Сл
разрабатыва
APEJNT
приведеннымв
##ложение
сгрупп
##специ
ASEJNT
стра
УКАЗО
##ДАРТ
Сплошными
ваясь
носитель
характеристику
эта
формирует
пользователяФункци
активно
OOпри
##np
ПОЛОЖ
vl
признак
##тся
конфиденциальному
##СО
гавшимся
работ
предприятием
##abelle
##ляющий
инвестицион
транспортирование
односторон
описать
H
т
отнесения
водств
пользователяПрименение
определено
ТДБ
соиз
прекурсоры
##роля
развития
##ичных
сумму
биометрические
атомному
вводиться
являющимся
##енциация
интерпретаций
поддержанию
очередь
Все
##ребования
##тившиеся
обязательного
сопровождение
привело
Председатель
машинным
подключаемый
налож
совокупностью
##нализ
обуслов
вспомогатель
##АЛЬ
тожение
составлена
переназначения
..........................................................................................
суд
OYJ
зону
жестко
##урных
ООACO_REL
смарт
конфигураций
##рующей
услуга
доверияADV
продаж
##гулирования
перерасхода
отрицательное
ОЦ
##АНИ
бумаж
system
обрабатываются
2ACO_VUL
компенсирующие
показывает
расп
стандартыВ
стадий
утвержд
##лить
FIA_ATD
обнаружена
Лютиков
помещен
Класс
101
##ционное
##ычтобы
которыенеобходимо
814
коли
водство
проведении
полным
псевдонимовподлинного
идентификацию
3ADV_TDS
Права
##уски
опубликованную
эксплуатацией
оборудование
пуска
детальную
обяз
неизвестен
##ичеств
ролейИерархический
абонентов
##Ыпостанов
##06
даны
верифицировано
##ившей
##жести
##ию
извещены
представлены
заменой
ценную
кругу
##набжение
АП
глоссарий
дисковоепростран
избежать
журналы
уточненные
существующей
однако
частям
наркотические
исполнительного
ассоциировать
##ителями
требов
истечения
Семантика
рассматриваемый
##СОВЫ
судеб
обязательствам
продемонстри
##шилась
демонстрацияможет
##дача
заинтересованным
ориентирован
Определ
сроком
85ГОСТР
специалист
##лятора
хранят
fm
000
провайдера
подклю
##FTA_SSL
устанавливаемое
4CФакт
Кромет
легче
неопределенные
продолжить
общения
Субъект
##нопольного
поступившим
предоставлена
заданная
сотрудничества
тенциаль
импортомили
заготовок
##of
стремя
Внутрен
APEJDBJ
Способ
сцеп
Финансирование
##елей
культивирования
тый
##свидетель
таки
формуле
федеральными
физиче
опасностью
направлена
перс
FPR_UNL
символов
##3FPT_
бованию
ХХХ
безопасностиДАН
Министерства
Выделение
ПОЛО
методологией
коммерческую
повторно
фран
Устран
локальным
соответствиясекрет
##атизации
хранения
основанное
##ует
переза
деле
параграфов
тированных
тщательного
компонентыкласс
предотвращатькоп
допустить
пошлины
председ
##битраж
иллюстрируют
потерей
Й
особо
ПБОр
тельских
роваться
лицензионными
##овлетв
##ИЕ
показы
вручную
требованиевозможности
блан
могутприменяться
фамили
применима
##ранные
употреб
##филя
отправки
##риро
желаемого
однотипны
чаще
##ногов
подобная
##ФБО
............................................................................................
##FPT_STM
группами
надежностиспособа
управлениядоступом
кру
накоп
ориентированного
##ГУЛИРОВАНИ
случаем
контролирует
##octTb
аннотацияпрочих
2ASE_SPD
реализовать
##имых
уполномоченном
свидетельствующих
##Процедуры
указанной
жим
ресурсый
##планов
##некотор
списоксубъектов
российским
2читается
##stitute
представляли
которыеимпортиру
##блокиров
случайной
зарегистрированным
однотипных
УТРАТИВШ
##Т
ПОЛУ
загрязняющих
защищаемым
приближении
реактора
##unication
функционирования2
ционированного
показаны
частопроводится
уполномоченногоадминистратора
Расс
##крытия
УКмогут
стационарным
свою
PF1RS
01
##откры
большей
уязвимостейAVA_VAN
УДК
Косвенные
зависимой
Задания
##ущ
Идентификация
##стандартов
##nment
##деланы
ционирование
позволяют
железнод
Связанность
рын
лать
управляющие
неотъем
##Х
беспрепятственный
портативных
семантику
обнаружением
##ивания
влять
обращаться
обозначений
CM
осуществивших
##куль
Согласование
исполнения
подгруппах
ЕЕ
поименованной
##женной
Угрозе
полуформальная
Повторная
##будит
создаваться
##ане
сцен
каждогофункцион
изыск
непосредственное
Между
ятель
завис
##ФТБ
сигнали
включаемых
Иногда
связЦ
силу
компиля
Обычно
ПЗПЗ
этапах
печатном
чтением
гарантия
RF
которыелогически
выдвин
компонентыСКЗИ
##ММУ
совершать
повторяющихся
возможным
ACO_CTT
чис
использовавшиеся
распределенными
стоящего
int
компьютерная
##ен
событияили
##уко
исправлении
безопасностиОбоснование
верш
Место
согласноопределенному
Криптографическаяподдержка
недопущ
делении
##кализ
соответствующую
Действиядок
кущим
делен
##покоиться
AALD1
##енциальные
природы
готовности
термины
представляемых
##мены
##екреты
)........................................................................................................................
##байт
##очным
Последовательность
доработку
регистрация
жизненный
Сроки
смены
дополн
ответственностью
mat
помеш
##продуктов
осуществляли
Целе
нападений
##фика
идентифицирова
кущ
ток
Способы
тексте
##Раз
##уществлены
формулы
##ражение
##ательные
ставля
инициализации
87
мот
автоматизацииALC_CMS
положительном
задокументированы
##окумент
ничем
##идовер
##ck
правления
##озици
##декват
компонентне
никакие
2005
Биометрическиеопозна
##равним
возможно
##озник
голосовании
##Техничес
Потенциал
##ределяться
семействах
контрольная
возник
FTA_TSE
предыдущее
акта
аудитории
четвер
##ИФ
единении
количественно
машине
##duct
Закрашенные
ближе
__________________________________________________________________________________
##ели
1CАнализ
Сосред
расшифрование
##ляци
##ртиз
попроцессные
##лага
производственной
выделенных
предусматривающего
безотказного
bypass
сетевыми
встав
полуформальный
##ходя
знал
##phic
1489
их
аб
решена
принадлежат
недопустимости
предотвращатьих
распро
FM
управлениябезопасностью
навяз
##Information
##УПЛЕНИЯ
##оявно
аттестате
##реест
OOГ
case
ризации
##регу
162
Оп
операционную
##ющег
защитеидентификатора
органов
##печат
картам
##редел
вещание
##ПОСТАНОВЛЕНИЕ
стратег
##ений
имеющему
##опользов
##ера
новых
статуса
##отказуемости
всеоперации
оказанию
отнесена
доверен
layering
##уровне
запуск
т8
пат
адаптировать
предприня
##ущем
##ш
Макетирование
»]
использованияпри
поненту
##SSDD
ГНИ
data
оценивается
дификации
##шения
знака
английского
##YY
нар
##анс
единая
высок
верификации
СООБЩ
персон
##рный
##уском
##овключения
O12
после
счете
списокт
показа
ALC_FLRALC_LCD
рольвладельца
наряду
ресур
ПРИКАЗЫВА
##0BJ
Сочетание
практическую
обращ
ленная
сход
##ванные
утверждаемых
##ям
сро
выборкой
##тинг
предотврат
Издание
##стоящ
##----
##мента
##чность
).-
МУ
перегруз
экрани
°
пользователяРаспределенные
)..
менимы
делить
##ATE_
обсуждения
##фей
FTA_TAB
монополизацию
удовлетв
Предотвращаемые
прокуратуры
вручает
##ическом
)........................................................................
пояснительным
наличия
...........................................................................................
автору
предпри
##овещение
получен
полнотой
команды
покажет
место
##ЕВ
оформляют
Описании
кобъектам
МВ
##риви
уникальной
148
##номпсевдоним
объектоведин
запланированной
##ифицированный
этихзап
методе
индивидуальные
утилизация
##ледует
контрольно
разрешать
слисок
dac
Вспомог
произведений
предложениямтрудоустройства
текстеUCO
##бес
критичности
приложения
лишь
##ере
##03
отлича
синхрони
ключам
Атрибуты
##ирующихся
ТЕХНОЛОГИЙ
моментом
Прав
нормальное
приобретенного
12
очень
очевидные
отраслевому
надлежащую
Свой
##ойти
##are
Дистан
##лежащ
большего
изданный
проявлять
присутствующим
##горит
онирования
системати
проблем
производителями
бумажные
физической
3748
стек
##жениив
ро
разработчикмог
держивается
активизировавшего
короткое
Интерпрет
основанныхна
оборудованием
##IP
1FPR_
полоса
##кам
руководителя
ЕВ
##ением
меж
##ди
размести
Ме
излагают
интеграторов
задолженности
##есчитать
перераспредел
##X
Зап
##лемой
Достаточныеи
##ента
##емыев
##имые
6CИзложение
выражение
оценочного
ВЕРТ_Т
##ент
облад
##ником
готовы
телекоммуникационными
##случа
благ
##ерарх
##ищ
емлемых
Фамилия
бытьколичество
##ies
89ГОСТР
ошибке
лабораториях
ществля
##время
компетенцией
оцениваемый
СемействодоверияОУД
##ности
обеспечение
2716
Лицензирующим
неадекватного
автоматизации
именам
##93
аттест
Версия
этоготреб
Пункт
##ПТ
От
##tection
перекрестных
Следу
дублируе
состояние
приведены
administr
недостовер
##Пред
приостановлению
медицинском
невключения
производствен
арбит
Оконечными
пос
BFPT_RCV
##ЛЯ
соизмери
##оступа
##отеть
##TD
использующим
модульная
прямыми
начального
цифицировать
экспортируемыхданных
сбоя
##дел
INT
запрос
дущих
лицензион
##ction
##ужного
допуще
##имоценщик
МК
менных
альностью
нею
действияF
##лизи
мяти
полаг
видов
средний
затраты
примеру
блокиров
логичес
ставление
произошедших
##дивосток
свидетельствами
возложенных
населенных
сетью
сигнал
таков
идентифицированного
ker
ленную
персональные
##eg
##FUN
##лина
самим
обратную
ОУД7
сосредоточено
сбор
органа
##fin
выпуску
заб
потребует
тон
черв
ДОВЕРИЯ
способов
##еть
Распреде
опять
##озможного
##ленных
назначение
случай
участки
бланках
вождением
рисков
ком
диску
го
##ствует
продлению
делится
применять
химически
лены
Мож
##addr
итоговый
##ранили
Когдав
намерен
создается
956
утечки
:«
##троль
##сляция
прекращено
последовательной
##м
каталогов
##готреб
переходит
агентствапо
глобальную
либофункцион
использов
DAC
##oftw
комплексные
заместителем
встроенных
мальное
us
##ость
перевозок
следования
возможную
##щиеся
согласовывается
удалению
ВЕМТ_МТО
Федеральном
внесенная
текстового
субъектимеет
##овозможности
назначать
уничтожению
104
возложены
инфекцион
##Опре
нормативных
живания
ООАннотация
эксплуатировать
определяетсяпояс
неудачи
лик
FPR
попыткам
обязательным
лицензию
перенимает
##шению
##вит
небезопасному
стре
Определе
Multile
лено
##ным
2CПредставление
экономического
НС
разорвана
отказов
functional
изучить
восстановлении
взрывчатых
мандатная
продлить
частнойсети
Связь
верж
Полноту
перемещаемым
формацию
фейсы
впл
##Краткая
завершалиинте
##Основ
CO
активные
Признание
ОСУЩЕ
ООРисунок
интерфейс
независимыми
##ил
оценка
##—
бителю
##ног
Иерарх
##REQ
##анный
тетов
ЗБописаны
нечных
завершать
15
защищенного
взаимозависимость
##ютран
Одновременно
жирными
батываются
процедурные
являлась
потенциальным
указав
ключейE
запись
##FP
стандарту
яс
самимоценщик
##наб
внеплановая
##оставленные
имеющими
##ождает
$)
ставлением
##лаблению
##цом
##рии
хранении
умеренного
ликвидация
периодичностью
войск
перемещен
##actice
Утвердить
inter
обязательны
чается
доводится
даст
расчет
вающая
##денциаль
непротиворечивойинтерпретации
интерфейсов
систем
##слу
старыми
заключаю
УТВЕРЖ
##w
XIV
поддерж
##ностьповерхности
##лия
торой
фиденциаль
IOCTL
каналам
Государствен
отдельное
ДАННЫЕ
средедля
##азательство
ест
этойинформации
1ADV_FSP5ADV_FSP
##яемую
прекращению
Внутренняя
считаются
записи
управлениякриптографическими
ванную
полном
##уюся
Калуга
равняться
аутентифицирован
##перемен
##DB
выносятся
За
предоставление
предоставляемая
машин
базовый
умер
контрольную
##кци
безопасностиFMT_SMF
Функционально
##Ga
##енескольких
полныес
эффективностью
репрезентатив
указатель
КРС
Этотсписок
высоким
экспертно
тий
МЕДВЕДЕВ
копий
B
отдел
вызывают
аттестуемым
ЕТА_МС
носит
##тролиру
АвторПЗ
норировать
носителям
##правля
нецел
слеживаться
пя
Уров
идентификацииЗависимости
годового
относящиеся
##во
##лярах
затруднения
необоснов
эксплуатационно
вызв
кирования
OKCTY
мощностей
удобства
большо
ходатай
BFPR_UNO
##нолог
вторных
##ход
##Под
##ность
обеспеч
результатами
результатов
медицинскую
Основными
с0
Разница
учетной
##ДАН
пользо
жизненного
проводить
военной
вне
##лять
получено
характеризующий
Надежное
##DV
толькона
инструментальных
##AVLDD
улучш
ированными
##дап
##агается
офи
r
тельно
являющихсясотрудниками
указывают
##стров
##IF
спе
действующей
сканеры
представить
прекращения
##АЧ
лению
нес
ГОСТРVICO
документом
##руж
IT
##ествователь
проблематичным
Ах
прокурора
своего
общедоступны
проходящие
настройке
life
веро
подсчет
связанос
##ойчива
Идентификатор
уточненное
ASE_
запросом
##аспект
следуетсоблюд
назван
ФТБВзаим
карт
Приведенные
##Имя
применимым
использовав
области
отражаемую
##опас
противоречит
ежегодный
53ГОСТР
##FRU_FLT
##ила
##рашенные
раметром
предпринимателям
бование
intemal
просмот
недостатка
ДЕЙСТВИЕ
Mand
редактор
Приложении
опасного
##дется
UT
ЕРТ_ТА
аннулированию
ненты
##тельная
терфейсам
приведено
отчуждаемые
здоровья
##едицин
##мает
затруднение
программной
##имств
##отро
##нося
фит
чат
Ш
нескольких
исполнение
##ационный
##ицип
##шим
телекоммуникационный
##утками
объективной
стоящем
Фактическая
установленнымшаб
любогодействия
Дополнительную
).............................................................................................
экономические
квот
насколько
исправляемых
отделяли
включающего
спецификацияADV_TDS
##тестиров
##емонст
##орет
применялось
сделанное
##рибут
ограни
##поч
найдется
##ЕНЬ
заверенные
постро
очевидно
ветеринарного
секретам
ОРГ
управленияН
фицированным
пресечение
важности
направленным
##жать
проектAGD_OPE
составном
ВИСО
базовой
алгоритма
многообразия
##лл
##гаются
запрещение
APE_SPD
условное
неизмен
##профиля
##авший
скольких
##очками
отслеживала
##ериз
ТРЕБОВАНИЯМ
небольшая
ro
согласованностидублирования
вступать
##анпроекта
2013являются
##JDP
клиентов
неод
##aliz
##лько
Вели
Вебстер
насто
ветаких
коммуникативная
программе
Матрица
##рме
problem
восстановлена
##ССИИ
##mentation
##00
##зов
Ком
адрес
свободный
##чер
##влечь
##омп
идентичен
распространения
защищенности
мере
определений
##тируются
Помимо
идентификационным
##оним
ми
нормального
##33
препят
пропускным
##эффици
новения
норматив
АРЕ_СС1_
ласти
##ениикотор
индикацией
выбранных
##конч
ожидающими
настоящегодокумент
файлом
Определением
##gur
представленными
частопровод
Тер
ИЗМЕНЕНИЙ
Кластеризация
##удования
процедурыAGD
аутентификация
исполняемого
характерного
виру
здравоо
Эксплуатируются
##почесть
сопровождаются
общими
шения
осуществля
1СО
зависящего
прекращена
парольную
##erent
тести
##ral
наруши
Многократ
2чита
##иационной
ACO_EL
отвечающие
фальсифицированной
реко
контейнерный
запускаются
посколь
расширенных
таксономии
Результаты
помощьюдовер
учетная
)...........................................................................................
генерируется
присутствующих
бытьсогласовано
##местным
следующая
##чес
ориентируясь
машинам
прек
##пекты
##ними
навливаемое
##анными
представленной
Рекомендуется
следуетспецифицировать
где
##орядоч
токола
1ASE_TSS
обрет
##езатем
кого
неуспешные
исполн
Функционирование
##зра
плохо
1240
операторам
данным
щего
семантикой
диффер
##роса
распоряд
целост
##туальные
друго
##оустойчив
интенсив
включающим
протоко
рассматривались
обмениваться
бюджеты
САР
нала
сетевые
##огов
безотказ
злоупотребить
Умеренный
распределенное
##дар
19790
активизирует
детальном
ресурсоводному
топливно
##EE3__
##анкци
конкретных
##N
операторов
Допусти
методам
Указов
##5
один
##ИТ
возможностей
группам
уведомлений
недопустимого
которыеобеспечивают
примене
сопоставлена
необходи
процесс
параметром
Определенный
ссылкам
1CИнформация
Мб
дополнений
вле
BFPT_
##СП
указанном
Разреш
получать
проект
##рее
##SE_
параметрам
Заключ
ЗНИ
##yst
уклон
2013друг
уменьшить
остаточные
опасности
##здрав
указывая
РОССИИ
нетриви
собственных
пользователясогласно
##№
приватностью
зарегистрированных
##учение
доступными
полезно
доработка
пенсионному
FCS_CKM
подпунктах
которыепервоначально
проверить
выбираемые
изделий
кументации
ставщики
лож
Первоначальный
##обор
##функцион
синтаксических
##менение
окончатель
компози
составления
контролируемый
геодезическая
Допустимо
##ение1
X1
##k
халатности
пенс
статочно
##ома
##ием
пользовательских
логических
спечение
class
собирает
приводящих
expl
стандарт
юридическое
Доверенные
предполагаютПЗ
объектив
пакетов
##определ
##оне
постановляет
оформ
ФЕДЕРАЦИИ
ДЕЙСТВ
использовании
любом
ориент
использование
Сте
избыточно
хорошей
неполучение
возражениям
##омпили
##лирование
возможностях
протяжениив
1339
честв
##год
количественная
ежеквартально
##ALC
отменой
следующем
функциональныетребования
185
##ыток
способствующее
##уя
описи
исходных
##ртных
контракты
##иклю
##актуальных
##определя
лекарственными
##fier
##FSR4
предпринимателе
бовании
##делку
совпадают
:
твердить
требуемом
##АЦИОН
электросвязи
Ограничения
специфицироватьсобытия
устанавливающая
обладать
ТЕХНИЧЕ
бумажном
Ссылку
тание
подобной
##ит
##rict
точномуописанию
воряет
обязательными
соп
мых
##анности
##мотрение
).................................................................................
ACO_COR
единой
избыточность
##кцией
составу
регистры
##L
запрещено
подготови
границу
АСС
привлекаемых
адаптацию
намного
данныхза
фицировать
документы
несколькофункцион
роли
##чис
технологическая
##кс
использовались
некоторых
выявленные
растениям
приблизи
исследователю
режима
проведенных
минимизирует
уровням
##колько
наличиеиденти
TSFI
Ежегод
##Далее
безотлаг
отк
Контекст
меньшему
4C34
##оустройства
1DРазработчик
Руководитель
скоординированные
MS
##ценность
ФГУП
##опасность
пользователяВсе
специфицированыв
##ательщика
возражения
хуже
##одифицированное
политики
щий
##итета
##представлять
##вод
##RSS
частная
Состав
экономическая
численностью
##ты
поставщиком
тяжести
нарушающий
##ротехничес
OTB
объявленные
##итов
ASE_INT
контейнерами
ОРГАНИ
компьютерное
FTA
налагает
З
локальная
временный
структурное
выполнена
жест
голосов
меняемая
Обязатель
Интерфейсы
##все
##литик
##пользователя
приобретается
транспортной
удовлетворяющие
квотирования
##гр
##29
##зависимости
электромагнитного
##цени
##les
подтверждения
стан
пересылаемые
вариант
##гагер
взаимодействуя
универс
выявлять
новном
Разработчик
наличии
всевозможные
профессионального
отображаетсябез
технологическому
упомянутый
Базов
рассмот
однокомпонент
ооРисунок
обнуления
экспертного
##цессора
Списокможет
использующих
идентификатор
##НДАРТ
концепции
рование
##одости
следствия
УКАЗ
удовлетворял
##вин
излагает
можетбесконтрольно
##DEV
облучение
##ccAGD
деятельностипо
админи
используемым
труд
разделять
отбором
наследуемых
##_АТО
систематизированных
генерации
приемле
трен
хранению
рискам
базами
инструкци
сокращены
поводу
##ounter
стям
начиная
наивысшим
щита
вывода
##КР
сутки
выходящими
основан
иров
фиксированной
электронной
##хвата
новленных
Вместе
Этим
##annel
##ализацией
подписываются
шем
##есетев
очереди
характеризовать
2013передаются
##ого
##разработчик
##орение
Разрабатываемые
дя
##рук
понятными
##груз
хозяй
компонентпри
пас
иные
Первое
находящихся
наносящие
уникальная
приватных
##IMP1ADV_FSP
требованияих
существуют
Ал
##ющие
участвующие
рассматриваются
gost
характеризуемой
##облюд
найден
ющий
ПРОГРАММНО
##AB
определенный
«
компонентовдругих
разрабаты
обрабатыва
стадиях
отказоустойчив
дублировании
##ерми
##систента
##способности
методики
бе
ассоциируются
##установ
##СС
рассматрива
некоторый
преимуществ
издания
третьими
##[
Операцию
оповещения
вого
физиологические
оставив
проиллюстрировано
успешностьаутентификации
комплектность
платформ
##едлитель
##CDF
истечениикоторого
работчики
целенаправленных
предусмотренных
диаграммы
отличающимся
##ационным
##едствиями
производства
деятель
##пред
блокировка
##посред
##персональных
средстваограничения
задач
##отказуем
самый
выявляется
##асть
заготовка
заданными
##цедуры
##пом
edu
6227
всоответствии
##удшие
компенсиру
предотвращено
наследует
кировать
##ологическая
УКили
##пеци
документах
приоритетом
должнобыть
обменов
вели
##IM
строг
подписания
оценивает
какими
независимоот
дор
1Тестирование
Причинение
прекурс
##ерных
фиксированного
##оформ
периферийных
воря
доступны
лицензии
контролируемого
выдавшего
нападениине
OB
!-----------------
Физ
##ятой
полуформ
итоговые
допуском
Описание
содержанияЗБ
отображ
подсчета
автоматизированные
##удовлетворя
являются
утверждение
пользователяна
##ранимые
удел
программу
Однознач
четкие
аттестуют
##утся
краткого
поддержи
уполномоч
##IMP
идентичные
рассматривае
149
мочиям
участия
РуководстваAGD_PRE
разглашается
составны
Портал
ATE_FUN
##рения
возможны
безопасностц
перифери
иныедействия
строгим
катор
...................................................................................................................................................
фили
1343
ОЦЕНКИ
восьми
стойкость
расположения
48
18
подхода
концепцию
энергосбытовой
сеансу
предусмотренную
##пределение
NOE
монитор
прич
лицензирующих
датированных
никновения
связности
##ащищенности
##РЗЕ
упрощенное
модулями
дуры
гравитационного
##имост
##егося
Регламента
1xx
##приведения
утраты
pri
Инспе
верификациик
бесплат
отмечаются
еуегСага
предположений
##писано
лишних
бесполезным
##y
##дет
ассоциа
объектами
абонента
естественным
Техническое
провождается
менты
детализированным
станций
2013и
реди
##ождают
реализацииФБО
Посколькув
понижаться
теристик
дукта
образом
ческое
Необязатель
##народ
ВЕРТ_ПТ
инвариантами
современ
номеров
##норматив
транс
иерархическис
неисправ
выполняетсяс
Уничто
определяющих
##импортиру
специфический
Проектирование
сур
ОП
особенностей
предоставляющая
противостоянию
контролю
397
тографических
Yaiza
верифициро
доверием
ограничивающими
##желатель
предоставляющие
участками
4EОценщик
неуточн
песочница
начина
##представление
температуры
##....
Взаимодей
ЗБможет
~
копию
пользователинастоящ
##д
вателю
неверного
аттестованного
д
требования
ществляется
боле
четырех
##T
актуаль
содержимым
ли
метрик
нарушить
теорем
ссылочног
##лит
##уская
Возмож
аутентификацииFIA_ATD
ДИРЕКТОР
политичес
##есь
оперативного
разной
ятельности
ветству
тию
ответственнымза
нот
хост
ассигнований
ют
##данных
спецификация
чтобыПФБ
уве
предотвращаю
чтобыон
присвоить
ФБОСвой
##пример
грубых
толькобезопас
верждения
##енными
турированы
##лируют
проведены
курсивом
8CФункциональная
рол
##работку
##раним
augmentation
ФБОпродолжают
энергетического
дерева
элементы
можетбес
учреждения
##BO
OOи
можноответить
##ГУ
##еред
увеличивается
73ГОСТР
адаптированного
ния
продуктам
загрузочного
лекарственных
##ЕНИЕ
установленные
угод
предусматриваетавтом
образования
указание
дающий
предоставляют
документации
стве
математическом
аналогична
раньше
редаче
четвертом
этилов
##иатуры
##вшим
един
справ
зачастую
процедурами
Оборот
непротиворечив
должностному
учит
##gistr
##пользователем
программой
перестраиваемой
кат
предприниматьдействия
образовательные
дартов
информационныепотоки
##ФЕДЕРАЦИИ
хранилища
хорошо
2Функциональное
##министриров
##ental
##устрой
утра
контролируемыми
пользователямии
1AGD_PRE
функционированияВ
приостановленное
............................................
операнд
актуальных
участву
##аемые
docнорматив
профили
facility
FTA_T
##TB
обеспеченные
модульно
проводиться
##чиков
навязывание
##МЕНЕНИЙ
что
гид
##сети
##технолог
свод
воздействиям
свой
19
FPT_RPL
641
аутентифицировать
метролог
мост
гого
сор
эконо
##аковку
единства
##совокуп
позволяющи
##ждеб
ными
которыхследует
положительное
математи
характеризующие
нием
сохранили
особенно
##моду
Сущность
ответственный
соответствовать
выполнениеФТБ
РЕГЛ
AGD_PRE1
PKI
вторжений
прервана
##ТВЕРЖ
нормативный
методические
po
правильное
иных
узлы
##ателей
доведение
##ниже
символьных
##бражение
##ализатора
переоценки
заданным
настоящему
Разуме
##ащ
##стка
размещены
определенныхв
стандартовссыл
которую
проводящие
Профиль
компонентахиз
концентрация
Юрид
ОперацииG
##ens
1FDP_
126
нимальными
зошли
второгослучая
когда
передаваемыми
Дру
##тиру
##Три
##Э
полученные
гражданскому
модуля
протестировано
Минкомсвяз
сопутствующие
взаимодействием
Кос
конкретным
торговля
разделение
паролю
$$
радио
тификатор
нормами
тайна
##авляется
участвую
экспортному
сопоставление
отменить
ё
административное
общ
можна
описании
испытаний
Cryptographic
TAB
чтения
использованыи
обнаружениипов
Постав
высокий
##ститу
верхняя
новлен
##ассоци
назы
защит
Представлены
##ированной
сост
стирания
ВРОР_КОЕ
характеристиками
видеокамер
примерам
PF1
##wd
взрывопожа
аудитуследует
другие
хочет
можности
макетирование
общесистем
базовое
ФБОот
доказательным
ско
боеприпасов
выражением
биты
##руются
теризующие
##форматного
технологияхзащ
##азработчик
Пара
##ругого
размещенных
неудачное
усмотр
ограничива
##lar
##рывной
подобный
деленную
вышеупомянутое
актов
являет
сорока
##шил
анонимным
комплектуется
подходящим
сле
теорети
переназначением
выбросов
офисная
118
опираются
значений
наименование
нительной
смог
восстановлению
крытии
пользователяк
Рас
верификациисоответствия
охарактеризованные
##ѐнные
смысле
семействотакже
##бытовой
актив
проникно
передавшей
тепло
рольс
быть124
##полнить
МУЭК
##оценщик
экв
КР
декабря
стемы
##n
специфициру
шаб
##Коррект
Критерииоценки
вращ
»)].
доменовВ
);-
средняя
исти
##ЗТ
6959
##вается
модифи
хран
Приним
выполненных
значен
восстановлен
неверно
распоряжением
выполнению
Измеримая
Расширенный
трудовых
2FDP_IFF
атаке
нарушение
провождении
##шении
Осуществляющая
##ованности
свободы
декларация
кан
interface
##имость
##сем
строк
обозначение
##данные
сопоставлен
informative
санкционированного
selection
##ливно
ОУД5
независ
телевизионное
сертифицируемых
приведет
документацией
расширения
сматриваются
комисс
наи
подвергающихсяаудиту
былоизложено
лизом
Порта
абон
##яла
##итребования
отдельный
##овавших
ADV_SM
##ПД
согласованном
##тили
##фицированными
##ация
линий
распоря
##аемое
оплаты
##торного
высшего
параллельныесеансыFTA_SSL
2CКраткая
возвращение
слияния
зависимостиот
##У_Р
маркировкой
инспекцион
дой
разра
##Яобеспечивает
##АЦИЙ
отправленияили
Следова
разработка
управлять
прикладным
отстаивании
саму
##кий
локальную
метод
##между
гурации
вынесено
##буд
участков
провод
технологию
##ЕНИИ
РОР_ПТ
составляющими
58
##элект
значе
бездействия
Предотвращение
СЗ
окончил
сопоставимость
играющим
763
Причинами
##из
принятому
##Й
Наимен
интерва
атрибу
ЕТР_ТКР
Схожая
##овери
технические
настоящим
заметить
##.................
частиопредел
предпринимателями
##няются
атаки
показывать
55
интересами
заканчивает
ядра
имеющего
отказами
иерархию
перечис
процесса
Сни
обусловленных
значительные
другая
заявлением
##список
##GE
реализующих
##ору
Значимость
когдапользователь
корректиров
полнительных
эле
лить
##C
По
Ча
##тических
специфици
отражаемых
осущ
##ронов
2ATEJND
верхнего
активизации
Дву
##имеет
сыск
Иерархическая
текст
специальной
План
организационных
окружающую
ОБЩИЕ
##раном
оформления
циклаALC_CMS
##фикации
подразделах
разработке
сооружений
проводит
применениевы
внеплановых
5CВ
такая
наказ
##Расс
авторизацию
обнаруженииошиб
совершенствования
ежегодным
Ц
превышении
входящ
подгрупп
бождении
##TST
enc
##ar
описывающего
апелляцию
сочетаниях
конкретный
выходных
##дия
защитные
mom
полосапропуск
привлечением
представлен
##рм
сбоев14
##ных
##есоответствующего
посред
Точный
учета
посредни
официальных
##S
_________________
упорядочения
МАССОВЫ
##применить
##него
происходитьлибо
)...............................................................................................................
удерживать
транспорт
##ьез
гиб
логиче
влия
счетчики
перегруженным
широ
##лени
произво
подлинные
##],
##роволь
##Семейство
таксономия
замечаниях
определив
гез
исходного
32
проводящих
Этидействия
подтверждает
##есемейство
экранам
субъекте
потехничес
И
касс
users
##енной
установле
clsz
)................................
выявляют
институт
##ающимся
необходимую
методиках
ским
явных
production
##FRU_
Сеанс
СокращенияВ
частьпроблемы
произойдет
предусматриваясоздание
обез
диа
##ЩИТ
##етка
расс
отображена
загружаемого
ма
обходимо
связанные
продуктах
сточки
##kas
случайный
##oBoga
ЗБ
»),
эму
извест
выводить
релиз
##атель
воспроизведен
аудитаЕМТ_МТО
некоторыедействия
устойчивый
средыразработки
?).
которымОО
строка
рархично
контракт
налоговом
##дас
телекоммуник
обоснованному
различия
##FIA_U
модульном
пропускания
реализующее
Напротив
##елем
принятия
##ованными
обратиться
Количество
Оценщики154081
Гостехкомисс
##ракт
механиз
documentation
скольку
федерального
исследов
работчикам
эксплуатации
функциональны
FTP_TPR
диска
спецификациях
2575
расположенными
проблемабезопасности
##щание
альтернативным
Общ
*
неуспеш
##tw
Лицензиат
t
характерные
полагают
ждающееся
доверияразработчик
распредепение
преодоления
устанавливаться
##видетель
4разработки
##у
доверияADV_ARC
такиеопредел
мера
фактических
ру
YK
скрытность
деловой
Росс
пенсионных
наив
Обратите
##М
ФСБ
размещению
подготовку
Приватность
шифрования
длинное
подаче
составляет
изготовитель
отслежива
##жай
актуальном
телей
жизненным
OI
UNIX
##полностью
Предположения
уполномочен
обучены
нии
располож
опре
492
##грам
предприним
##ССИЙСКОЙ
повторное
удовлетворяющий
тах
понимания
состоянием
г
помещенные
железнодорожном
убывания
##кажд
][
Финанс
сохраняться
808
верждений
операцииЕ
Недостаточность
Вост
Sel
оценены
##ализ
создавать
правильные
находящимися
специфик
возложенные
##nf
to
Неч
крипто
идентифицировано
ИНФОРМАЦИОННОЙ
Нечеткие
устройствам
опира
описанной
##доп
целями
e
приоритеты
лять
степен
##хранить
он
2129
##tion
подвергаемые
фильтрация
планируемой
Финансовое
##Введение
налагать
превышенииопределенного
FPT_TDC
мастер
другой
политике
##ile
Аттестатов
сегментах
сме
разнообразия
былане
##ций
##тые
Конституционного
##преде
FPT_IT
Опре
Исслед
штат
объективных
злонамеренное
интерактивные
##юще
Достаточ
уведомлению
целомПЗ
направления
целя
подлинного
##AGDJDPE
несогласованности
##риптографичес
узакон
довер
хим
предпочтительно
соотноситься
авторизации
допустимыев
необходимый
стационарные
Ориентиров
семействами
выполнениетребований
проводным
гипервизору
энергии
разработки
непротиворе
присвоенных
рубрика
##ошибках
установленному
9CРуководство
стройную
модернизации
екте
отображать
подтверждающие
каждой
системно
идентификацией
замедляют
##тивные
алфавита
служить
подозрительной
информациц
обоснован
0043
активным
profile
ратившегося
упорядоченным
вторых
)».
ЭВТ
##фных
transfers
субъектоми
опубликованы
##де
анализированы
19791
поддерживаться
несоответствие
ограничении
##тативных
деактивацию
проекты
формальное
обращениях
ясными
которых
##АТЕ
функцийуправления
##шаб
##Oпри
открытием
##pec
##чают
Иденти
##хода
##йти
струк
FRU_PRS
##группой
запраши
автоматическая
скрытых
##ировал
лереда
лизащита
мик
анс
Региональный
процессоров
матрице
практическоеприменение
Договор
владельца
сим
выходящей
прибегнуть
трансляции
##ационного
мости
само
осуществлением
##обод
можетприменяться
применяют
проектом
1FCO_NRO
бинироваться
словаре
мерами
Основные
электроснабжения
единения
Ю
минимизация
нежели
##рировано
##рос
Описания
потокамЦ
##удву
ных
91
##случае
##тическая
выданные
приобретенном
DVD
яр
.|
скры
модерниз
характеризуются
99ГОСТР
большуюстепень
ассоциированных
##соблюд
Выборочный
системные
##жур
выяв
Ресур
одна
атрибутамиполуч
подпис
Минимальный
законами
сконфигурированы
гидротехничес
внутренний
некачественных
доказывать
тиз
перечней
##вые
налогах
истолковано
Другими
Сле
копированию
блоки
средефункционирования
зашите
криптографическийключ
ОЦЕНОЧНЫЙ
фикационных
##фери
детализированных
##тим
аттестата
активу
исследо
Ос
OOL
БеловКорректор
риск
приводит
верки
упрощенном
передают
Рисунок
хранящ
буксировок
специфицированная
ИПО
##ентах
Вред
сооружения
ент
шифровальные
оказываемые
Упрощенные
рассчит
##анж
вс
невыяв
оговоренных
встре
неправомерных
ност
ы
представляют
##1912323
составляющиеего
чиваются
интегрирован
себя
спасатель
чувствительных
АГЕНТСТВО
____________________
##рироваться
Как
##ающую
минимизации
##d24
1APE_
нарушении
заполняется
учитывать
##системами
интерпретировать
##ему
записью
ПОЛОЖЕНИЕ
Оконч
ass
После
Рекомендуемый
ЕЙ
ВЕРТ_ТЕЕ
гидромет
ктор
признана
Цепостность
такие
мое
конфигуриров
##яК
описания
некоторому
безопасностиС
Умеренным
парадигмы
прилагаемых
учебных
личных
физическим
повествовательный
определены
заданному
пояснительную
межгосудар
нованного
оценщика
Руководство
##ост
позднее
казатели
##редством
##еду
направление
композици
##ner
реализация
##Описание
повторение
пользователяЗащита
описываться
деляют
самотестирования
Жизненный
реестр
##ностьадминистра
##гос
переданных
ступна
integrity
##омпон
реализованных
2FMT_MTD
Третья
невозможно
СРВ
Ав
Минпромторг
##рированы
завися
закона
##групп
рассмотреть
##сть
##ce
функции
1FTA_TAH
##ованно
Наконец
действующую
неогранич
небольшое
Строгое
тором
энер
работают
рушат
гибки
ссылок
Анонимность
выпускаемой
деблоки
схема
перечисленныхниже
объекте
всей
модульный
применимых
##безопасностиорганиз
ботки
возникновениис
##ЕНТ
анализируются
Оч
определяют
верификациюсвидетель
согласен
матрица
языки
##ойчив
исключено
сли
неуполномоченного
X138
##этих
учет
Should
Лицензии
верифицирования
##ама
fra
##ков
##ар
корректиру
форма
##чиваемых
Access
##ги
хара
Модерн
кабель
##локирование
Инструментальные
неправиль
посвящ
2012УДК
ADVTDS
explain
синхрон
ФБОFTP_TRP
международном
подобную
##интерфейсы
##шут
итерацией
полностью
открыт
извещает
оплат
Связ
##емкого
вышеупомянутые
##азатель
рекомендация
_FDP_IFF
##льзоват
несколькокомпонентов
предъявлялись
поддерживается
трудностями
вящиеся
классифицированы
##ованию
сохранению
ФБОвсегда
лица
текущего
пущ
тексты
отображающая
поддержкиаудита
Зависимость
1119
дополнительные
Отправитель
##севд
##гается
__________________________________________
##йдет
возвращает
ними
Общим
той
пользователяДанный
предпочт
##ЕНИЮ
пять
Изготовителю
базовую
ификациях
блокирование
финанс
упрощения
нах
преобразовываться
сравниватьЗБ
##ti
оценщиков
секрете
Зачастую
1FAU_SAR
структурами
субъективно
противном
материалами
##годным
Иные
могутпре
надежности
разрешенными
##ходящие
ущер
предусмотреннойпротоколом
ПРЕ
тверждаемый
ранжирования
общего
............................................................................................................................
##усти
##дивид
ствии
оставаться
Ожи
##ннот
Мас
##ныхвы
уровеньсобытий
внеплановую
максимально
высокоуровнев
возможногонаруш
примерах
неизвест
данныеменее
индивидуальных
XATEJND
значимость
подлежащие
инициатором
охватывала
##перв
предшествующемиспользов
сложных
dependent
МоскваСтандар
##ителю
отменены
»):
точные
##ортиз
##еан
Таблице
A
пригодная
uk
ST
рекурс
емого
океанариумах
выражать
обстоятельств
однароль
сеансаFTA_TAB
##елирование
редкой
которого
удалив
Зав
##ятого
компон
##унеразрешенные
заинтересованный
извещают
##лос
Веб
включать
##ЛЮЧ
совместного
##ear
Оценивание
Octob
##ЧЕ
проведено
##блемы
пункте
##яет
жир
ЗБASE
предопределенным
4835
v2
##антических
предосто
живанию
интерактивный
противоречить
ходятся
создания
##ВШ
задаваемые
этапы
##идетель
подвергнуто
Окончание
получаемый
##ления
##тор
113
ФБОСвойство
пользователяДанное
прямоугольником
загруж
тожд
представительств
нарушителю
re
неактив
анализапоказ
бражения
##керских
междураспределенными
ЕОР_АСЕ
##unt
законодательства
##оверия
называ
своевремен
кФБО
40
##атические
Разработчики
оперативную
MCO
излуч
пятилетний
РазработкаГОСТ
неправомерного
исследования
настоящий
совершенно
предупреждающим
ущ
##действие
##курс
именованные
должентакже
:].
Гар
ляющие
инструкциями
категорииперсональных
комплек
Сокращ
##фигу
разу
##тографи
допущенного
фактическую
Se
параметров
реализующими
##Корректор
##Оценка
противоречий
call
ОперацииE
стями
предоставляемыход
бытьполностью
приобретение
ex
.................................................................................................
циально
почета
##ОГ
объему
ляющую
;";
модульной
выбираемыхатрибутов
##интер
классах
принятие
##Возмож
Должна
secu
нарушенияС
регламентирующие
##зис
настолько
_________
подвергну
Подкомитетом
ограничитель
предложены
невмешательства
ветствующая
Биометри
чьей
косвенным
~>
##освязь
638
выбираются
протестированы
дере
##лайн
стратегическим
Лес
субъекты
##фиденциальности
доступе
##гнит
Экологическая
подключений
читателя
акк
##лению
##система
нимум
машиночита
подсистем
дов
утвержденный
проигнори
уменьшения
##есткую
Кроме
тушению
обращается
возможностьверифицировать
зования
##дельц
телефона
##повер
ассоциированным
прием
критичес
##чами
##экспортиру
самовозникновение
Trusted
четвертого
##1ГОСТР
национальными
Политика
наилучшим
инструментальные
содержащаяся
последующую
стандарта
науки
составной
связанную
основанной
##ресов
никому
специальная
ARC
случа
пользования
занные
##орядка
##меры
попеременном
таблицыпу
вправ
связанная
Оплата
Наимень
##ATE_FUN
##DVS
выдел
ведена
высокотех
##сол
процеду
уполномоченными
##ание
##остат
возникатьрис
вошедшие
тридцат
продавцы
##ust
фик
отмет
Инфор
маршрутов
занятием
правительствен
вла
перечисленного
142
3283
компонентаи
Достаточность
экспортом
обпасти
##лись
##мическая
Соответствующая
силы
общедоступной
конфигурацииможет
ВЕРТ_РНР
уделяя
##...............................
вариантам
смягчения
отчетности
ADVJMP
Предоставленные
защищ
##ываться
самых
предназначается
IEE
##ниту
бывают
следующих
Категорирование
перезапись
##1CVV
исп
##лены
целесообраз
аутентификации
данно
итера
высокие
Периодичность
числитель
Эшелонированная
Семейство
ционными
сложные
ион
Установ
щать
ADVJMPADV_CMC
дельно
decom
рекомендованных
спецификацииРасс
Раз
регулирующим
аттестационной
Функциональный
отри
обеспечили
МИ
потребуется
аспектах
##рена
оригинал
пользователе
дальнейшее
##извод
##аниепо
кнопки
##usted
ключейЕ
избыточного
##lation
ситуации
частичное
##пас
11
версии
##вала
##амеч
воздействиена
##ованные
##FCS_CKM
простого
AVA_VAN
обходу
вызванной
следуетпод
неправ
Приложение
заявленный
устройстви
проду
реже
part
специальное
моделированию
5С
таты
##ALC_DVSA
блуждение
.)
n
отклон
шаблон
мето
винформ
местное
несоответствия
ALC_
определяющий
легко
управляемыересур
защищенность
атрибутовбезопасности
API
ключев
объединено
виль
вектор
фрагмент
##..............................
1FPR_PSE
уплату
[UNK]
основанных
механизмауправления
from
Костарева
comp
Дистанционное
разработкуи
##FI
наследовать
##ави
5Оценка
предупреждаю
##метри
входа
затратами
создаваемого
компонентовФункциональные
Ma
##rity
которыемогут
руж
берутся
строгоесоответствие
вызываемыми
##AT
##ализации
возможна
восста
ист
##отказ
##норм
никто
разработаны
Оценщики
сказ
деньнедели
##ЛЬЗОВАТЕЛЕ
##режд
первая
пересыл
##лено
##оценка
делающие
размеры
дверей
ЭКСПОРТ
обнаруженииошибки
спра
глубоких
пов
тотализаторах
##IT
##ализация
этогофон
удостоверяется
продемонстрировать
грузов
запланиров
готовится
”
жетонам
##ивающая
##лов
обнаружении
Абстракт
автома
любые
малый
##ожая
_________________________________________________
Существ
##ерах
устройствах
внутреннем
15443
##JTF
наступлении
щищают
строительной
интересными
##имо
активностипоказ
Объяснение
инсталлированная
качестве
определенныйнабор
##йных
узко
##мацевтическая
таковой
способом
выполняющему
##С
вариан
##упользователями
чрезмерных
привлека
##FAU_SEL
иметься
сопроцессора
2012летвор
##аться
зарегистри
функциональную
монополизировали
закону
сложными
митетом
имеющее
отмену
дано
цвета
##Элементы
днем
2014
входить
Изменения
неправильного
отслеживанию
маршру
против
случайных
технологических
депозитариев
предпочтительным
##правилам
дополнительной
внимания
контролируемых
ограничительным
Будут
яв
сей
##отого
##оточенный
определили
более
прикладномпрограммном
##ском
осуществления
алфав
операциях
5C
предприятием4
компонент
##___________
математических
СРД
тематические
контекстесвой
возникали
».
##ода
##ортом
##ble
зависимый
затруднений
##FPR_UNO
всего
воздушном
несколькихполитик
##Ш
эффективного
рацион
государственные
and
разделам
автономное
Исследователь
##икак
упрощ
ОЦЕН
лабораторий
вклад
ини
аванпроекта
##7
техническому
##конкрет
##OE
подтвердить
выполняют
##итьдоверенный
над
Изложение
##ания
уточнил
неже
попеременно
руководстваиспользовать
Информ
находя
поддержкой
##ключ
##утентификации
9ГОСТР
выбра
list
подтверждающий
«+»
примен
исключ
##мотренных
Экспорт
).....
бытьответственным
нимых
дальнейших
выходным
жертвы
Требований
##работке
первоначальная
##all
##конодательства
истек
Наци
выполняемыхоценщиком
средственных
открытость
ю
##сталляция
продемонстриро
Допускается
неэффективно
##нологич
Приказ
2013вен
вобождении
сб
пользовать
уточнений
восстановлениеРисунок
заблагов
##оложение
##АЦИОНАЛЬНЫЙ
##rotection
программного
учету
117
##ASE_
##анные
авторуПЗ
##азначениеинтерфейсы
##ками
_СО
предоставляются
полно
##LSA
однозначная
ADV_ARC
##SEL
##фры
носящиеся
значительно
указаний
##авис
##заим
20
созда
снижая
щим
##уровням
никакую
дифференци
Пусть
триваемой
##общ
Детализированный
лицензиате
##ныеи
Безопас
биометри
раздепя
хранится
схожим
##гнований
грубым
осуществляющая
##ACF
подвергнутся
ПРАВИТЕЛЬСТВО
##комитетом
стоит
х
обязательную
приложениях
повышениясоглас
представившего
правовое
представлению
такого
распространять
кластера
1СДокументация
##Предположения
доч
Банк
наклад
##ащих
следующеезаключение
##ск
РОР
отменяе
согласо
210
дан
##е
проверяет
##master
содержащей
усложнить
##фициро
которое
тура
ФГУ
неравном
лицом
##апро
описанномв
определен
заполнение
фирмен
2013шаб
данныхF
религи
субъектовданные
2009
Ко
носителях
приводится
разрешении
поступили
полнения
##ecurity
экспертные
Срок
туда
сообщения
безопасных
процессо
##шие
оставался
ДУД
производилась
безопасностиИерархический
нейтрализовать
скую
открытой
длинными
ющееся
няя
16С
Одна
##щие
присоединенные
детализированному
##чаться
проникновения
приводятся
космическая
флажки
стандартному
##анно
##stall
1FPR_UNO
толковаться
МИНИСТР
##DP_
Управление
статическим
терминал
##орг
служебная
ступным
сделано
полу
403
##НАЦИОНАЛЬНЫЙ
выполняет
hATEJND
аргумент
сложен
оценщикаДопускается
подача
касающимся
сним
переполнениижурнала
себяодного
изложением
показывали
##вет
временными
соглашения
Настоящий
нить
плотность
лицо
6Руководства
используютвы
интер
описаний
спец
##атности
##IX
самыми
аттестован
задавая
предоставляли
##ун
##25
##качеств
##kOS
проектных
тод
123ГОСТР
реест
росс
Экспортиз
виртуальным
выявлена
собственного
##емо
Следственного
аспект
разрешающие
op
БЕЗОПАСНОСТИИНФОРМАЦИОННЫХ
просмотр
59
списокдовер
направлять
##net
интерфейсамоду
##нере
##штатных
односторонних
##фициру
учиты
включении
151ГОСТР
руемом
ограничен
специфицируется
##осуществ
составлении
тельствуют
приложению
ожидаемым
итог
##42
опубликована
вспомогательного
##рными
специальные
13
идентификатором
зашифрование
##ультаты
статка
отде
процедурного
безопасностиFAU_SEL
достаточного
висимому
ВЫызовы
инициированное
наивыс
вычисление
инцидента
инициативе
Дальнейшая
ставить
привилегиями
уведомляемую
которыеперв
эксплуатирующее
слежена
мально
Специальных
...........
генератора
##исс
обязанностей
6AGDJDPE
##ить
##Ком
ас
приостанавлива
глаго
вспомогательным
Пользователь
функционирования
рабочеевремя
подразделяются
пределах
графи
##ЕНИЙ
Ежегодно
мониторинге
продолжать
##ез
правилам
ФЕДЕРАЛЬНАЯ
профилем
прошедшими
Банком
ранжированиюПоскольку
шение
Точ
Заключительным
самоуправлении
##лючения
предполагают
##FM
пыт
НикифороваТехнический
##RAM
##аксималь
3CКраткая
переназнач
##onment
сертифицированного
формализованном
профессиональное
##уры
шаги
статистическим
##40
сопрово
##Представление
1090
необходимоуч
запроситьсвидетельство
называемое
)................................................................................
принципам
уникаль
корпуса
функцииуправления
ФЕДЕРАЛЬ
МЕТОДИЧЕСКИЕ
Типы
ин
космической
водным
##ый
##ламент
словосочетания
оперативно
ACO_REL
##хх
достаточности
Работы
se
ностями
угрозкоторые
люб
негативным
зователю
BDU
##аточ
хранимых
Встроенное
присвоения
##FTP_
представители
взаимодействующие
##руемыми
##Уник
BU
ролейН
Проверки
телеф
бытьуб
##жеств
##ельного
предусмотренные
обезвреж
##вобожд
чтобыогранич
методичес
##кими
глуби
цифровой
##истер
предоставленной
##ршруты
Довери
завершено
оповещениео
##VE
одноми
информацииF
##ляют
описанную
##SAE
типовой
##пльные
законодательством
хранимого
##фициров
фактах
проведения
сертификации
##OB
недо
##такого
передав
:[
гос
РО
пользователейи
ссыл
неприменимыми
предъявленных
##021
##ита
##нить
Характер
метал
Аттестация
computi
interaction
димых
запу
понентов
исправлен
причинить
##действий
трид
масштаб
##правлении
##ож
обоснов
аттестуемому
поддерживаемая
нарушителя
Минкомсвязи
##ец
Зд
Надежные
поддержано
данных
мая
##BJ
превышать
определением
производительность
нарушены
##ответствовать
сущностейсо
нос
##ID
Желательная
собственными
используемые
навязывания
возмож
60
месячный
##CKM
полную
##личес
устанавливать
связанныхс
ления
запросил
ональных
анализи
показано
бут
##нач
##ЁН
##ствомп
фрагментов
##ывающих
##ary
свойство
намерениями
Рассматриваемыми
##каталогов
3С
Декомпозиция
Характеристика
##коно
корректную
компонентыопределя
время
системыADV_SPM
##них
Эконо
подпунктом
кто
подверг
авторизациейALC_CMS
медицинских
мониторингL
шесть
перезапис
ADV_FSP6
Применяемый
паспорта
Предваритель
абстрактном
##обожд
##емыхданных
ских
субъектыв
##ленный
осуществляемая
часто
распространяетсяданная
неразрешенные
##|
татов
ИНФОРМАЦИОННОЕ
инициацииэксп
конкретной
Вахрушева
слишком
онными
дости
МЗЭК
##енностью
необъяв
ЕТА_ТАВ
##осса
2013определя
ОперацииМ
уменьшение
плановой
регламенти
отсутств
содержащее
снаружи
основы
ft
обоснований
вру
совместно
##омянут
передаются
гриф
монополизации
недейств
облегчают
Государственный
Либо
Предназнач
тесты
ТРЕБОВАНИЯ
подключа
неперезаписываемых
##есист
автомати
##13
имясемейства
периферийными
удаленно
крупных
тренного
justification
##ы
vul
очевидны
зывания
режиме
##КТОВ
Характериз
сделанным
##ящий
передаваемую
цен
откат
восп
средой
усл
OTBпри
предопределенной
Группа
выполняющая
разъясняются
FPT_TRP
минимальному
##спредел
##cept
##стоящий
лич
осуществляться
2013предоставить
повторному
аутентифицированы
ориентироваться
Главному
возникновению
плане
аналогичным
ресурсовРисунок
знаков
позволяющееоткры
электронике
##инте
##ЕЗОПАСНОСТИ
какми
интеграцию
субъек
##голь
взаимоотношениях
полн
уникальноеимя
прикладном
##taddr
##ведом
робаст
modular
##ентный
бюджета
##73
исключающее
Такой
возникает
нением
аппаратурой
пособия
##Пол
потенциально
архивации
какоепредположение
аутен
основываются
бланк
пользоваться
тые
дисциплина
критичным
##_________
аутентификацияG
_i
правилахFIA_UAU
##MCS
вычислительных
удовлетворения
специализ
выводам
Центральные
пунктами
соответствииASE_ECD
снимдля
внешни
будут
ЗБASEJDBJ
истинных
пользователяВ
включаянорматив
высшая
##личие
политических
возложить
вст
##других
Усиленным
##oB
ошибках
КОНТРОЛЮ
поимено
позвол
прави
предпринимаемые
обладающим
платформы
уполномоченное
##PSE
какому
энергоснабжении
##актор
##альную
ихобработке
прерыв
внесе
согласов
характер
##арат
возлагается
##лируется
диапазоном
##рхитект
##разработчиком
передпредоставлением
автора
oo
просмотру
макетировании
Границы
ПОР
теоретичес
##пользо
сеансы
полномочного
авторПЗ
лью
##ранирование
веду
финансовая
policies
1992
##ями
вред
1FPT_ITT
##нограмм
ключевых
сообщают
сервисом
##функци
##номи
первоначальной
составляющим
5ALC_CMS
согласованной
объединен
##ова
направленного
потоком
ЯВЛЯЮТСЯобеспечивает
договором
существовать
ch
драй
УгрозыДанный
##елать
добровольный
##ИТЕЛЬ
запроса
##ствие
FDP_IFF3
Нарушение
##пло
##реш
Дополнитель
доказать
неприменимости
1912323
7ГОСТР
##GD
##ющем
АРЕ
утверждения
заключающееся
лра
деляется
Гостех
##печ
фигу
Утвержде
монопольного
ИНФОРМАЦИИ
Ъ
##количество
обеспечена
ключительно
неуспешная
##ь
Ци
запрашивающий
конфликты
перекры
аппаратуры
##ставить
Неформальная
каналу
Ффикацию
Рассмотрение
l
указывающие
лит
сце
##имя
предоставит
Финансов
##аслед
предприятия
чает
##сопостав
последней
необоснованные
ВСТ
##AA
Макет
ана
##сим
тацию
управленияинформ
Фокус
Нарушения
интересы
Там
совместимые
##AP
##язаверш
F
Возможно
тенти
ЗАЯ
Database
##ируемого
##dr
наконец
##ственно
пара
##боты
обозначен
ответственного
##кри
организуется
основанному
предопределен
##ранснадзор
Комментарии
юридический
уточ
нетехничес
альтернативному
Упро
памятников
модифицируют
группойпользователей
##коль
понятное
2016
удост
##детализ
оператор
AAL
МЕД
особенностях
]]
конфигурирование
фикатор
##реализ
##ьмом
##лой
приобретен
сочетанием
##дужной
имеющихся
безопасностиH
перечню
определениережим
можноустановить
##53
ПоддержкаПоддержка
Президент
##ерченной
##сво
Избира
фотом
аутентификацииС
содержимое
вправе
сети
вступили
договоре
Многократное
людям
)..............................................................................................................................
пользователемпри
хак
метода
1FPR_ANO
остаются
вив
случаях
выбранному
##У
обпа
САнализ
ЦелиЗамечания
лицензиру
одоб
узлам
ожидаемые
сматриваться
му
непредусмо
##мыс
пла
Пассив
протоколов
ПРЕЗИДЕНТА
Адекват
течение
гому
дурных
2013определяющий
физические
длины
созданный
modules
доверенномупрод
разрешено
снаб
)............
пенсионными
персональныеданные
##емости
##гда
емке
##рным
повтор
иностранных
архитектурной
характеристика
##РЫ
применяли
млн
заимствованные
компонентами
##с
FDP_ETC
активном
участ
##висов
побоч
Верификация
совместимыми
##шел
октября
дений
##обслу
##тивных
недекларируемых
##анов
существование
отраженыв
ществлению
повышения
##ительными
дисков
##ro
##re
повторная
принадлежности
Передача
##администратора
11С
считать
ненадлежащим
ИП
полняться
стандартные
придерж
Windows
узость
сотрудниками
лученные
##упользователю
вают
формули
поступают
увеличения
Концеп
параме
##новременно
кий
MO
3623
исправление
предназначенное
повторя
##окументированных
удаленный
57
последовательными
заблуждение
соизмеримости
кправилам
бого
вносимых
категорией
##MR
Сла
условиям
Функ
##ального
ожидают
сформулированных
показателям
ражает
бум
##ющий
понимании
упоминалось
##FTP_TRP
разделен
взаимосвязанных
десять
зервисов
группысемейств
расширены
Лицензирующие
восстанов
##ведение
проектированию
дефектов
##Отпечатано
циклаAGD
флажок
мног
2008Information
Согласованность
##................................................................
компонентовФункцион
составляется
происходящие
Readaudit
синхронизировали
##Оцен
##характ
выбранной
Генерирование
Сокрытие
типапаролей
Потенциальные
испытатель
случаенедействительной
подготовительных
еди
между
##олог
Возникновение
отвеча
ию
2Б
бытьспецифицирована
эффект
5CФункциональная
адресата
вводимыми
ДИ
производилось
эвристика
атрибутов28
декомпозиции
твержденный
отбор
коробка
Важ
Единица
Оцененныйоо
былиудовлетвор
О
у
##тинному
##рацией
Роль
действующими
[PAD]
вовлеченных
##it
установить
спечена
фейса
гибкости
противоречивыми
скрываются
self
регулирует
простран
подразуме
Следующий
увер
##фицированного
соблюдать
границ
найти
##СКО
поддерживающих
опытную
##дикцию
безопасноехэш
РОССИЙСКОЙ
комплекс
совсем
устойчивоеи
##_САР
количественные
установившихся
исследовательских
сгруппируются
##утверж
##предоставить
массовой
рей
операторами
ливаться
власти
##спомог
##бках
назначенным
функциональной
формате
разнопланов
соответствияИзложение
6041
собственную
контролируемой
##ain
обязательностьадминистра
продуманныйпл
Участ
##ОСТ
отличим
0
##ИКАЦИИ
следование
лающий
устройстваили
Veri
кторой
основноепон
##РЕ
манипу
никтоне
##шиеся
тельного
##онзаказ
близкими
Ано
Далее
циализации
Техническим
323
использованному
обходит
Определение
специфицированном
дляустанов
##ателя
тельств
##рез
##uthentication
блок
неактуальными
4CДля
данног
субъ
аудитаЗависимости
подтверж
подтвердилась
##НЫХ
координируются
##FIA_SOS
##даются
утеч
маршруту
выпуск
детализированный
##RU
транспортиров
заблокированы
выражены
поддерживающей
донимов
закреплена
##нимание
особенностям
таксономи
правилах
объективным
посредничестве
использует
реквизиты
сбоевили
позволя
05
логическая
ветствующих
контролируется
##цеду
ран
Физическая
могла
противоречащ
##описанию
демонстрируют
##дежными
##ност
ной
которыйявляется
ресурсыили
предоставлялись
постоянного
корректировку
администра
читает
FMT_SMR
##утем
фрагментированы
комплектности
должности
Списка
соответствующее
каждыйпользователь
перечень
запрашивающую
позво
английском
лежащую
отсутствие
способности
спецификациейЗависимости
компьютерные
предоставлено
конторах
инструментальны
рассмотрения
служебные
опись
контролл
##еальной
прилагаемые
##ест
##тирует
сматри
водо
столбцах
данныхявляется
раметры
##екс
изме
ставному
зарез
##ныениже
##видетельство
денег
##iza
##ожением
зовании
иерархичен
положения
реинжин
parts
##enti
подтвержд
огра
##ды
ложного
другому
расширенными
тически
информацииИерархический
##имы
добросов
присут
авторизацияН
трудовыми
сохраняя
ACOJDEV
##ерх
вну
реше
ресурс
системномпрограммном
вовсе
оцениваемых
присутствовать
посчитать
подходами
выражает
сетевой
соответствиизадания
##енс
##явление
Предоставление
управлениюнеразреш
##онем
##ичностью
описанию
Некото
зано
текущих
установленной
ограничены
вошедших
##нич
механизмом
мобильного
001
обо
##ожение
корректировать
совмести
cl
##ющуюся
##ариан
уровнях
безопасностиATE_FUN
авториз
взаимно
ЕВУ_Р
надлежащее
##жи
1000
таблицы
обеспечен
##urance
##портиру
могутиспользовать
формальных
разноплановых
религиозных
Административно
соответствиисо
словесными
труднее
дуктом
##шными
бытьобязатель
достигнуто
##ченной
спонсорами
##БОВАНИ
полняемая
основано
содержащейся
буквой
##ле
внутри
улуч
адре
глоб
явно
Существующие
##FS
да
екта
конфигурацию
законов
балла
проверке
кконтролируемым
иэкспортному
образцу
##кона
##именуются
ХХХХ
!
AGD_OPE
5CДля
1062
законные
личественного
##одезическая
FIA_UID
первоначального
сертифицированных
##агирование
лицензионный
сопровождаемых
Исправление
аттестации
##пользователи
хитектурных
Пароль
ход
решения
1FTA_SSL
управля
предельного
предоставлением
342
acceptance
293
утверждениями
##лав
удаленных
итогов
##па
включенные
21ГОСТР
формулировки
величинами
альтернатива
##ффер
подвергающиесяаудиту
##гу
##обход
требуемой
ВЛА
.....................................................................................................................................................
распределенные
pol
учитыва
11ю
достаточное
говоря
доказательств
##остность
использующими
исходный
статистического
##3ADV_FSP2ADV_FSP4AA
методического
мега
нятое
вставкиили
совпад
разрешающих
ознакомлении
##комисс
автоматизи
ляемые
тестовая
ФБОL
бизнес
##ALC_CMS
оказаться
выявлении
отслеживаться
ПЗНа
экономическим
обосновывается
группой
налога
Аппаратные
прив
работников
3ADV_SPM
##OTB
макрос
постановления
вых
##множествами
##КОЕ
874
‘
##циальная
SFR
будет
Подобное
##рабат
автомат
эти
нятие
неиденти
implementation
применяемыхФБО
устанавливающим
##термин
приемочных
приспособить
частности
непол
##данного
Испытательные
недостатки
тщательности
способе
итерация
шательства
аномальной
APE_OBJ
производ
графичес
ЦБИ
другойчасти
109
##припас
поименованные
МЭЖК
##анализ
физическоев
Цент
акционерных
БиометрияК
конструктор
ob
аппаратные
mv
заполнения
Классификация
«.
управляемом
контроля
направленныена
ются
аутентификацииG
9CВ
объектамии
полняемым
помогают
факторов
след
пакетном
AVL1
устойчивое
Калужской
соответствующегоФТБ
влияющих
##ственным
истор
лице
ское
OOПрослеживание
нейтрализующей
131
связано
нарушил
##жены
безопасностиF
способствующие
3FPR_UN
каждого
Физически
##nel
перезагрузок
факт
сопровождения
Терми
докумен
сопоставлены
предоставляемых
факта
##75
обобщенного
частотные
##орте
данныхаудита
##оказать
##--
##ин
выполняющих
порождает
##ценщик
считана
##езопас
осуществляющее
сохраняет
возобновляется
любую
защищаемого
##43
техническое
FTP
семействаЗамечания
исправлялись
буфери
##FCO_NRO
##омеждународного
налич
осуществлял
сформи
нимность
сообщений
##дем
поставляться
реаги
всроки
ПЛН
выбрано
наслед
##ику
образовании
ставного
безопасномусостоя
ированы
R
криптографии
»;-
##альнейш
тевые
типапа
упрощенному
DOS
иерархич
изложение
характеристикиего
инициатив
межправительственного
токена
##шихся
##.......
выполненияслу
)........................................................................................................
Активы
СВЯЗИ
заранее
управляющих
связного
отслежив
##без
поясняется
##твержд
признанием
полученыпо
2ЕОценщик
тексту
работник
Лицензион
становлением
излишних
##ленности
шаблоны
неоднократное
##чены
получающего
разгруз
Вопросы
износ
CD
##переб
##обы
следова
fro
Каков
выездная
этому
##ятельность
187
##ICO
устоя
##имой
##ностив
напротив
каталоги
OTBи
указываться
формат
скриптов
Минкомсвязь
выбрана
рассмотрению
##от
завершение
##яющиеся
##стойчив
##нских
##альным
Sensiti
1944
атрибутами
отменя
##$
погрузочно
которому
ДА1
##проект
##SDSSDD
блокировать
,»;
##_YY
филиалы
##локи
##сеансов
объясняющий
изысканий
внедрены
нежелательно
onpe
##бои
сильную
ПЗУтверждение
оформленном
идентифицируются
проблему
частое
охватываемые
ноября
##овы
##крыт
--------------------------------
инструментария
##лемы
требованиякак
##фици
распоряжении
работником
139ГОСТР
опереж
##ческую
##аем
прежние
##чную
обеспечивающим
Пов
сто
\/
временные
расширенныхкомпонентов
##отказуемость
чатки
замет
##лог
беспереб
##альными
тестиро
целостностиданных
распознавае
луч
род
запрещать
стандартизованном
##вательные
допуская
##рания
##емость
##опожа
бражением
ООКласс
##кулиру
эксплуатируемом
экспертных
##восстанов
##цент
прикладных
##ийся
многоуровневого
прогнозируемого
техники
англи
ограниченныхнекотор
нок
демонстрацию
вызовами
разрабатывает
архивных
несколькоп
деблокирующие
бегает
привлекаемым
стабильностью
роб
##ателям
следовать
complete
##22
В
взаимного
ляющего
компонентах
3604
ОУДЗ
ASE_TSS
##контрольно
##штаб
##мещение
man
избирательность
правад
Средства
сочетающихся
##мекерских
обладающих
субъектами
Сю
##остающих
треб
##йными
23ГОСТР
ция
##ну
таковым
##поддержка
92
различныхсистем
идеальной
диапазона
##отратить
сформированного
##риф
подверж
вя
выдан
##овом
разделя
высокоприоритетные
стирование
предоставленному
высвобождению
##ип
##орных
эксплуатирующем
человеческого
цели
двойного
следуют
механизмаутентификации
буты
исследователя
Нев
унитарным
пользовате
кадастров
гарантию
исключе
Убедив
предоставивший
примененияи
сложностью
сведениями
относительную
хозяйствующего
экологическим
варианты
косвенно
поэтому
Привед
текущей
емыми
##FDP_U
##DR
пользовательский
численных
требуется
совместное
целевой
официальное
стиле
удаляется
известному
12СДокументация
##бра
OOВведение
деб
выступают
служеб
31
##енному
уч
нако
электром
##AU
ден
##разрешения
равноправ
вля
##ивается
сертификационных
5CТестовая
##_ТАТ
информатив
направлениях
дующими
##уще
пятому
получению
организации
##рование
сгенерированныхОО
обширный
procedu
ограничиваясь
тельном
индивидуальной
##одно
Необходимо
##лен
основанныена
имя
аутентифик
##extaddr
классами
пассивному
секретов
предусмотренного
допускаемой
##ирин
##жными
взаимозависимости
данныхBO
опубликов
национальной
приведенной
»;
отвечали
эквивалентный
менение
извод
учетомактуальных
тесто
пользователиИСО
успешный
позволяющая
DDDDVVVV___JTF
##рируемых
отдель
##емая
делены
безопасности18
201
территориальному
видам
шага
Назначе
тому
11ГОСТР
ACL_LCD
яд
ключевую
##лкой
подсетям
ни
##CCL
1CОбоснование
применятьсяпо
##ируемых
Ори
##рание
полномоч
невер
##реем
лагаемых
Акт
##тировать
ответственная
дненедели
знание
интерфейсыФТБ
##рх
щитные
##путем
предоставляется
обосновав
##одез
ед
##FAU_SAA
зафиксировал
Многоуровневая
присво
относительно
протя
CB
разных
различным
текущ
проводимого
1239
NPSE
бытьвосстанов
кдокумент
отвечают
стандар
копирова
производителей
уточнена
##определенному
ASE_SPD
Стандарты
отнестииз
уникального
##ранить
);";
##причины
управлени
##лей
интернет
широкого
НА_АТО
определениюролей
местном
1204
повышается
буквы
шкале
deliver
серви
максимальном
конфиденци
информационной
мех
препятству
##P1
XIII
наблю
##ability
##хранения
реализа
[...]
